[PAD]
[UNK]
[CLS]
[SEP]
[MASK]
##Ø©
Ùˆ

Ø§Ù„
##Ø§
##ÙŠ
ÙÙŠ
Ù…Ù†
##Ù‡
##Ù…
##Ù‰
##Ùƒ
Ø¹Ù„Ù‰
ÙŠØ§
Ø§Ù„Ù„Ù‡
Ù…Ø§
##Ù‡Ø§
Ø¨
##ÙŠÙ†
##Ùˆ
##Ù†Ø§
Ø§
Ù„Ø§
##Ø´
Ù„
ØªÙˆÙ†Ø³
##Ù†
##ÙŠØ©
ÙƒÙ„
Ø±Ø¨ÙŠ
##Ø§Øª
##Ù‡Ù…
##ÙƒÙ…
Ù…
##Øª
Øª
ÙŠ
Ù
ÙƒØ§Ù†
##ÙˆØ§
Ù‡Ø°Ø§
Ø§Ù†Ø§
Ø§Ù†
##Ù„
Ù…Ø¹
Ø§Ù„ÙŠ
ÙˆØ§Ù„Ù„Ù‡
Ù„ÙŠ
Ø£
Ø³Ù„ÙŠÙ…
##Ø±
Ù‡Ùˆ
ÙˆÙ„Ø§
ØªÙˆÙ†Ø³ÙŠ
##Ù†ÙŠ
Ø­Øª
##ÙˆÙ†
Ø¨Ø§Ø´
ÙˆØ§Ù„
Ø¨Ø§Ù„
Ø§Ù†Øª
Ø§Ù„Ø´Ø¹Ø¨
Ø§Ù„Ø¬Ø²Ø§Ø¦Ø±
##Ø¨
Ø£Ù†
Ù†
##Ø§Ø¡
Ø§Ù„Ø§ÙØ±ÙŠÙ‚ÙŠ
##Ù
##Ù„ÙŠ
Ø¹
Ø¹Ù„ÙŠÙƒ
Ù„Ù„
Ø¹Ù†
##Ø¯
Ø¹ÙŠØ´
Ø³ÙŠ
ÙƒÙŠ
Ùƒ
Ù…Ø¹Ø§Ùƒ
Ø§Ù„Ù„ÙŠ
Ø¹Ù„ÙŠÙ‡
Ø§Ù„ØªÙˆÙ†Ø³ÙŠ
Ù…Ø´
Ø´Ø¹Ø¨
Ù‡ÙŠ
Ø®ÙŠØ±
ÙˆØ§Ø­Ø¯
Ø¹Ù„ÙŠ
ÙƒÙŠÙ
##Ø§Ø´
Ø¥
Ø§Ù„Ù†Ø§Ø³
Ø§Ù„ÙƒÙ„
ØºÙŠØ±
##Ø§Ù„
##Ù„Ù‰
Ø§Ù„Ø§
Ø§Ù„Ù…
ÙØ§Ø³Ø¯
##Ø§Ù†
Ø§Ù…Ø§
Ø¨Ø¹Ø¯
##Ø³
##Ù…Ø§
##Ø¹
ÙÙŠÙ‡
Ø§Ù„Ø±ÙŠØ§Ø­
Ù„Ù…
ÙÙŠÙ‡Ø§
##Ø±Ø¨ÙŠ
ØªØ­ÙŠØ©
Ù‡
Ø´Ø§Ø¡
Ø³
Ù‡Ø°Ù‡
Ø§Ù„Ù†Ø§Ø¯ÙŠ
Ø§Ù„Ø¨Ù„Ø§Ø¯
Ø¹Ù„
Ø§Ùˆ
Ø§Ù„Ù‰
Ø­Ø§Ø¬
Ø§Ù„Ù
##Ù‚
Ù„ÙƒÙ†
Ù…Ø¤Ù‚Øª
##Ù„Ø©
Ø¨Ø±Ø´Ø§
Ø´ÙƒÙˆÙ†
##Ù…Ø©
ØªÙˆ
##ØªÙŠ
##Ø±Ø©
Ø´ÙŠ
Ù…Ø¨Ø±ÙˆÙƒ
Ø±Ø¦ÙŠØ³
Ø£Ù†Ø§
Ù‚Ø¨Ù„
##Ù„Ùƒ
Ø±Ø§Ø¬Ù„
Ù…ÙˆØ´
Ø¹Ø§Ù…
##Ù€
##ÙˆØ´
Ø¨Ù„Ø§Ø¯
Ø£Ùˆ
Ø¨Ø´
Ø¨Ø§Ù„Ù„Ù‡
Ù„Ø§ÙŠÙƒ
Ø§Ù„Ø¥ÙØ±ÙŠÙ‚ÙŠ
ÙˆØ§
Ø±
Ø§Ù„Ø°ÙŠ
Ø³Ù†
Ø´
Ø¨Ù†
ÙƒÙ„Ø§Ù…
Ù†Ø§Ø³
Ø¹Ù†Ø¯
Ù†Ø­Ø¨
ÙƒÙŠÙ…Ø§
Ø§Ù„Ø¬Ù…Ø¹ÙŠ
Ù‡Ù†Ø§
ÙˆÙ‚Øª
Ø¥Ù„
Ù„Ùƒ
Ø§Ù„ØªÙŠ
Ø§Ù„Ø£
ÙŠØ­Ø¨
##Ø¨Ø©
Ø±Ø§Ùƒ
ÙˆÙŠÙ†Ùˆ
Ø¬Ø¯ÙŠØ¯
##Ø§Ù„Ù„Ù‡
Ø±Ø¬Ø§Ù„
Ø­
Ø¥Ù„ÙŠ
Ø¥Ù†
Ù…Ø±Ø©
Ù‡Ø°ÙŠ
Ø§Ù„ØªÙˆØ§Ù†Ø³Ø©
Ø¨ÙŠÙ†
##Ø­
ÙØ±Ù†Ø³Ø§
Ø±Ø¨
Ø§Ù„Ù…ØºØ±Ø¨
Ø­Ù„Ùˆ
ØªØ­Ø¨
##ØªÙ‡Ø§
Ø¹Ù„Ø§
##ØªÙƒ
Ø§Ù„Ø¨ØªØ±ÙˆÙ„
Ø¹Ù„ÙŠÙƒÙ…
ØªØ­ÙŠØ§
ÙŠÙƒÙˆÙ†
ÙƒÙ†Øª
Ø¯ÙŠÙ…Ø§
##Ù„Ù†Ø§
Ø®Ø§Ø·Ø±
Ù‡Ù‡Ù‡Ù‡
Ù„Ø§Ø²Ù…
Ø¨Ù„
Ù„ÙŠÙƒ
Ù…Ù„Ø§
Ù†Ø­Ø¨Ùƒ
##ÙŠØ±
Ø­Ø¯
Ù‡Ù‡Ù‡Ù‡Ù‡
ÙˆØ§Ù†Øª
Ø§Ù„Ø¯ÙˆÙ„
Ù„Ùˆ
##ÙŠØ§
Ù…Ø¹Ù„Ù…
Ø§Ù„Ø¹Ø±Ø¨ÙŠ
Ù…ØªØ§Ø¹
ØµØ­ÙŠØ­
##Ù„Ù„Ù‡
Ø£Ù†Øª
Ø§Ù„ØµØ­
Ø³ÙŠØ¯
Ù‡Ù„
ØªÙƒÙˆÙ†
ØµØ­
ÙŠØ¹Ø·ÙŠÙƒ
Ø£Ù…Ø§
Ø´ÙƒØ±Ø§
ÙˆÙŠÙ†
Ù‡Ù‡Ù‡Ù‡Ù‡Ù‡
##ØªÙˆ
Ø¨Ø²Ø§Ù
Ø§Ø­Ø³Ù†
Ù„Ù„Ù‡
Ø¨Ø§
Ø¨ÙŠÙ‡
Ø¯ÙˆÙ„
##Ø¡
Ø§Ù„ÙÙŠØ¯ÙŠÙˆ
ØªÙ‚ÙˆÙ„
ÙˆØ­Ø¯
Ù„ÙƒÙ„
Ø­Ù‚
Ø¬Ù…Ø¹ÙŠ
Ø¹Ù†Ø¯Ùƒ
Ø¨Ø³
Ø¹Ù„ÙŠÙ‡Ø§
Ø§Ø­Ù†Ø§
##Ø¬
Ø§Ù„Ø­Ù‚
ÙÙŠØ¯ÙŠÙˆ
Ø§ÙŠ
Ø§Ù†ØªÙŠ
Ù‚
Ù„ÙŠØ³
Ø§ØºÙ†ÙŠ
ÙŠÙˆÙ…
Ø¹Ù„ÙŠÙ†Ø§
Ø¹Ù…Ù„
ÙƒØ¨ÙŠØ±
Ø§ÙƒØ«Ø±
Ù†Ø­Ù†
Ø®ÙˆÙŠØ§
Ø±ÙˆØ­Ùƒ
Ù‚Ø§Ù„
Ø§Ù†ØªÙ…
Ù‚Ùˆ
Ø¨Ø±Ø§ÙÙˆ
Ù…Ø±ÙŠÙ…
Ø­Ø²Ø¨
ÙƒØ§Ù…Ù„
Ù„Ù‡
Ø¬Ø§Ù…
ÙŠØ¹Ù†ÙŠ
Ø§Ù„Ø¹Ø§Ù„Ù…
##Ø§Ø±
ØªØ¹Ù…Ù„
Ù„Ù†
Ø¨Ø¹Ø¶
ÙŠØ§Ø±Ø¨
##Ø¯Ø©
ØµÙˆØª
Ø¬
Ø´ÙŠØ¡
Ø¯
Ù‡Ø§Ø°ÙŠ
Ø§Ù„Ø³ÙŠØ¯
ÙŠÙ‚ÙˆÙ„
ÙˆÙ…Ø§
Ø§Ù„Øª
ÙÙ…Ø§
Ø¹Ù†Ø¯ÙŠ
##Ù‚Ø·
Ø´ÙˆÙŠ
ÙˆØ§Ø´
ÙˆÙ„Ø¯
ÙŠØ³Ø±
ÙƒØ§Ù†Øª
Ù‡ÙƒØ§
Ù†ÙØ³
ØªØ­ÙƒÙŠ
Ù‚Ø¯
Ø§Ù„Ø­Ù…Ø¯
Ø§Ø°Ø§
Ù„ØªÙˆÙ†Ø³
##Ù„Ùˆ
##ÙÙŠ
Ø§Ù„Ù†Ù‡Ø¶Ø©
Ø¬Ø²Ø§Ø¦Ø±ÙŠ
Ù„ÙŠØ¨ÙŠØ§
##ØªÙ†Ø§
##ÙŠØ´
Ø¬Ù…ÙŠÙ„
Ù‚Ø§Ø¹Ø¯
Ø§Ù†Ø´Ø§Ø¡
Ø®Ù„ÙŠ
Ø§Ù„ÙŠÙˆÙ…
Ø¨ÙŠÙƒ
3
Ø§ÙˆÙ„
##Ø·
Ù‚Ù†Ø§
Ø±Ø¬Ù„
Ø§Ù„Ø³ÙŠØ§Ø³
ÙƒÙ…Ø§
Ø±Ø§Ù‡
Ø³Ø§Ù…ÙŠ
Ø§Ù„Ø¯ÙŠÙ†
ØªØ§Ø¹
ÙˆØ§Ù„Ø§
##Ø²
Ø¨ÙŠ
Ø³ÙŠØ§Ø³ÙŠ
Ù‡Ø§
##Ù„Ù‡
Ø³Ø¹ÙŠØ¯
##Ù…Ù…ÙƒÙ†
Ø®
Ø§Ù„Ø­ÙƒÙˆÙ…Ø©
Ø¬Ù…Ù‡ÙˆØ±
Ù…Ù†Ùƒ
ÙÙŠÙƒ
Ø§Ù„ØªÙˆÙ†Ø³ÙŠØ©
ÙŠØ¹Ù…Ù„
##ÙŠÙ‡
##Ø¨ÙŠ
ØªÙˆØ§
ÙŠØ±Ø­Ù…
ØªØ­ÙŠØ§Øª
##Ø¯ÙŠ
ÙÙ„ÙˆØ³
Ø­Ù„
Ø§Ù„Ø«ÙˆØ±Ø©
Ù…Øª
Ø¶Ø¯
##Ù„Ù‡Ø§
Ø§Ù„Ø±Ø¬Ø§Ù„
Ø¬Ø¯Ø§
##Ø¹Ø©
Ø§Ù„Ø®ÙŠØ±
Ø«Ù…
##Ù„Ø§
Ø¨Ù„Ø§
Ø¨Ø±Ù†Ø§Ù…Ø¬
Ø¬Ø²Ø§Ø¦Ø±ÙŠØ©
ÙŠØ¬Ø¨
ÙÙŠÙ‡Ù…
Ø¥Ù„Ø§
##Ø­Ø©
Ø§Ù„Ù„Ù‡Ù…
Ø¹Ù†Ø¯Ùˆ
Ø£ÙƒØ«Ø±
Ø§Ø´
Ø§Ù„Ø¹Ù…Ù„
Ø±ØºÙ…
Øµ
##ÙˆØ±
Ø¨Ø®ÙŠØ±
Ø±ÙˆØ¹Ø©
Ø§Ù„ØºØ§Ù„ÙŠ
##ÙŠÙƒ
Ù‡Ù‡Ù‡
Ù…Ø­Ù…Ø¯
ÙˆÙ…Ù†
ÙˆÙ„ÙƒÙ†
##Ø´ÙŠ
##Ø±ÙŠ
Ø¨Ø¯ÙˆÙ†
Ø´ÙˆÙ
ÙˆØ§ØµÙ„
Ø´Ù†Ùˆ
##Ø¬Ù…ÙŠØ¹
Ø­Ø¨
Ø¨Ù†Øª
Ù…Ø§Ø´ÙŠ
##Ù‚Ø©
Ø§Ø³Ù…
Ù…Ø¹Ø§Ù‡
Ø§Ù„Ø¯Ù†ÙŠØ§
Ø¹Ù„Ø§Ù‡
Ø­Ø¨ÙŠØ¨ØªÙŠ
##ÙˆÙ„
##ØªÙ‡Ù…
ÙˆÙƒÙ„
Ù…ØªØ¹
##Ù…Ù†
ÙŠØ±ÙŠØ¯
ØªØ¹
ÙŠØ§Ø®ÙŠ
##Ø®Ø§ØµØ©
##ØªÙˆÙÙŠÙ‚
Ù†Ù‡Ø§Ø±
Ù…Ù†Ù‡Ø§
##Ø´Ø¨Ø§Ø¨
Ø®Ø¯Ù…
##Ø°Ù„Ùƒ
ØªØ¹Ø±Ù
ØªØ¹ÙŠØ´
Ø§Ù„Ù„
##ÙŠØ³
Ø­Ø´ÙŠØ´
Ù…Ø«Ù„
ØªØ§ÙÙ‡
##Ø§Ø¨
##ØªÙ‡
Ø¥Ø°Ø§
Ø­Ø±Ø§Ù…
##Ù„Ù‡Ù…
Ø§Ù„Ø¹
Ø¹Ø¨Ø¯
Ø§Ù„ÙˆÙƒÙŠÙ„
Ù†Ø¹Ù…
Ø§Ù„Ù…Ø±Ø£
Ø§Ù…
Ù‡Ù‡Ù‡Ù‡Ù‡Ù‡Ù‡
Ø·Ø±ÙŠÙ‚
ØªÙŠ
Ø§Ù„Ø¹Ø±Ø¨
##Ø±Ø§Ø¡
Ø§Ø­
##Ø´Ø§Ù‡Ø¯
Ø§ÙƒØ¨Ø±
ÙØ§
Ù„Ø§Ù†
Ø´Ø¨Ø§Ø¨
##Ù†Ø©
Ø­Ø±
Ù‚Ù„Ø¨ÙŠ
Ø§Ù„ÙˆØ·Ù†ÙŠ
##ÙŠØ§Øª
Ø¨Ù‡
##Ø§Ù…
ÙˆØª
Ø§Ù„Ø¬Ø²Ø§Ø¦Ø±ÙŠ
Ø¬Ù…ÙŠØ¹
Ø°Ù„Ùƒ
Ø§Ù„ÙˆØ­ÙŠØ¯
Ø¨ÙƒÙ„
ÙŠØ§Ø³Ø±
##ØªÙˆØ§Ù†Ø³Ø©
Ø§Ù„Ø³ÙŠØ§Ø³ÙŠ
Ø¨ØµØ­
ÙŠØ¹Ø±Ù
##Ø§Ø¯
Ø¨Ø±Ø´
ØªØ­Øª
##ÙƒÙ„Ø§Ù…
Ù†Ø¹Ø±Ù
ÙØ±ÙŠÙ‚
##Ø§Ù„ÙØ³Ø§Ø¯
##Ø¹Ù„Ù‰
Ø§Ù„Ø³
Ø§Ù„Ùƒ
##Ù€Ù€
ÙˆÙ†Ø¹Ù…
Ù‚ÙŠØ³
Ù‡Ø§Ø¯
Ø¹ÙŠØ¨
Ø§Ù„Ø±Ø¬Ù„
Ù‡Ù‡Ù‡Ù‡Ù‡Ù‡Ù‡Ù‡
ÙÙŠÙƒÙ…
ÙŠØ¬ÙŠ
##Ø±Ù‰
Ø¥Ù†Øª
Ø§Ù†Ùƒ
ÙˆÙ„
Ù‡Ø§Ùƒ
Ø¨Ø§Ù‡ÙŠ
Ø¨Ø±
Ù…Ø³ÙƒÙŠÙ†
ÙƒØ¨ÙŠØ±Ø©
Ø¨Ù„Ø§Ø¯Ù†Ø§
Ø¨Ø±Ø§
Ø±Ø§Ù‡Ùˆ
##ÙˆÙ‡Ø§
##ÙØ³Ø§Ø¯
ÙˆÙÙŠ
##Ø®Ø±Ù‰
##ÙˆØ±Ø©
Ø§Ù„Ø±Ø¦ÙŠØ³
##ÙˆÙ†ÙŠ
Ø§Ù„Ù‚
##Ø¦
ÙˆÙ‡Ùˆ
Ø³ÙŠÙ
Ù„ÙƒÙ…
Ø³Ù„ÙˆÙ…Ø©
Ø§Ù„Ù‚Ø§Ù†ÙˆÙ†
Ø§Ù„Ø¹Ø¨Ø§Ø¯
Ø§Ø®Ø±
Ø¯ÙŠÙ†
ÙƒÙŠÙØ§
Ø§Ù†Ùˆ
##Ù†ÙŠØ©
Ø£Ù„Ù
Ø£Ù…
Ù…Ø§Ø´Ø§Ø¡
##ØªÙƒÙ…
##Ù‡Ø°Ø§
ÙŠÙˆÙÙ‚Ùƒ
ÙØ§Ù„
Ø¨Ùˆ
ÙƒÙ„Ø§Ù…Ùƒ
Ù‚Ù„Ø¨
Ù…ÙƒØ§Ù†
Ø§Ù„Ø­
Ù‡Ù…
Ù‚ÙˆÙŠ
Ø§Ù„Ù…Ù‡Ù…
##ÛŒ
ÙˆØ§Ù†Ø§
ØªØ®Ø¯Ù…
Ø§Ù„Ø¹Ø§Ù…
ÙƒÙ„Ø§ÙŠ
ÙÙ‰
Ù…Ø­Ù„Ø§Ùƒ
Ù…Ø¹Ùƒ
Ø§Ù„Ø§Ø³Ù„Ø§Ù…
Ø§Ù„Ø­Ø±
Ø²Ø§Ø¯
Ø§Ù„Ø´
ØµØ§Ø­Ø¨ÙŠ
Ø§Ù†Ø³Ø§Ù†
Ø¹Ù…Ù„Øª
Ø§Ù„ÙˆØ·Ù†
Ø±ÙˆØ­ÙŠ
Ù…Ø±
##Ø±Ø§Ù†ÙŠ
Ø³ÙŠØ¨
ØªØ­ÙŠ
Ø¹Ø§Ø¯ÙŠ
##Ø¬Ø©
Ù‚Ø±ÙŠØ¨
Ø­ÙŠØ§Øª
Ø£ÙƒØ¨Ø±
2
ÙŠØ­Ø¨Ùˆ
##Ø§Ù†ÙŠ
Ù‡Ø§Ø°
Ø¬Ø§
ÙˆÙŠ
Ø¢Ø®Ø±
ÙˆÙ‡ÙŠ
Ø¨Ù†Ø§Øª
ÙˆØ§Ø¶Ø­
Ù…ÙŠ
Ø±Ø§Ø­
Ù„Ù…Ø§
Ù†Ù‚ÙˆÙ„
Ø­ÙƒÙˆÙ…Ø©
Ø¯Ø§Ø®Ù„
Ù…Ø³Ù„Ù…
Ø³Ø¨Ø­Ø§Ù†
Ù…Ù„ÙŠÙˆÙ†
Ø¨Ù‡Ø§
Ù…Ø¹Ø§
Ø´Ø¹Ø±
ÙˆØ§Ù†
ÙŠØ³Ù…Ø¹
Ø§Ù„Ø¹Ø¸ÙŠÙ…
##ÙŠØ¯
Ø£Ù„Ø§ÙƒØ³ÙŠØ³
Ø´Ø§Ø¨
Ø¨Ø±Ùƒ
Ø·Ø­Ø§Ù†
ØµØ§Ø­Ø¨
Ù‚Ø¯Ø§Ø´
Ø§Ù„Ø§ØºÙ†ÙŠ
ÙƒØ°Ø¨
Ø­Ø³Ø¨
ÙŠØ­ÙƒÙŠ
##ÙˆÙƒ
Ù„Ø£Ù†
Ø£ÙŠ
##ÙˆÙ‡
##Ø§Ù†ØªØ®Ø§Ø¨Ø§Øª
Ù…Ø§Ù„
ÙŠÙˆØ³Ù
Ø§Ù„Ù…Ø´ÙƒÙ„
Ø¨Ø§Ù„Ù
Ø§Ù„Ø­Ù„
Ø¬Ø§ÙŠ
ÙŠØ¨Ù‚
Ø§Ù„Ø¬
ÙŠØ®Ø¯Ù…
Ø¹Ø§Ø¯
ØªØ­Ø¨Ùˆ
Ø±ÙˆØ­Ùˆ
##ØªØ´
ÙƒÙˆÙ†
Ø¨Ø§Ù„Ùƒ
##ÙˆÙ„Ø©
ÙˆÙ„Ø§Ø¯
##ÙƒØ±Ø©
##Øµ
Ø³Ù„Ø§Ù…
Ø³Ùˆ
Ø¨ØµØ±Ø§Ø­
Ø§Ù†ÙŠ
Ø³ÙØ§Ø­ÙŠ
Ø§Ù„ØªØ±Ø¬ÙŠ
Ø§Ù„Ø¬Ø¯ÙŠØ¯
##Ù„ÙƒÙ…
ØªÙ‡Ø¨Ù„ÙŠ
ÙŠÙ…ÙƒÙ†
Ø±Ø§Ù†Ø§
ØªÙˆØ§Ù†Ø³
Ù†Ø­Ø¨Ùˆ
Ø§Ù„ÙØ±ÙŠÙ‚
Ù…Ø²ÙŠØ§Ù†
Ù†Ø³Ù…Ø¹
ØªØ¬ÙŠ
##Ù‡Ù‡Ù‡Ù‡Ù‡Ù‡Ù‡Ù‡Ù‡Ù‡Ù‡Ù‡Ù‡Ù‡Ù‡Ù‡
Ø¹Ù…Ø±
Ø§Ù†Ù‡
Ù„Ø¨Ù„Ø§Ø¯
Ù…Ø²Ø§Ù„
Ø§Ù‚Ùˆ
Ø¯ÙˆÙ†
Øº
Ø£Ø­Ø³Ù†
Ù‡ÙŠØ§
ÙˆØ¨
ÙŠØªØ±Ø¨
ÙŠØ­Ø·
ÙˆÙ„ÙŠØª
Ø§Ù„Ø¨
Ø§Ø­Ù„
Ø§Ù„Ø³Ù„Ø·
Ø¹Ø±Ø¨ÙŠ
##Ø¬Ù„Ø³
Ø´Ø®Øµ
ØªØ¨Ø§Ø±Ùƒ
##ÙˆÙ…
Ø§Ù„Ø³Ù„Ø§Ù…
Ù…Ù„ÙŠØ­
Ù‚Ù†Ø§Øª
Ø¶Ø­Ùƒ
Ø²
Ø§Ø¹Ù…Ù„
Ù…Ùˆ
Ø¬ÙŠØª
Ø¨Ù„ÙŠ
Ø§Ù„Ø£ÙˆÙ„
Ø§Ù„Ø³ÙŠØ§Ø³ÙŠØ©
Ø±ÙˆØ­
##Ø§Ø³
Ù…Ø§Ù‡Ùˆ
Ø§Ù„Ø¬Ù…Ù‡ÙˆØ±
Ø§Ù„ÙƒØ¨ÙŠØ±
##ÙŠÙ…
##Ø§Ù‚
Ù†Ù…ÙˆØª
Ø¨Ù„Ø¯
Ù„Ù‡Ø§
ÙˆØ¨Ø¹Ø¯
##Ø³ÙŠ
##Ø°
##ÙˆÙ‚Øª
Ù„Ø¹Ø¨
Ø§Ù„Ø¥
##ÙŠÙŠÙ†
ÙˆÙ†
##Ø§Ø±Ø©
ÙŠØ­ÙØ¸Ùƒ
Ø§Ù„Ù…Ø±Ø²ÙˆÙ‚
Ø´Ùˆ
ØªØª
ÙˆÙƒØ§Ù†
ÙŠØ¨Ø§Ø±Ùƒ
Ø­ÙƒØ§ÙŠ
Ø§Ù„Ø±
ÙƒØ±ÙŠÙ…
ÙƒØ«ÙŠØ±
Ù‚Ù„
ÙŠÙ„Ø²Ù…
##Ø£
Ø¢
Ø§Ù„Ø¹Ø§Ø±
Ø­ÙˆÙ„
ØªÙ†Ø¬Ù…
Ù‡Ø§Ø¯ÙŠ
##Ø¶Ø§Ø¡
Ø¨Ø³Ø§Ù…
Ù…Ù†Ù‡Ù…
##Ø³Ø©
Ø§Ù„ÙØ±Ù†Ø³ÙŠ
ÙˆØ¬Ù‡
Ù…Ø³ØªÙˆ
##Ø²ÙˆØ²
Ù…ØµØ±
##Ù„Ù…
##Ø¬ÙŠØ´
Ù…Ù„
ÙŠÙˆØµÙ„
ØªÙ‡Ø¨Ù„
Ø²Ø§ÙŠØ¯
##ØºÙ†Ø§ÙŠØ©
Ø¹Ø²
ÙÙˆÙ‚
ÙƒÙ…
Ø§Ù„ÙÙ„ÙˆØ³
Ø¹Ø¨Ø§Ø¯
Ù‡Ù‡Ù‡Ù‡Ù‡Ù‡Ù‡Ù‡Ù‡Ù‡Ù‡Ù‡
Ø­Ø³Ø§Ø¨
Ø¹Ø§ÙŠØ´
Ø£ÙˆÙ„
Ø¬Ù…Ø§Ø¹
Ø¹Ø§Ø´
Ø§Ù„ÙƒØ±ÙŠÙ…
Ø¬Ø¯
Ø±Ù…Ø¶Ø§Ù†
ØªØ¨Ù‚
ÙŠØª
Ù†ÙØ³Ù‡
ØªØ§Ø±ÙŠØ®
ÙƒÙŠÙÙƒ
##Ø®
Ø±ÙˆØ§Ø­
ÙŠÙ‡Ø¯ÙŠ
Ù„Ø·Ù
Ø§Ø¬Ù„
ÙˆÙ„ÙŠ
##Ø§Ù
Ø¨Ù…Ø§
Ù‚Øµ
ÙˆÙ…
Ø£ØºÙ†ÙŠ
ÙŠØ¹ÙŠØ´
##Ù…Ø³
ÙŠØ¯ÙŠØ±
Ø§Ø®ØªÙŠ
Ø¹Ø§ÙŠØ´ÙŠÙ†
Ù…Ø´ÙƒÙ„
Ø±Ø§
ÙˆØ«ÙŠÙ‚
##Ø±Ø§Ø¬Ù„
##Ø¨Ø±Ù†Ø§Ù…Ø¬
ÙŠØ³ØªØ±
Ù…Ù†Ø°
1
##ÙˆØ¨
Ù‡Ø¯Ø§
ØªØ±Ø¬Ø¹
##ÙƒÙ„
Ø³ÙŠØ§Ø³
##Ø¹Ù†Ø¯Ù‡Ø§
5
Ø­Ø¨ÙŠØª
Ø§Ù„Ù‚Ù†Ø§
Ø¹Ø¬Ø¨ØªÙ†ÙŠ
##Ù‚Ù‰
Ø±Ø¬Ø¹
##Ø±Ø§Ù‡ÙŠ
##ÙŠØ¨
Ø±Ø¯
##ÙƒÙ„Ø§Ø¨
Ù‡Ù‡Ù‡Ù‡Ù‡Ù‡Ù‡Ù‡Ù‡Ù‡Ù‡Ù‡Ù‡Ù‡
Ø§Ù„Ø§ÙˆÙ„
Ù‚ÙˆÙ„
Ø³Ø¤Ø§Ù„
Ø®Ø§Ùˆ
Ø¹Ù†Ø¯Ù‡Ù…
##ØªÙ…
ØªØ´ÙˆÙ
Ù…ÙˆØ¬ÙˆØ¯
Ø§Ø­ØªØ±Ø§Ù…
Ø¯Ø²Ø§ÙŠØ±
ÙŠØ¯
Ù…Ù‡Ù…
##Ø§Ù„ÙŠ
ÙØ§Ø´Ù„
##Ø¯ÙŠÙ†
Ø­ÙŠ
ÙÙ„Ø§
ØªØ¹Ù„ÙŠÙ‚
Ø§Ù„Ø­ÙƒÙ…
##Ø­Ø²Ø§Ø¨
ÙƒØ«Ø±
Ø¹Ø§Ù„
Ø¹ÙŠØ¯
ÙÙ‡Ùˆ
Ø¯Ø§Ø±
Ù†Ø´ÙˆÙ
ÙŠØ¯Ø®Ù„
Ù…Ø§Ø²Ø§Ù„
Ø§Ù„Ø®
Ø¯ÙŠ
Ù„Ø§Ø¹Ø¨
ØªØ¹Ù„Ù…
Ø§Ù…ÙŠÙ†
ØªØ±
##Øº
Ù…Ø¨Ø§Ø±Ùƒ
##Ù„Ø§Ø¡
##Ù†Ù‰
Ø¬Ø§Øª
Ø·ÙŠØ¨
Ø·ÙÙ„
Ù‚Ø§Ù„Øª
##ÙŠØª
ÙÙ„Ø³Ø·ÙŠÙ†
##Ø¶
ÙˆÙ„ÙŠØ³
Ù‚Ù„Øª
ÙŠØ²ÙŠ
Ø§Ù„Ù…ÙˆØ§Ø·Ù†
ÙÙƒØ±Ø©
Ø¨Ù„ÙŠØ²
##ÙˆÙ†Ø§
##Ù…ÙŠ
Ø¨Ù„Ø·
Ø§Ù„Ù…Ø³Ù„Ù…
##Ø«
Ø§Ù„Ù†
Ø§Ø³
ÙÙ‡Ù…Øª
Ø¨Ø§Ø¨Ø§
Ø´ÙØª
ØªÙˆØµÙ„
Ø¹Ø²ÙŠØ²
ØªØ¯Ø®Ù„
Ø¨Ø¹ÙŠØ¯
ØºÙ†ÙŠ
Ø§Ù„Ù…Ø§Ù„
Ø±Ø§Ø¦Ø¹
Ø³ÙˆÙ
##ÙƒÙ„Ù…Ø©
Ø¹Ø²Ùƒ
ÙƒÙ„Ø§Ø¨
2020
Ø¯Ø®Ù„
ÙÙŠÙ†Ø§
Ø§Ù„Ø­ÙˆØ§Ø±
Ø­Ø·
##Ø¨Ø±
##Ø§Ø¬
Ù…ØµÙ„Ø­
Ø¹Ù…
Ø¬Ùˆ
Ù‚Ø§Ù†ÙˆÙ†
Ø¹Ø¯Ù…
Ø¨Ø§ÙŠÙ†
Ø¬Ø§Ø¡
Ø§Ø®ÙˆÙƒ
Ù…Ø±Ø§
10
Ù‡Ø§Ø°Ø§
Ø®Ø§Ø±Ø¬
ÙˆÙ‡Ø°Ø§
ÙƒØªÙŠØ±
Ø¹Ù†Ø¯Ù‡
Ø§Ù„Ù…Ø¬ØªÙ…Ø¹
Ø§Ø®ÙŠ
Ø±ÙˆØ­Ù‡
ÙØ±Ù†Ø³ÙŠ
Ø´Ù‡Ø±
ØµÙˆØ±
Ø§Ù„Ø¹Ø±Ø§Ù‚
Ù‡ÙˆÙ…
Ù‚Ø§Ù„Ùˆ
Ø­Ø§Ù„
##Ø¨Ø§Øª
ÙØ¹Ù„Ø§
ØªØªÙƒÙ„Ù…
ÙŠØ­ÙØ¸
Ø¹Ø¨Ø±
4
##Ø³Ù„ÙŠÙ…
Ø¹Ø§Ù…Ù„
ÙŠØ®Ø±Ø¬
ÙƒÙ…Ù„
Ø±Ø§Ø³
Ø§Ù„Ø¯Ø¨Ø§Øº
ÙˆØ£
##ÙŠÙ‡Ø§
Ø´Ø¦
Ø¹Ù†Ø¯Ù†Ø§
Ø§Ù‡
Ø±Ø§ÙŠ
Ù„Ù…Ø§Ø°Ø§
Ù†Ø¹ÙŠØ´
Ù„Ù†Ø§
Ø§Ù„Ø§Ù†
Ø­Ø§Ù„Ø©
##Ø§Ù‡
Ù„Ù‡Ù…
ÙˆØ­Ø¯Ùƒ
ÙØ§Ù‡Ù…
##ÙƒÙŠ
ÙˆØ¬Ù‡Ùƒ
Ø§Ù„ØºØ±Ø¨
##ÙƒØ³ÙŠØ³
Ù„Ù…Ù†
Ø®Ùˆ
##ÙŠÙ„
Ø­Ù…Ù„
Ù„ÙˆÙƒØ§Ù†
Ø²ÙŠØ¯
Ø°
Ø§Ù„ØªØ§Ø±ÙŠØ®
ÙƒØ°Ø§Ø¨
##Ø§Ø¯ÙŠ
Ø´Ù†ÙŠ
ÙˆØµÙ„Øª
Ø§Ø¨Ù†
##Ø«ÙˆØ±Ø©
Ø§ØµÙ„Ø§
Ù…ØªØ±Ø¨ÙŠ
Ù…Ø±Øª
Ù‡Ø§Ùˆ
Ù‡Ùƒ
Ø¹Ø§
##Ø§Ùƒ
Ø³Ù†ÙØ§Ø±
Ø§Ù„Ù…Ø±Ø§
ØºØ§Ù„Ø·
Ø£ÙØ¶Ù„
Ù„Øº
##Ø§Ø¯Ø©
Ø¯ÙŠØ±
Ø§Ù†Ù‡Ø§
##Ø§Ø¬Ù…Ù„
Ø§Ù„Ø§Ø®Ø±
Ø¨Ùƒ
##Ø±Ø§Øª
ØªØ¹Ù…Ù„Ùˆ
ØµØ§Ø±
Ø¹Ù‡Ø¯
Ø³Ø§Ø±Ù‚
Ø¹Ù…Ø§Ø±
##Ø·Ø©
ÙƒÙ„Ù…Ø§Øª
##Ø±Ø¨
ØµØ§Ø¯Ù‚
Ø¹Ù…Ø±ÙŠ
ÙˆØ·Ù†ÙŠ
ØªÙ…
##Ø£Ø³
Ø²ÙˆØ¬
ÙØ§Ø±Øº
Ø³Ù†ÙÙˆØ±
ÙˆØ§Ù†ØªÙ…
##ØªÙ†ÙŠ
Ù†ÙØ³ÙŠ
Ù„Ù‚Ø¯
Ù…Ø±ÙŠØ¶
ÙÙ„
Ø§Ù„Ø¯
Ø§Ù„Ù‚Ù„Ø¨
Ø¯Ø¹Ù…
ÙŠÙ‚Ø¨Ù„
##Ø¬Ø±Ø¯
Ø²ÙŠÙ†
##Ø§Ù„Ø´Ø¹Ø¨
ÙˆØ³Ù„Ù…
##Ø¯Ø§
Ø§Ù„Ø·Ø±ÙŠÙ‚
Ø¯Ø§Ø¦Ù…
##Ø±Ø§
Ø§Ù„Ø´Ø®ØµÙŠ
##Ù†Ø³Ø§Ø¡
##ÙƒÙˆÙ†
##Ø­ÙŠ
Ø·
Ø§Ù„ÙØ§Ø³Ø¯
Ø¹Ù„ÙŠØ§
Ø§Ù„Ø­Ù‚ÙŠÙ‚Ø©
Ø±Ø§Ø¨
Ù…Ø³ØªØ­ÙŠÙ„
Ø¹ÙŠØ¯Ùƒ
##Ù„Ø´Ø¹Ø¨
Ø³Øª
Ø³Ø¯ÙŠÙ…
Ø·ÙˆÙ„
Ø§Ù„Ø­ÙŠØ§
Ø¬Ù…Ø¹
Ø§Ù„Ù†Ø¬Ø§Ø­
Ù…Ø±Ø­Ø¨
Ø·Ù„Ø¹
Ø¬Ù…Ø§Ù„
Ø§Ù„Ø­Ø²Ø¨
Ù‚ØªÙ„
Ù‡Ø§Ù„
Ø§Ù„Ù‚Ø§Ø¯Ù…
Ø§Ù„Ø²ÙˆØ§Ù„ÙŠ
##Ø§Ø§Ø§
Ø­Ø§Ø¨
Ù…Ø´Ø§Ø¡
Ø§Ù„Øµ
Ø§Ø­Ø¨
Ù‚Ø¯Ø±
##ÙŠÙ
Ø§ÙˆÙ„Ø§Ø¯
##Ù…Ø¹Ø§Ø¯Ø´
Ø§Ù„Ø±ÙŠØ§Ø¶ÙŠ
ØºØ§Ù„ÙŠ
2019
Ø£Ø¬Ù„
##Ø§Ù†Ø©
Ø¹Ø³Ù„
Ù†Ø¹Ù…Ù„
ØµØ§Ù„Ø­
Ø¨Ø¯
##Ù…Ù„ÙŠÙˆÙ†
Ø­Ø³Ø¨ÙŠ
##ÙØ±ÙŠÙ‚ÙŠ
Ø§Ù„ÙƒØ°Ø¨
ÙˆØ¬ÙˆÙ‡
Ø§Ù„Ø¥Ø³Ù„Ø§Ù…
Ø§Ù„ÙŠÙ‡ÙˆØ¯
##ÙƒØ§
Ø§Ù„Ø±Ø§Ø¨
Ø¨Ø±Ø¨
Ù…Ø§Ù„Ø§
Ø¶Ø±Ø¨
Ø«Ø§Ù†ÙŠ
Ø°ÙƒØ±
##Ù‚Ø±Ø¢Ù†
ÙˆØ²ÙŠØ¯
Ù‡Ù‡Ù‡Ù‡Ù‡Ù‡Ù‡Ù‡Ù‡
##Ø§ÙƒÙŠØ¯
Ù‡Ø´Ø§Ù…
ÙˆØ£Ù†Øª
Ù…Ø´ØªØ±Ùƒ
ÙŠÙ…Ø´ÙŠ
Ø¥Ù†Ø´Ø§Ø¡
Ø±Ø³ÙˆÙ„
Ø¨Ù„Ø§Ø´
Ø§Ù„Ø£ØºÙ†ÙŠ
##ÙÙˆØ¶Ù‰
Ø®Ø±Ø¬
##ÙØ§Ø¡
Ù…Ø§Ù‡ÙŠ
Ø§Ù†Ø´Ø§Ù„Ù„
##ÙˆÙ…Ø§
Ø§Ù„ÙƒØ§Ù
Ø­Ù†Ø§
Ù†Ø§
ØµÙˆØªÙƒ
Ù„ÙŠØ³Øª
Ù†Ø´
Ø§ÙŠÙ†
ÙˆÙ„Ùˆ
Ø³Ø¨Ø¨
ÙˆÙ„Ø§Øª
Ø¯Ø®Ù„Øª
Ø¬ÙŠØ´
Ù…Ø´Ø¨ÙˆÙ‡
Ù…Ø´Ø±ÙˆØ¹
Ù…ØªØ§Ø¨Ø¹ØªÙƒ
##Ø¨Ø¹Ø¯
Ø³ÙˆØ±ÙŠ
ØªØ±Ø§Ø«
##Ø§Ø­Ø²Ø§Ø¨
Ø§Ù„ÙÙ‚Ø±
Ø§Ù„ØºÙ†Ø§ÙŠØ©
Ù…ØºØ±Ø¨ÙŠ
20
ØµØ¯ÙŠÙ‚
ØµØ¯Ù‚
ÙˆØ´
Ù‚Ù„ÙŠÙ„
##Ù…Ø±
##Ø±ÙŠØ©
Ù†Ø±ÙŠØ¯
Ù…Ø±Ø¶
Ù…Ù†Ùˆ
Ø´Ù†ÙˆØ§
ÙØ±Ù‚
Ø§Ø³Ù…Ù‡
Ø§ØªÙ…Ù†
Ù†Ø§Ù‚Øµ
Ø£ÙŠÙ†
Ù…Ø¨Ø¯Ø¹
Ù…Ø´Ø§ÙƒÙ„
Ø§Ù„Ù…ÙˆØ¶ÙˆØ¹
ØªØ³ØªØ­Ù‚
Ù…Ø§Ù†ÙŠØ´
##ÙƒØ´
ØµØ±Ø§Ø­
Ø§Ù„Ø·ÙÙ„
ÙŠØ®ÙŠ
##Ø­Ù…Ø¯
Ù‚Ø¯Ø§Ù…
##Ù„Ø¹Ø¨Ø§Ø¯
ÙˆØ±Ø§Ø¡
ØªÙÙ‡Ù…
Ù„Ø£Ù†Ù‡
##Ø¨Ø¹Ø¶
##Ø§Ù„Ùƒ
Ø§Ù„Ø«Ø§Ù†ÙŠ
##Ù‡Ø±ÙŠ
Ù†ØªÙØ±Ø¬
Ø¢Ø´
Ø§Ù„Øº
Ø§ÙØ¶Ù„
Ø­Ù„Ù‚
Ø§Ù„ØµØ§Ù„Ø­
Ø§Ù„Ø¨Ù„Ø¯
Ù…Ø¹Ø§Ù†Ø§
ÙÙ†Ø§Ù†
Ù†Ø¹ÙŠØ´Ùˆ
Ø¨Ø§Ù‡
##Ø£ÙØ±ÙŠÙ‚ÙŠ
Ø¹ØµØ¨
ÙŠÙÙ‡Ù…
Ù†Øª
Ø£Ù†Ù‡
##ÙØ±
Ø·Ø±Ù
ØªØ®Ø±Ø¬
ÙŠÙØ±Ø¬
Ø§Ù„ÙˆØ§Ù‚Ø¹
ÙƒØ§ÙŠÙ†
Ù…ÙÙ‡Ù…Øª
ÙØ¥Ù†
Ø³Ø§Ø¹
Ø§Ù†Ù‡Ù…
Ø±Ø­Ù…
Ø·ÙˆÙŠÙ„
Ø´Ø¯
ÙŠÙ‚ÙˆÙ„Ùˆ
Ù†Ø§Ø¯ÙŠ
##ÙˆØª
Ø¹Ø§Ù„Ù…
ÙƒØ§
Ø§Ù‚Ù„
Ù…ØªØ§Ø¹Ùƒ
Ø§Ù„ÙˆØ§Ø­Ø¯
Ù†ÙØ³Ùƒ
Ø§Ù„Ù…ÙˆØª
Ø§Ù„Ù„ÙŠØ¨ÙŠ
##Ø§Ø¹
Ù…Ø¯
Ø§Ù„Ø­Ø§Ø¬
Ø§Ù…Ùƒ
##Ù†ÙŠÙ†
Ø§Ø®ØªÙƒ
##Ø¯Ø§Ø¡
##Ø¨Ø¯Ø£
Ø¨Ø§Ù„Ø­Ù‚
##ÙˆØ©
##3
ØªÙˆÙ„ÙŠ
Ø£Ø­
##Ù€Ù€Ù€
Ø¬Ø²Ø§Ø¦Ø±
ÙŠØ±Ø­Ù…Ùˆ
Ø¨ÙˆØ±Ù‚ÙŠØ¨
##ØµØ©
Ù…ØªØ§Ø¨Ø¹
##ÙˆÙˆÙˆ
Ø¹Ù†Ø§
ÙƒÙØ§
ÙˆØ´ÙƒØ±Ø§
##ÙˆÙ„ÙŠ
Ù…Ø§Ø°Ø§
Ø§Ù„Ø­ÙƒØ§ÙŠ
ÙˆÙ„Ù…
Ø§Ù„ÙƒÙ„Ø¨
Ù…ÙˆØª
Ø¹ÙŠÙ†ÙŠ
Ø¹Ù…Ù„Ùˆ
Ø¹Ø´Ø±
ÙØ±Øµ
Ø¯Ù†ÙŠØ§
Ù…Ø§Øª
##ÙˆÙŠ
Ø§Ù„Ø¯ÙŠÙ…Ù‚Ø±Ø§Ø·ÙŠ
##Ø§Ø§Ø§Ø§
##Ø¬ÙŠ
Ù†ØªÙ…Ù†
Ø§Ù„Ù„Ø¹Ø¨
0
Ù…ØªØ§Ø¹ÙƒÙ…
##Ø¹ÙƒØ³
Ø­Ø§
Ø§Ù„Ø¬Ù†Ø©
Ù…Ù„Ùƒ
##Ø¢Ù†
Ø§Ù„Ø­Ø§Ù„
##Ù„Øª
Ø¹ÙŠÙ†
Ø®Ø§Ù„Ø¯
ÙŠØ³ØªØ­Ù‚
##Ù‚Ø¯Ù…
Ø®Ù„Ù‚
Ø£Ù‡Ù„
Ø«Ù‚Ø§Ù
Ù‡Ù‡Ù‡Ù‡Ù‡Ù‡Ù‡Ù‡Ù‡Ù‡Ù‡
Ø²Ù…Ù†
##ØµÙØ­Ø©
Ø²Ø¹Ù…
Ø®Ø§ØªØ±
Ø¨Ø£Ù†
Ø§Ø®
ÙŠØ´ÙˆÙ
Ø¹Ù†Ø¯ÙƒÙ…
Ø§Ù„ÙˆØ«ÙŠÙ‚
##ÙˆÙ„Ùˆ
Ù‚Ø§Ø¯Ø±
Ø­Ù…Ø¯
Ø±Ø£ÙŠ
Ù†Ø³ÙŠØª
ÙØ¹Ù„
Ù‡Ø°Ø§Ùƒ
ØªØ­
Ø§Ù‡Ù„
Ù†ÙˆØ¹
Ù‡Ø¯
Ø§Ù„Ø´Ø®Øµ
Ù†ØªØ§Ø¹
##ØµÙ„
Ø§Ø¯Ø¹ÙˆÙ„
ÙŠØ±Ø¬Ø¹
Ù…ÙƒÙŠØ§Ø¬
Ø³Ø±Ù‚
Ø§ØµØ¨Ø­
Ø§Ù„Ø±Ø²
ÙƒÙ„Ø¨
ÙŠØ­Ù…ÙŠ
201
##Ù„Ø¨Ù„Ø§Ø¯
Ø²ÙŠ
ÙˆÙ„Ø¯ÙŠ
ÙØ±Ø­ØªÙ„Ùƒ
Ø«Ù‚
Ù…ÙˆØ¶ÙˆØ¹
Ù…ØªØ­ÙŠÙ„
ÙŠÙ„ÙŠ
100
##Ù„Ø§Ù†ØªØ®Ø§Ø¨Ø§Øª
##Ù†Ø§Ø³
ØµØºÙŠØ±
Ø­ÙŠØ§
ØªØ­ÙƒÙ…
Ù‚ÙŠÙ…
ÙˆØ£Ù†
Ø´Ø±
Ù…Ø¯Ø§Ù…
ÙŠØªÙØ±Ø¬
##Ø¯Ùˆ
Ø´ÙŠØ¦
Ø§Ù„ØµØ­ÙŠØ­
ØªØ³Ù…Ø¹
Ù„Ø§Ù†Ù‡
ÙŠØªÙ…
##Ø±Ùˆ
Ù…Ù†Ù‡
##Ù†Ø¨ÙŠÙ„
ÙƒÙ
ÙˆØ­Ø¯Ù‡
##Ø£Ù„Ù
ØªØ¹Ø·ÙŠ
Ø¹Ù…Ù„ØªÙˆ
##ÙŠÙ‡Ù…
Ù‡Ø°
ØªÙÙˆÙ‡
Ø§Ù„ÙˆØ¶Ø¹
##Ù„Ø§Ø´
##ÙˆÙ…Ø©
Ø¨Ø§Ù„Ù†Ø³Ø¨
ÙƒØ¨Ø§Ø±
Ø¨Ø§Ù„ØªÙˆÙÙŠ
##Ø¯Ù‰
Ø§Ù„Ø¨Ø·ÙˆÙ„
Ø­Ø³Ù†
Ø³Ù…Ø¹Øª
ØªØ±Ø¨Ø­
##ÙˆØ¯
Ù…Ù†ØªØµØ±
##Ù„Ø­Ù‚
Ø§Ù„Ø´Ù‚ÙŠÙ‚
Ø§Ù„Ù…Ù†Ø§Ø³Ø¨
##Ø®Ø±
Ù‡ÙƒØ°Ø§
Ø­Ù„Ù…
ØªÙ…Ø´ÙŠ
Ø§Ø³ØªÙ‚Ø§Ù„
ÙˆØ¶Ø¹
Ø§Ø¨
##Ù…Ù„
Ø¯Ùˆ
Ø®Ù„Ø§Øµ
ÙØ±Ø­Ø§Ù†
Ù…Ù„ÙŠ
##Ø±Ø¬Ø§Ø¡
ÙŠØ±Ø­Ù…Ùƒ
Ø§Ù„Ø¨Ø§Ø¬
Ù„Ù„ÙŠ
##Ø³Ø¨Ø¨
Ø£Ø­Ø¯
ØªØ³
##Ù‡Ø§Ø´
##ÙƒØ©
##Ù†Ø§Ø´
##Ø³Ø§Ø¦Ù„
##Ø¯Ù‡
Ù†Ø­
Ù†ÙˆØ±Ù…Ø§Ù„
ØªØ­Ø³
Ø§Ù„Ø£Ù…
Ù‡Ø¯ÙŠ
Ø³Ù„Ù…
Ø§Ù„Ø­Ù…Ù„
##Ù…Ø´
##Ù…Ù„ÙŠØ§Ø±Ø§Øª
Ù…ÙˆØ§Ø·Ù†
Ø§Ù„Ø£Ù…Ù†
Ø±ÙŠØ§Ø­
ÙŠØ³
Ø§Ù„Ø¬Ù†ÙˆØ¨
Ø±Ù‚Ù…
Ù†Ø¸ÙŠÙ
##Ù„Ø§Ø³Ù
Ø¨Ø±Ø¬ÙˆÙ„ÙŠ
Ø§Ù„ÙƒØ±Ø§Ø³ÙŠ
ÙˆØ­
Ø§Ù„Ø­Ø¨ÙŠØ¨
Ø¨Ø§Ø¨
Ø´ÙˆÙÙˆ
Ø«
Ù…Ø¹Ø§ÙŠ
Ø§ØµÙ„
##Ø´Ø¹Ø¨
ÙŠØ­
ÙŠØ¹Ù…Ù„Ùˆ
Ø§Ù„Ø±ÙŠØ§Ø¶
ÙˆØªÙˆÙ†Ø³
Ù„Ø¹Ù†
Ù…Ø³ØªÙ‚Ø¨Ù„
ÙŠÙƒÙ…Ù„
Ø¹Ø§Ø¦Ù„
ÙƒÙ†
##ØºÙŠØ±
Ø­Ø§ÙˆÙ„
Ø¹Ø§Ù„Ù…ÙŠ
##Ø¨ÙŠØ¶
##ÙØ´Ù„
Ø§Ø®Ø¯Ù…
Ø®ÙŠ
ÙŠÙ„Ø¹Ø¨
##ØªÙŠÙ†
##Ø­Ø¨Ø³
Ø§Ù„ÙƒÙˆØ±
##ØµÙ
ØªØ±ÙŠØ¯
Ø®ÙˆÙƒ
##Ø­Ø¬Ø§Ø¨
ØªÙƒÙ…Ù„
Ø­Ù‚ÙˆÙ‚
##Ø¬Ø¯
Ù†ØªÙŠ
##Ø§Ùˆ
Ø¹Ù„Ø§Ù‚
Ø¹Ù…Ø±Ùƒ
Ø­ÙŠØ«
Ù…Ø§ÙÙ‡Ù…Øª
Ø§Ø­Ø¨Ùƒ
ØªÙ„Ø¹Ø¨
Ø§Ù„ØªØ±Ø§Ø«
ØµÙØ±
##ÙƒÙ„Ù…Ø§Øª
##ÙˆØ§Ù„
Ø§Ù„Ù‡ÙŠØ¦
##Ø®Ø¶Ø±Ø§Ø¡
ØºØ§Ù„Ø¨
ÙŠØ­Ù…ÙŠÙƒ
ÙŠØ¹Ø·ÙŠ
ÙŠØµÙŠØ±
Ù„ÙŠØ´
Ø§Ù„Ø§Ø®ÙŠØ±
##Ù„Ø®Ø±
Ø«Ù„Ø§Ø«
ØªÙ„Ù‚
##Ø±Ùƒ
Ø§Ù„Ø§Ù…
##Ù…Ø´Ø§ÙƒÙ„
ÙŠÙ‡Ø¯ÙŠÙƒÙ…
Ø§Ù„ÙÙ†
##ÙˆØ³
##Ø´Ø­Ø§Ù„
ÙŠÙ‚Ø¯Ø±
Ù…Ø³
##Ø¨ÙŠØ©
Ø§Ù„Ø§Ù…Ù†
##Ù„Ù†Ø§Ø³
Ø±Ø³Ø§Ù„
##2
Ø§Ù„Ù„Ø§Ø¹Ø¨
Ø¨Ù‚ÙŠ
##Ù†ØµÙ
ÙŠØ´Ø¯
Ø§Ø­Ø¯
Ù…Ø­ØªØ±Ù…
Ø´Ø±ÙŠÙ†
Ù…Ù†Ø§ÙÙ‚
Ø´Ø¨ÙŠÙƒ
##Ù„ÙŠØ©
Ø§Ù„Ù…Ø³Ù„Ù…ÙŠ
##Ù…Ø¹Ù†Ø§Ù‡Ø§
Ù‡Ù…Ø§
Ø±Ø§Ùˆ
Ø¹Ø¬Ø¨Ù†ÙŠ
Ø±Ùˆ
ØªØ¬ÙŠØ¨
Ù…Ø­Ù„Ø§Ù‡Ø§
ØªØ´Ø¨Ù‡
##Ø®ÙŠØ±
Ø¶Ø¹ÙŠÙ
Ù†ÙÙ‡Ù…
Ù…Ø­Ù„Ø§Ù‡
Ø®Ù…Ø³
Ø§Ù…Ø±Ø£
Ø§Ù„ÙØ±Ù‚
Ø¯ÙˆØ±
ÙŠÙ†Ø¬Ù…
Ø¯Ø§ÙŠÙ…
ÙŠØ·Ù„Ø¹
Ø¬ÙŠ
Ø¨Ø§Ù„Ù…
ØªØºÙ†ÙŠ
ØµÙ„
##ØªÙˆØ§
Ø§Ù„Ù‡
Ù†Ù‚Ø·
Ø­Ø³
##Ø¢
Ù…Ø³Ø¤ÙˆÙ„
Ù†Ø³
Ø§Ù„Ù‚Ø±Ø§Ø±
Ù„Ø´Ø¹Ø¨
Ø¬Ø§Ù‡Ù„
Ø®Ø§ÙŠØ¨
##Ù†Øª
Ø³Ù…Ø¹
Ù‡Ø¤Ù„Ø§Ø¡
##Ø¨Ø§Ø´
##Ù‡ÙŠ
Ø§Ø±ÙŠØ¯
Ø§Ù„Ø­Ù‚ÙŠÙ‚ÙŠ
ÙˆØ§Ù†ØªÙŠ
Ø§Ù„Ø­Ø¨
Ø´Ø§Ù
ÙˆØ®Ø§ØµØ©
Ø±Ø§Ø¦Ø¹Ø©
##Ø¨Ùˆ
Ø§Ù„Ø´Ø§Ø¨
ÙŠÙØ±Ø­Ùƒ
##ÙˆÙ„Ù†Ø§
##ÙŠÙ‚Ø©
##Ø§Ø­
ÙˆÙ‚Ø¯
##Ø¹Ù‚Ù„ÙŠØ©
Ù‚Ø±Ø§Ø±
##Ø¹ÙŠÙ†
Ø±ÙŠØ­
##Ø±ÙˆØ¹
##Ø®Ø¨Ø·
##Ù„Ø§Ø¹Ø¨ÙŠÙ†
ÙƒØ±
##Ø¶ØºØ·
##ÙŠÙ‚
Ø¯ÙŠÙ†Ø§Ø±
##ØªØ­ÙŠÙ„
Ø±Ø§ÙƒÙŠ
Ø¥Ù†Ø³Ø§Ù†
Ø¬ÙŠØ¨
##Ù„Ø§Ù…
Ø®Ø±Ø¬Øª
ÙŠØ¹
##Ø§ÙˆÙŠ
ÙŠØªÙƒÙ„Ù…
Ù…Ù‚Ø§Ø¨Ù„
ÙˆØ§Ù„Ù…
##Ù‚ÙŠ
##Ù„Ø¨Ù†Ø§Øª
Ø¸Ù‡Ø±
Ø¯Ø§
Ø§Ù„Ø§Ø±Ù‡Ø§Ø¨
Ø¹Ø±ÙØª
Ø§Ù„ÙˆØ¬Ù‡
ÙØ¶Ù„Ùƒ
Ø¨ØªÙˆÙ†Ø³
ÙƒÙ„Ù‡
##ÙˆÙ‚
Ù…ØµØ¯Ø±
Ø§Ù„Ø¥Ø¹Ù„Ø§Ù…
##Ù„Ø§ÙØ±ÙŠÙ‚ÙŠ
##ÙˆØ§Øª
Ø§Ù„Ø¬Ù…Ù‡ÙˆØ±ÙŠ
Ù…Ø³Ø®
##Ù†Ù‡Ø§
Ø§Ù„Ø¬Ùˆ
##Ù†Ø¸Ø§Ù…
ÙŠØ®
##Ø±Ù‡
Ù†Ù‚Ù„Ùƒ
ÙÙŠÙ„Ù…
Ø­Ø³Ø¨Ù†
ØªÙ‚Ø¯Ù…
ÙˆØ³Ø·
ÙˆÙ„ÙŠØ¯
Ø§Ù„Ø­Ù„Ù‚
Ø´Ø®ØµÙŠ
Ø®Ù„
##ÙŠØ¹
ÙˆØ§Ù„Ù„ÙŠ
Ù‡Ù‡Ù‡Ù‡Ù‡Ù‡Ù‡Ù‡Ù‡Ù‡
ÙŠØ¶Ø­Ùƒ
##Ù‚Ù„ÙˆØ¨
##Ù†ÙˆØ§Ø¨
Ø£Ù‚Ùˆ
Ø§Ù„Ø®Ø§Ø±Ø¬
Ù†ÙŠÙƒ
Ø±ÙŠØ§Ø¶ÙŠ
Ù†Ø¹Ø±ÙÙˆ
Ù„Ø°Ø§
Ø§Ù‚Ø³Ù…
ØªÙˆØ¨
##Ø±ØºÙ…
##ØªØ±Ø¨ÙŠØ©
Ø§Ù„Ø§Ù‚Ù„
ÙƒÙ„Ø§Ø´
Ø§Ù„Ø£Ø±Ø¶
##Ø­ÙŠØ§Ø¡
Ù…Ù„ÙŠØ§Ø±
Ø§Ù…ÙŠ
ÙˆØ´Ø¹Ø¨
##ÙŠØ§Ø¡
Ø§ÙØ±ÙŠÙ‚ÙŠ
Ø§Ù„Ù…Ù‡Ø±
Ø¹Ø¨ÙŠØ±
Ø³Ø±Ø§Ù‚
ØªÙ‚Ø¨Ù„
ØªÙÙˆ
Ù„Ø¨Ø§Ø³
##Ø°Ø§
Ø«Ø±ÙˆØ§Øª
Ø³Ø§Ù‡Ù„
##Ù„Ø¬Ù†Ø©
ØµÙ„ÙŠ
Ù†Ø³Ø§Ø¡
Ù…Ø­Ø¨
ØµØ¹Ø¨
Ø§Ø­Ù„Ø§
ÙØ±Ø­
##ÙŠÙ†Ø§
Ø§Ù„Ù‚Ø¶
Ø¨Ù‚Ø¯Ø±
Ø³Ø±
Ø¨Ø§Ù„ÙŠ
Ø£Ø­Ù†Ø§
ØºØ±ÙŠØ¨
Ø§Ù„Ù„ÙŠÙ„
ÙŠØ¹Ù„Ù…
Ø§Ù„ØµÙ„Ø§
ØµØºØ§Ø±
Ø§Ø¹Ø±Ù
ÙŠÙˆÙ„ÙŠ
Ø²Ø¨ÙŠ
##Ø¹Ø§Ø¯
ÙˆÙ…Ø¹
Ø§Ù„Ù…Ø±Ø©
##Ø¨ÙŠÙ‡Ø§
Ù…Ø§Ø¯Ø§Ù…
ØªØ¨Ø§
Ø®Ø¨Ø±
##Ø§ØªÙŠ
##Ø¹ÙŠØ¯
##Ø§Ø¨ÙˆÙ†ÙŠ
ØªØ§Ø¨Ø¹
ØªØ³ØªØ§Ù‡Ù„
##Ù‡Ùˆ
Ù…Ø§Ùƒ
Ø¹Ø¯
Ø¹ÙˆØ±
Ø§ÙˆÙ„Ø§
Ù†Ø¯Ø§Ø¡
Ø§ÙÙ‡Ù…
##Ù†Ù‡
##Ø¨ÙŠÙ†
Ø§Ù„Ù…Ø³Ø¤ÙˆÙ„ÙŠ
ÙØ±ÙŠ
Ø§Ù„Ù†Ø¬Ù…
Ø®Ø³Ø§Ø±
ÙŠÙ†ØµØ±Ùƒ
Ø¬Ø¨Ø§Ù†
Ù†Ø­Ùˆ
Ù…Ø¹Ø±ÙˆÙ
Ø¹Ø§Ø±Ù
ØªÙ†
Ø¶
Ø¸Ø§Ù‡Ø±
Ù‡ÙˆØ§
Ø§Ù„Ø·
Ø§Ù„Ø£Ù…Ø±
Ø§Ù„Ø¹Ù„ÙŠ
##Ø¨ÙŠØ¹
##ÙƒØ§Ù†
Ø¹Ø¯Ø¯
Ø§Ù„Ø´ÙŠØ®
Ø§Ù„ÙØªÙ†
Ø®Ø±Ø§
Ø²Ù…Ø§Ù†
Ø§Ù„ÙƒØ«ÙŠØ±
##Ù„Ù
Ø­Ø¨ÙŠØ¨
##Ø§Ù„Ø¨Ù„Ø§Ø¯
ØµØ§Ø±Øª
Ø§Ù„Ø´Ø¹Ø±
Ø§Ù„Ø«Ù‚
##Ø¯Ø§ÙØ¹
Ù„Ø§ÙƒÙ†
Ø¨Ù‡ÙŠÙ…
##Ø¬Ù…Ù„
Ù„Ø§Ø¨Ø³
Ù…Ø¹Ù†
ÙŠØ±Ø­Ù…Ù‡Ù…
ÙÙŠÙ‚Ùˆ
Ø§Ø±
Ù€
Ù†Ø­Ø³
Ù…ØµØ§Ù„Ø­
##Ù„Ø·ÙŠ
Ø±Ø§Ø³Ùƒ
ÙŠØ®Ù„ÙŠÙƒ
ÙÙ‡ÙŠ
ØªÙ„Ùƒ
Ø§Ù„Ù…ØµØ±ÙŠ
Ù„ÙƒÙŠ
##Ù‡Ù…Ø´
ØªÙƒØ°Ø¨
Ø§Ù„Ù„Øº
Ø´Ø±Ùƒ
Ø·Ù„Ø¹Øª
##ÙˆØ¬Ø¯
Ù†Øµ
##Ø­Ø¯Ø§Ø«
ØªÙ…ÙˆÙŠÙ„
ÙƒÙ„Ø´
Ù„ÙŠÙ†Ø§
Ø¨ÙˆÙ„
ÙƒÙ†Ø§
Ø¹Ø§Ø±
Ø§Ù„Ø³Ø§Ø¹
Ù‚Ø§
Ø¢Ù„
##Ù„ÙŠÙˆÙ…
##ÙˆÙ
Ø¹Ø±Ù
Ù‚Ù…
Ù…Ø­Ù„
ÙƒÙˆØ±ÙˆÙ†Ø§
##Ø³Ù…Ø§Ø¡
Ù„Ø³Øª
Ù‡Ø¨Ø·
ÙˆØµÙ„
##8
Ø§Ù„Ø³Ø§Ø¨Ù‚
##Ø§ØªÙƒ
##Ø·ÙŠØ­
Ø¯Ø²ÙŠØ±ÙŠ
##Ù…ÙŠÙ†
Ø§Ù„Ø¹Ø§Ø¦Ù„
Ø³Ù†ÙØ±Ø§
Ø§Ø³Ø§Ø³
Ø­Ù„Ø§Ù„
##ØªÙˆÙ…Ø§
Ø®Ø·
ÙˆÙ„Ù†
Ù†Ø¯ÙŠØ±
Ø¯Ù…
Ø§Ù„Ø·ÙŠØ¨
Ø·Ø¨Ø¹
Ù…Ø¹Ù‚ÙˆÙ„
ØªØ¨ÙƒÙŠ
Ù…ÙˆØ³
Ø¹Ù‚Ø¯
Ù…ÙÙŠØ¯
##ÙˆÙ‡Ù…
Ø§Ù„Ø¬Ø²Ø§ÙŠØ±
Ù…Ø³Ù„Ø³Ù„
ØªØ¨
Ø§Ø´ÙƒÙˆÙ†
ÙÙŠØ¯ÙŠÙˆÙ‡Ø§Øª
##ÙƒØ±Ø³ÙŠ
##Ø¨Ø§
Ø¹Ù…Ø±Ù‡Ø§
##Ø³Ø¨ÙˆØ¹ÙŠ
Ø§Ù„Ø¨Ø·Ø§Ù„
Ø³Ø§
Ù†Ø¬Ø§Ø­
##Ù†Ø¯Ø§Ø¡
Ø¨Ø³ÙŠØ·
Ø£Ù…ÙˆØ§Ù„
Ø´ØºÙ„
Ø§Ø­Ø³Ø§Ø³
Ù…Ù…Ø«Ù„
##ÙŠÙ†ÙŠ
Ø¨Ø·Ù„
ØºÙŠ
##Ù…Ø«Ù„
##Ù…Øª
##Ù‚Ø±ÙˆÙŠ
6
Ù‚Ø§Ù…
Ø£Ø®Ø±
Ù…ÙˆØ§ÙÙ‚
Ø§Ù„Ø¯Ø§Ø®Ù„ÙŠ
ÙŠØ¹Ø¯
Ù…Ø´Ø§Ù‡Ø¯
Ø´Ø¨Ø¹
ÙˆÙ†Ø­Ù†
Ø§Ù„Ø¯Ù…
##Ø­Ù‚ÙŠÙ‚Ø©
ÙŠØ§Ø³ÙŠ
Ø²Ùƒ
Ø¹Ù…Ø±Ùˆ
Ù‚Ø§Ø¹
Ø§Ù„ÙƒØ§Ø³
Ø°Ø§Øª
Ø§Ù„Ù…Ø³ØªÙˆ
##Ø³ÙŠØ§Ø³ÙŠÙŠÙ†
Ø§Ù„Ø²
ÙŠØ­ÙƒÙ…
##Ù„Ø§ÙŠÙƒ
ØªØ§Ù†ÙŠ
##Ø¬Ù„
Ø³Ø§Ù…Ø­Ù†ÙŠ
ØªÙ…Ø«Ù„
Ø¬ÙŠÙ„
ÙˆØµÙ
##Ø¨Ø¹Ø©
##Ø£Ø¹Ù…Ø§Ù„
Ø¹Ø±Ø¨
Ù‚Ø¶ÙŠ
Ù…Ø´ÙŠØª
##ÙŠØ±Ø©
Ø®Ø§ÙŠÙ
##Ø·Ø­ÙŠÙ†
##Ù†Ùƒ
Ø§Ù„Ø§Ø¹Ù„Ø§Ù…
Ø§Ù„Ù‡Ø±ÙŠØ³
Ø¨Ø§Ø±Ùƒ
Ø´ÙƒÙ„
Ù…Ø§Ø¹Ø§Ø¯Ø´
Ø§Ù„Ø£Ù‚Ù„
Ø¹Ø±Ø³
Ø£ØµØ¨Ø­
ØªØ®Ù„ÙŠ
##Ø§ØªØ­Ø§Ø¯
ØªÙ†Ø¬Ø­
ØªØ·Ù„Ø¹
Ø§Ù„Ø³Ø±Ø§Ù‚
Ø§Ù„ØªØ¹Ù„ÙŠÙ…
##Ù…Ùˆ
Ø§Ù„Ø¬Ù…Ø§Ù„
Ø³Ù…Ø¹ØªÙ‡Ø§
##Ù‚ÙˆÙ„
##Ø±Ø³ÙˆÙ„
Ù„Ù„Ø§Ù†ØªØ®Ø§Ø¨Ø§Øª
Ø·Ø¨ÙŠØ¹ÙŠ
Ø§Ù„Ø¹ÙŠØ¨
Ø§Ù„Ø¨Ø§Ù‚ÙŠ
##Ø¹Ø¬Ø¨Ù†ÙŠ
Ø±Ø¬Ø¹Øª
ÙŠØµÙ„Ø­
Ø§Ù…Ø§Ù…
##Ù…Ø¹
Ø¨Ø­Ø¨Ùƒ
Ø·Ù„Ø¨
Ø¨Ø¯ÙŠ
ÙØ±Ø­Øª
Ù…ÙŠØ³
##Ù†Ø³Ø¨Ø©
Ø¹Ù†Ù‡
Ø´Ø±Ù
Ù…Ø§Ø³Ø·
Ø¨Ø§Ø³Ù…
Ø¨ÙƒØ±
##ØªÙˆØ§Ù†Ø³Ø§
Ù…Ù†ÙˆØ±
##ØªØ¯Ø®Ù„
Ø§Ø±Ø¶
##Ù…Ø§Ø¡
ÙˆØ²ÙŠØ±
Ø®Ø§ÙˆØª
Ø¨Øª
ØªØ²ÙŠØ¯
Ø§Ù„Ø§Ù†ØªØ®Ø§Ø¨ÙŠ
##Ù…Ù†Ø§ØµØ¨
Ø®Ø§Øµ
ØºÙŠØ±Ù‡
##Ø¸
Ù†Ø§Ø±
Ù‡Ø²
Ø´ÙŠØ±ÙŠ
##ÙˆØ¶
##Ù„Ø§Øª
##ØªØ±
Ø§Ù„Ø³ØªØ±
Ø¹Ù„Ù…
Ø¯Ø¹Ùˆ
##ØªØºÙŠØ±
Ù†ØªØ§
ÙŠÙƒÙÙŠ
ÙƒÙ…Ø´
##ÙˆØ§Ù†
ÙƒØ§Ø±Ø«
Ø§Ø¨Ø¯Ø§
ÙˆÙ‚Ù
##ÙØªØ®Ø±
Ø®Ù„Øµ
Ù‡Ø°ÙŠÙƒ
Ø§Ù„Ø´ÙŠ
Ù…Ø­
Ø£Ù„
##ØµØ¨Ø±
Ø§Ù„Ø±Ø¦Ø§Ø³
Ø§Ø±Ø¬Ùˆ
Ù…Ù…ØªØ§Ø²
##Ø¤
Ø§Ù„Ø³Ø¹ÙˆØ¯ÙŠ
##Ù‚Ù†ÙˆØ§Øª
ÙˆÙŠÙ†Ùƒ
Ù…ÙŠÙ†
Ù†Ø­Ø¨ÙˆÙƒ
ÙˆØ§Ù„ÙŠ
##Ø¨Ù‡
Ø§Ù„Ù…Ø¤ØªÙ…Ø±
Ø§Ù„ØªØ§ÙÙ‡
Ù…ÙŠÙ„Ø§Ø¯
Ù…Ø¬Ù…ÙˆØ¹
ØµØ¹ÙŠØ¨
ØªÙ
ÙˆØ§Ù„Ø³Ù„Ø§Ù…
Ù…Ø¬ØªÙ…Ø¹
ÙØ±Ø§Ù†Ø³Ø§
##Ø´ÙƒØ±
Ø¨Ø³Ø¨Ø¨
Ù†Ø¸Ø§Ù…
Ø§Ù„Ù‚Ø±
Ø§Ù„Ø¹Ø²ÙŠØ²
##Ø«Ø±ÙˆØ§Øª
Ø¬Ø²Ø¡
ÙŠØ®Ù„Øµ
ÙˆØ§Ù†Ø´Ø§Ø¡
ØºØ¯Ùˆ
Ø§Ù„Ù‚Øµ
Ø§Ù„ØºÙ†ÙŠ
##Ù…Ù‡Ø±ÙŠ
Ø¯ÙˆÙ†Ø§Ù
Ø§Ù„Ø¹Ù„Ù…
Ø§Ù„Ø®Ø¯Ù…
Ø§Ù„Ù…Ø³Ø¤ÙˆÙ„
Ø§Ù„Ø¨Ø­Ø±
Ø±Ø®Øµ
Ù†Ø³Ù…Ø©
Ø§Ù„Ø¢
Ø¨Ù‡Ø°Ù‡
##Ù‚Ù„Ø©
##Ø­Ø³Ù†
ÙŠØ¹ØªØ¨Ø±
Ø§ØµØ­Ø§Ø¨
ÙˆØ§Ùˆ
Ø¨Ø²Ø§Ø§Ø§
Ø®Ù„Ø§Ù„
Ø¨Ù†Ø²Ø±Øª
Ø±Ø¡ÙŠØ³
ÙˆØ§Ù„Ùˆ
Ø£Ù†Ùƒ
Ù…Ø§Ù†
Ø§Ù„Ø§Ø³Ù„Ø§Ù…ÙŠ
Ø²Ø¹ÙŠÙ…
Ø§Ù„Ù…Ø¬Ø§Ù„
ØªÙ‚ØªÙ„
Ø¬ÙŠØ¯
Ù†Ø´ÙˆÙÙˆ
Ø§Ù†ØªÙˆÙ…
Ø­Ø³ÙŠØª
##Ø§Ø§Ø§Ø§Ø§
Ø¨ÙˆÙƒ
ÙŠØ­ÙØ¶Ùƒ
Ù…ÙˆÙ‚Ù
##Ø­Ø¨
Ù…ØªØ²ÙˆØ¬
Ø¹Ø§Ù„ÙŠ
Ø§Ù„Ø«
##Ù…ÙƒÙŠØ§Ø¬
Ù‚Ø¹Ø¯
##Ø±Ø§Ø¬Ø¹ÙˆÙ†
ÙŠØ¬ÙŠØ¨
Ù„Øª
Ø´Ø§
ÙŠÙ‡Ø²
Ù„Ø§Ù†Ùˆ
ÙŠØ®Ø¯Ù…Ùˆ
##ÙˆØ§Ø­Ø¯
##Ø¨Ø·
ÙŠØ¨ÙŠØ¹
Ø¹Ø§Ø¯Ù„
##Ù„Ù†Ø³Ø§Ø¡
Ù†ÙƒÙˆÙ†
ÙˆØ§Ù„Ø¯ÙŠÙƒ
##Ø²ÙˆØ§Ø¬
Ø­ÙƒÙ…
Ù†Ø¹
Ù†Ø´Ø§Ù„
ØªØ¶Ø­Ùƒ
##Ù„Ø¹Ø¨
##Ø¨Ù„
Ø§Ù„Ø§Ø¯Ø§Ø±
Ø¬Ø§Ø¨Øª
Ù„Ø®Ø±
Ø§Ù„Ù…ÙØ±ÙˆØ¶
Ø¬Ø§Ø¨
Ø§Ù„ÙˆØ²ÙŠØ±
Ø§Ùƒ
##Ø®Ù…Ø§Ø¬
Ø£ØµØ¨Ø­Øª
ÙÙ‡Ù…
Ø®Ø§Ù…Ø¬
ÙŠÙ…ÙˆØª
Ø§Ù„Ù‚ÙŠØ§Ù…
Ø§Ù„Ù…Ø¤Ù…Ù†
Ø´ÙƒØ±
##Ø­Øª
Ø§Ù„Ø­Ø¯ÙŠØ«
Ù…Ø²
##Ø¹Ø¨
Ø§Ù„Ù…Ø±
Ø§ØµØ¨Ø­Øª
Ù‚Ø¯Ù…
##Ø­Ù„Ø§Ù„
Ø§Ù„ÙØ±Øµ
Ù…ØµØ±ÙŠ
##Ø¸Ø±ÙˆÙ
##Ø¨Ù†Ø§Ø¡
Ø¬Ù‡
Ø²Ø¹Ù…Ø§
Ø£Ù…Ùƒ
Ø¨Ø³Ù…
ÙØ±
Ø§Ø´ØªØ±Ø§Ùƒ
Ù†ÙƒØ±Ù‡
##Ø£Ø³Ù
Ø­ÙŠÙ†
##Ù„ÙƒÙ„Ø§Ù…
##Ø³Øª
Ø§Ù„ØªÙˆØ§Ù†Ø³
##Ù„Ù‚Ø§Ø¨
Ø§Ø¹Ù„Ù…
##Ø­Ù„
Ø±Ø£Ø³
Ø§Ù„Ø§Ù†Ø³Ø§Ù†
##Ø¯Ø¹Ù…
Ø¹Ø±Ø¶
Ø§Ø®ÙˆØ§Ù†
Ø§Ù„Ù‚Ø°Ø§
ØªÙ‚ÙˆÙ…
ØªØ¹Ø¨
##Ù‡Ù‡Ù‡Ù‡Ù‡Ù‡Ù‡Ù‡Ù‡Ù‡Ù‡Ù‡Ù‡Ù‡Ù‡
##ÙƒØ±
Ù„Ø§Ù†Ùƒ
Ø±Ø§Ø³ÙŠ
##Ø±Ø§ÙƒÙ…
##Ø¨ÙˆÙ†ÙŠ
Ù‚ÙˆÙ…
Ø¨Ø·ÙˆÙ„
Ø´Ø¹Ø§Ø±
##Ù‚Ùˆ
Ø§Ù…Ø«Ø§Ù„Ùƒ
##Ù‡ÙˆØ´
Ø§Ù„ØªØ¬Ù…Ø¹
Ø§Ù„Ù†Ù‡
Ù…Ø¨Ø§Ø±Ø§
ÙØ±Ø¶
Ø§Ù„Ø³Ø¨
##Ø§Ø­ØªØ±Ø§Ù…
Ø¨Ù„Ø§Ø¯Ùƒ
##Ø§Ù…Ø§Ù…
ÙƒÙ…Ø§Ù„
##Ø´ÙŠØ±
Ù…Ø§ÙŠ
Ø¹Ù‚Ù„
Ø¨Ù‚Ùˆ
Ø§Ù†Ø´Ø§
##Ø¹Ù„
##Ø§Ø¦
##Ù†Ø§Ø·Ù‚
Ø·Ø§Ø­
8
Ù…Ù‚Ø¨ÙˆÙ„
ÙØ¯ÙŠÙˆ
##Ø§Ù‡Ù…
Ø´Ø®ØµÙŠØ§
##Ø§ÙŠ
Ø§Ù„Ø®Ø§Øµ
Ø¨Ù„Ø§Ø¯Ùˆ
ÙŠÙƒ
Ø£Ø¨Ùˆ
##Ù„Ø­
Ø§Ù„Ù†Ù‚Ø§Ø¨
##Ø±Ø¯
Ù…Ø²ÙŠ
Ø¨ÙŠÙ†Ø§
ØªÙ‚Ø¹Ø¯
##Ù‚ØªÙ„
ØºØ§
Ø²Ø¨ÙˆØ±
ØªØ¹Ø±ÙÙˆ
ØªÙˆØ­Ø´Ù†Ø§
ØµÙØ§Ù‚Ø³
ØªØ²ÙˆØ¬
Ø¹Ø¸ÙŠÙ…
Ø§Ù„Ù…Ø¬Ù…ÙˆØ¹
Ø£Ù†ÙØ³
ØªÙ‡Ø¯Ø±
Ø´Ø±ÙŠÙ
Ø§Ù„ØªØ´Ø±ÙŠØ¹ÙŠØ©
ØªØ­Ù‚ÙŠÙ‚
Ø§Ù„Ø´Ø±
Ø³Ù…Ø§Ø±Ø§
Ø­ÙˆØ§Ø±
##Ø§Ø±Ø¹
Ø§Ø³Øª
Ø£Ø¹Ù…Ù„
Ù…Ø±Ø§Øª
ÙˆØ³
Ø±Ø¨Ù†Ø§
Ù…Ø«Ù„Ø§
ÙØ§ÙŠÙ‚
Ù‚Ø­Ø¨
Ù†Ù‚Ù„
Ø§Ù„Ù†Ø¸Ø±
Ù„Ø¨Ù†
Ù…ÙˆÙÙ‚
Ø³Ù…ÙŠØ±
ÙÙ…
Ø§Ù„Ø¹Ø§Øµ
ÙŠÙ‚ØªÙ„
Ù‡Ø§ÙŠÙ„
##Ø§Ù…ÙŠ
##Ø¨Øª
ÙŠØ²ÙŠØ¯
Ø§Ù„Ø¹Ø¨
Ø§ÙŠÙ‡
Ø£Ù…Ø§Ù†
Ø´ÙŠØ®
##Ù†ÙØ§Ù‚
ØªÙ‚ÙˆÙ„Ùˆ
##ÙŠÙˆÙ…
12
Ø£ÙˆÙ„Ø§Ø¯
Ø±Ø­
Ø§Ù„Ø¬Ù…Ø¹
##ÙŠØ­
##ÙŠØªÙˆ
ÙŠØ®Ù„ÙŠ
Ø¯Ù„ÙŠÙ„
Ù…Ø®
##Ø¨Ø§Ø·
ØªØ¨Ø§Ù†
14
Ø§Ù„Ø¹Ø´Ø±
##Ù†Ø³Ù‰
Ø§Ù„Ø¹Ø¨Ø¯
ÙÙŠÙ‚
Ù†Ù‚Øµ
Ø£Ù…Ø§Ù…
ÙŠØ±
Ù…Ø­Ù„Ø§
Ø§Ù„Ø¬Ù…Ø¹ÙŠØ§Øª
Ø§Ù„Ø¥Ø±Ù‡Ø§Ø¨
##ÙƒÙˆ
Ù†Ø­ÙƒÙŠ
Ù…Ø®ÙŠ
Ø­Ø±Ùƒ
Ø­ØªØ§
Ø§Ù„ØºÙŠØ±
Ù‡Ø§ÙŠ
ÙƒÙ„Ùˆ
##Ø·Ø±
##Ù‚Ø¯
Ù†ÙˆØ§Ø¨
##Ø±ÙŠÙ†
Ø¬Ù„
ÙÙ‚
Ø§Ù„Ù…Ù†
Ø³ÙØ§Ø­
Ø§Ø®Øª
##ÙƒÙŠÙ
##Ø·Ø­Ø§Ù†Ø©
ÙØ±Ø¯
ÙŠØ­ÙƒÙ…Ùˆ
##Ù„ÙŠÙƒ
Ù†ØµÙŠØ­
ÙˆØºÙŠØ±
##Ø¨Ø§Ù„
##Ø´ØºÙ„
Ù†Ø²Ù„
Ø§Ù„Ø¬Ø§ÙŠ
ÙŠØ±Ø²Ù‚
Ø§Ù„Ø¨Ø§Ø¨
Ø§Øª
Ø§Ù„Ø¨Ø´Ø±
##Ø³Ø§Ø±Ù‚
Ù†ØµÙ
##Ù‚Ø±Ø·Ø§Ø¬
Ø§Ù„Ø§Ø³ØªØ¹Ù…Ø§Ø±
Ø¹Ù…Ù„ÙŠ
Ù‚Ø§Ù„ÙˆØ§
Ø§Ù„Ø³Ø¤Ø§Ù„
Ù…ÙŠØ³Ø§Ø¬
##Ù†Ù‡Ø§Ø±
ÙŠÙ†
Ø§Ù…ÙˆØ§Ù„
ÙˆØ±Ø§Ù‡
##Ø·ÙŠ
##Ø¨ÙŠÙƒÙ…
Ø´Ù…
Ù†Ù‚ÙˆÙ„Ùˆ
##Ø¹Ø§Ø¯Ø´
ÙˆØ²Ø§Ø±
Ø­ÙŠÙˆØ§Ù†
Ù…Ø¹Ø°Ø¨Ù‡
##Ø§Ù„Ø©
Ø§Ù„Ø±Ø­Ù…
##Ù…ÙŠØªÙŠ
Ø§Ù„Ù…Ø´Ø±ÙˆØ¹
ÙÙ‚Ø¯
Ù…ÙƒØªÙˆØ¨
Ù‚Ø§Ø¦Ù…
Ø§Ù„Ø³Ùƒ
Ø­Ø§Ù„Ø§Øª
Ù‚Ù…Øª
Ø¬Ù…Ù„
##Ø¹ÙŠØ´
ÙƒØ§Ø³
Ø§Ù„Ù‡Ù…
ÙŠØ±ÙŠØ¯ÙˆÙ†
Ø³Ø§ÙƒØª
Ø§Ù„Ø¬Ø²Ø§Ø¡Ø±
Ø¨Ø§Ù†
Ù†Ø±Ø¬Ø¹Ùˆ
Ø§ØºØ§Ù†ÙŠ
Ø£Ù…ÙŠÙ†
Ø§Ù„Ø¬Ø§Ù…Ø¹
Ø¨Ù†ÙØ³
Ø´Ùƒ
Ø§Ù„ÙÙƒØ±
Ø§Ù„ÙØ§Ø´Ù„
Ø£ØªÙ…Ù†
Ø£Ù‚Ù„
Ø£Ù†ÙŠ
##Ø­ÙŠØ·
Ù†Ø¬Ù…
Ø­ÙŠØ§ØªÙƒ
ÙˆØ¥Ù†
##Ø´Ù‡Ø¯Ø§Ø¡
ØªÙ‡Ø²
##Ø³Ø¨Ø³ÙŠ
Ø§Ù„Ø¯Ø§Ø®Ù„
##Ù„Ù‚
##ØºÙŠØ±Ø©
Ø§Ù„Ø°Ø±ÙŠ
ØªÙ‚
Ù…ØªØ§Ø¹Ùˆ
Ø¨Ù„Ø§ØµØª
Ø¨ÙŠØª
ØºÙ„Ø·
ØµÙÙ‚
##ÙˆØ±Ø¨ÙŠ
Ø¹Ù…ÙŠÙ„
##ÙƒÙ†
##Ù…Ø§Øª
##Ù†ØªØ®Ø§Ø¨Ø§Øª
##Ø¹Ù†Ù
Ø§Ù…Ø§Ù†
Ø¨Ø§Ù„Øª
Ø§Ù„Ø¬Ù…Ø§Ø¹
##Ø®ÙˆÙ
Ø§Ù„Ù‚Ø±Ùˆ
Ù†Ø´Ø§Ø¡
Ø§Ù„Ø±Ø¬ÙˆÙ„
Ø¨Ù‚
##Ø¯Ø¹Ø§Ø¡
ØªØ°ÙƒØ±
15
ØªØ¹Ø§
Ù‚Ù„Ùˆ
Ø§Ù„ÙŠÙ‡
Ù…ØºÙ†ÙŠ
Ø¬Ø§Ù†Ø¨
Ø¨Ø¹
##0
Ø§Ù„Ø¬Ù…ÙŠÙ„
Ø§Ù„Ø²ÙŠÙ†
##Ø§Ø±Ø§Øª
Ù„Ù…Ø±Ø§
##Ø¬Ø§Ù‡
Ø¨Ø§Ù‚ÙŠ
ÙŠØ¸Ù‡Ø±
ÙŠØ¨Ø¯Ø§
Ø¬Ø±
##Ø¶Ø¨Ø·
ÙƒØ§Ù†Ùˆ
##Ø­ÙˆÙ„
Ø³ØªØ±
ØµØ¨Ø§Ø­
Ù„ÙˆÙ„
Ø§Ù„Ø­Ø±Ø§Ù…
##ÙØ¶Ù„
ØªØ­Ø·
Ø§Ù„ØºØ±Ø¨ÙŠ
ÙƒÙ„Ù…
##Ø´Ø¹ÙˆØ¨
Ø³Ø¨
ÙƒØ¹Ø¨
##Ù‡Ø°Ù‡
##ØªØ¹Ù„ÙŠÙ‚Ø§Øª
Ø¹Ø§ÙˆÙ†
Ø¨Ø±ÙˆØ­
Ø§Ù„Ù…Ø³
ØªÙ…ÙˆØª
ØªØ´
##Ù„ÙŠÙ†
30
ÙˆØ­Ø¯ÙŠ
Ø§Ù„ØªÙˆÙ†Ø³
Ø£Ù…Ø±
Ù„Ù„Ù…
##Ø§Ø¦Ø±
ÙŠÙ‚ÙˆÙ…
Ø£Ø¹
##Ø±Ù‚
##Ø¹ÙŠ
ÙŠØ´ÙÙŠÙ‡
ØªØ±Ùƒ
Ø¨Ø±Ø§Ù…Ø¬
Ø±Ø§ÙŠÙƒ
##Ø´ÙŠØ¡
Ø§Ù„Ù…Ø¹Ø§Ø±Ø¶
ÙƒØ±Ù‡
##Ø¨Ù†
ØªÙ…Ø«ÙŠÙ„
ÙƒØªØ§Ø¨
Ù‚ØªÙ„Øª
Ø¨Ø§Ù„Ø¹Ø±Ø¨ÙŠ
##Ø®Ø±ÙˆØ¬
##Ø§ÙØ¶Ù„
Ù…ÙƒØ´Ø®
Ù†Ø¸Ø±
Ø§Ù„Ø°
##Ø¬Ø§Ù†Ø¨
Ø­Ù‚Ùƒ
##Ù…Ø¹Ù„Ù…
ØªØºÙŠÙŠØ±
Ù†Ø§Ø¬Ø­
##ÙŠØ¨ÙˆØ¨
##Ù‡Ù‡Ù‡Ù‡Ù‡Ù‡Ù‡Ù‡Ù‡Ù‡Ù‡Ù‡Ù‡Ù‡
Ø§Ù„Ø·Ø±Ù‚
ØªØµØ±Ù
##ÙŠÙ…Ø©
Ø§Ù„Ø§Ù…Ø±
##Ø¨Ø§Ø³
Ù†Ø¨Ø§Øª
ØªØ¹ÙˆØ¯
ØªØ³ÙŠØ±
##Ø¹Ù„ÙˆØ´
##Ù†Ø³
Ø­Ø²ÙŠÙ†
Ø§ÙƒØªØ¨
Ø§Ù„Ø¸Ù„Ù…
##Ù„ØªÙŠ
ÙˆØ¬ÙˆØ¯
Ø¨Ø«
##Ù„Ù†Ø§Ø¯ÙŠ
##Ù†Ø´Ø·
ÙŠØ¨Ø§Ø±ÙƒÙ„Ùƒ
Ù„ØªÙˆ
##ÙˆÙˆÙˆÙˆ
ÙˆÙ†Ø­Ø¨
Ù†ÙˆÙ„ÙŠ
##ÙŠØ¹Ù‚ÙˆØ¨
Ø¬Ø§Ø¨Ùˆ
ÙŠØ±Ø­Ù…Ù‡
Ø§Ù„Ø¹Ø§Ù„ÙŠ
ÙŠÙØ±Ø­
ÙŠØ²ÙŠÙˆ
Ø°Ù‡Ø¨
Ø§Ù„Ø£ÙØ±ÙŠÙ‚
Ø±ÙØ¹
ÙˆØ­Ø´
##Ø³ÙŠØ§Ø¯Ø©
Ù„Ø²Ù…
Ù…Ø³Øª
##Ø¹Ù…Ù„
ÙˆÙ‚ØªÙ‡
Ø§Ù„Ø¹Ø§Ù„Ù…ÙŠ
##ÙŠØ³Ø¨ÙˆÙƒ
Ù…ÙˆÙ‚Ø¹
Ø§Ù„ØµÙˆØª
##Ø¥Ù†ØªÙŠ
Ø´Ø§Ø¯
##ØªØ±Ø´Ø­
Ø­Ø·ÙŠØª
Ø·Ø±Ø¯
##ÙÙƒØ±Ø©
ÙˆØ¬Ù‡ÙŠ
Ø§Ù„Ø¥Ù†Ø³Ø§Ù†
Ø§Ù„Ù‚Ùˆ
##ØªØ§
Ù†ÙˆØ±
Ù„Ø¹
Ù„Ø·ÙŠÙ
Ø§Ù„Ø­Øµ
Ø§Ù„Ø´Ù‡Ø±
##ÙØ±Ø¶
Ø­Ø§Ø³
##Ø¨Ù‡Ø§
ÙƒÙŠÙÙŠ
Ø§Ù„ØªØ±Ø¨ÙŠØ©
##Ø¨Ù†Ø§Øª
Ø§Ù„ÙƒÙ„Ù…Ø©
Ù„Ø­Ø¯
##Ø¹Ø§Ø±
##Ø²ÙŠ
Ø­Ù…
Ø§Ù„Ø¹Ù‚Ù„ÙŠØ©
Ù…Ø±ØªÙˆ
##Ø²ÙˆØ§Ù„ÙŠ
Ø§Ù„Ø¹Ù…ÙˆÙ…ÙŠ
ÙˆØ§Ø­Ù†Ø§
Ø¨Ø£
Ø§Ù„Ø­Ø§Ù„ÙŠ
ØªØ¨Ø¹
Ø£Ø®Ù„Ø§Ù‚
Ù‚Ø¯ÙŠÙ…
##ÙˆØ§ØµÙ„
##Ø§ÙŠØ©
Ø·Ø§Ù„Ø¨
Ù†Ø´Ø§
Ø§Ù„Ù…Ù„Ùƒ
Ù…Ù†Ø·Ù‚
Ø§Ù„Ø­Ù…Ø¯Ù„Ù„
Ø§Ù„ÙŠØ¯
##Ø·Ù„Ø¨
ÙÙ†
##Ø§Ù‡Ø§
Ø§Ù„Ø·Ø¨ÙŠØ¹ÙŠ
Ù‚ÙˆÙ„Ùˆ
##Ø§Ù„Ø±Ø³Ù…ÙŠ
Ø§Ù„ÙƒØ±
200
Ø£ØºÙ„Ø¨
Ø£Ø®ÙŠ
Ù…Ø§ÙƒØ§Ù†
ØªØ¹Ø§Ù„
##Ù„ÛŒ
Ù‚Ø·Ø¹
##Ø¹ØªÙ‚Ø¯
Ø¹Ø±ÙŠØ§Ù†
ÙˆÙ‚Ø¹
##Ø§Ø§Ø§Ø§Ø§Ø§Ø§Ø§Ø§Ø§Ø§Ø§Ø§Ø§Ø§Ø§
##ØµØ­ÙŠØ­
ØªÙˆØµÙ„Ùˆ
Ù†ØªØ¨Ø¹
Ù…Ø­ØªØ§Ø¬
ÙˆØ±Ø¨
Ù…Ø§Ø´
Ø¥Ø³Ù…
Ø³ÙƒØ±
##Ø­Ù†Ø§
Ø§Ù„Ùˆ
Ø¨Ø§ÙŠ
ÙŠØ­Ø³
##ÙŠØ¯ÙŠ
Ø­Ø¨ÙŠØ¨ÙŠ
##Ø§Ù„Ù…ÙˆØ³Ù…
##Ø¹Ø¯
Ù…Ø´ÙŠ
Ù…Ù…Ù†ÙˆØ¹
ÙˆØ§Ø¹ÙŠ
Ø¨ÙƒÙŠØª
ÙŠØ­ÙŠ
Ø§Ø¨Ùˆ
Ø§Ù„Ø·Ø±Ø§Ø¨Ù„Ø³ÙŠ
Ù…Ø¯Ø±Ø¨
Ø§Ù„Ù…Ø³ÙƒÙŠÙ†
##Ù†Ùˆ
Ø¯Ø¨Ø§Øº
ÙŠØ³Ù‡Ù„
##Ù…Ø±Ø§Ø©
Ø§ÙŠØ¬Ø§
##ÙŠØªÙ‡Ø§
Ø§Ù„Ø±Ø¦Ø§Ø³ÙŠ
##Ø­ÙƒÙˆÙ…Ø©
ÙŠÙ‡Ø¯ÙŠÙƒ
ÙˆØ·Ù†
Ø¶Ø­ÙƒØª
ÙŠØ¨ÙƒÙŠ
Ø§Ù„Ù…Ø³ØªÙ‚Ø¨Ù„
Ø§Ù„Ø´Ù…Ø§Ù„
##Ù…Ø±Ø©
Ø¬Ù‡Ù„
Ù‡Ø¯Ù
##Ù„ÙˆØ§
Ø±ÙˆØ§Ø­Ù‡
Ø­Ù…ÙˆØ¯
Ø§Ù„Ù‚Ù„ÙŠÙ„
Ù†Ù†ØµØ­Ùƒ
ÙŠØ³Ù…
Ø¨Ø·Ø±ÙŠÙ‚
Ø£Ù„Ø§
Ù†Ø¨ÙƒÙŠ
##Ø¬Ø¯Ø¯
##Ù…Ø´Ø§Ø±ÙŠØ¹
Ø£Ø±Ø¬ÙˆÙƒ
Ù†Ø­ÙŠ
Ø§Ù„Ø¢Ø®Ø±
Ø­Ø±Ø¨
Ø§Ù„Ø±ÙŠ
Ø¨ÙŠØ¹
ØªØ¬Ø±ÙŠ
Ø£Ù†Ùˆ
##Ø¨Ùƒ
Ø³Ù…Ø­
Ù…Ù†Ø§
ÙØªØ­
##ØªØ²ÙˆØ¬
Ø§Ø±Ø¬Ø¹
##Ø¶Ø­Ùƒ
Ù…Ø¹Ø±Ø³
Ø§Ù„Ø¹Ø§
##Ø±Ø¬
Ù†ØªØµÙˆØ±
Ø§Ù…Ùˆ
Ø¬Ù…Ø§Ù‡ÙŠØ±
Ø§Ù„ÙƒÙ„Ø§
ÙˆÙƒÙŠÙ
ÙØ´Ù„
ØªÙƒÙ„Ù…
Ø­Ø§Ø¬Ø§Øª
Ù…ØµÙŠØ±
##Ù„ÙŠØ³
##Ù„Ù„
Ø¹Ø´
Ø§Ù„Ø²ÙˆØ§ÙˆÙ„
Ù‡ÙƒØ§Ùƒ
Ù„Ø¨Ø¹Ø¶
##Ø§ØªÙ‡Ù…
##Ø¯Ù‡Ø§
Ø§Ù„Ø³Ø±
Ù†Ø­Ø§Ø±Ø¨
ÙƒØ§Ù
Ø§Ù„Ø´Ø§Ø±
Ù…Ø²ÙŠØ¯
Ø§Ù„Ø¬Ø¨Ø§Ù„
##ÙƒØ«ÙŠØ±
Ø°ÙŠ
Ø§Ù„Ù…Ùˆ
Ø¯Ø±Ø³
19
Ø¨Ù…
##ØºÙ†Ø§Ø¡
##Ù…Ø±Ø£
##Ø±ÙˆØ¹Ù‡
Ø¬Ø§Ùˆ
Ø³Ù„Ø·
##Ø²Ø·Ù„
Ø§Ù„Ø´Ø±Ù‚
##Ø§Ø²
ÙŠÙ‡Ù„Ùƒ
ÙŠØ­ÙØ¸Ù‡
Ù…Ù†Ø§Ù„
##Ù‚Ø±Ø£
##Ø·ÙˆÙ„
Ø¨Ø¯Ø§ÙŠ
11
##Ø´Ø·Ø­
##Ø¨Ø·Ù„
ÙƒÙˆØ±
Ø§Ù„Ø°Ù„
Ø§Ù„Ø¹Ù…Ø±
##Ø§ØªÙ‡
ÙƒØ±Ø§Ù…
##Ù‚Øª
##Ø§Ø¹Ø©
ÙŠØ¹Ø±ÙÙˆ
##Ù„Ø§Ù‡ÙŠ
Ø¹Ø§Ù…Ù„ÙŠÙ†
ØªÙ…Ø±
##Ø±Øª
ØªØªØ¨Ø¹
##ÙŠØ²
##Ø±ÙŠØ³
Ø¨Ø·Ø§Ù„
Ù…Ù†ÙŠÙƒ
ÙŠØ­Ù„
ÙŠÙ‡
ÙˆÙ‚Ø§Ù„
Ø¨Ø¬Ø¯
Ø¥Ù„ÙŠÙ‡
Ù…Ø­ØªÙˆ
Ø¨Ø³Ø±Ø¹
Ø§Ù„ØªÙ„ÙØ²
ÙŠÙ†ÙØ¹
ÙŠØ³Ø±Ù‚
##Ø±Ø³
##Ø¨Ø­Ø«
Ù‚Ø·Ø±
##Ø­Ø§Ø±Ø¨
Ø¨Ø¯ÙŠØª
ÙÙ„ÙˆØ³Ùƒ
##ÙØ§Ù‡Ù…
##Ø¯Ø§Øª
Ø§Ø¹Ù„Ø§Ù…
ÙˆÙ†Øª
ÙÙ‡Ù„
ÙƒÙ„ÙŠØ¨
Ø®Ø§Ù†
ÙŠÙ„Ø¹Ù†
ØªØ¨Ø¯Ù„
Ø¨ÙƒÙ…
Ø­Ù‚Ù‡
Ø¨Ø·Ø¨ÙŠØ¹Øª
##Ø±Ø§Ø¨
2011
##Ù‚ÙˆØ¯
Ø¬Ø±Ø¨
Ù…Ø­Ø±ÙˆÙ…
Ø§Ù„Ø±Ø¯
Ù„ÙŠÙ‡
Ø­Ø§Ø¶Ø±
Ø§Ù„Ù…Ù†ØªØ®Ø¨
Ù…Ù‡Ø¨ÙˆÙ„
Ù†Ù‡Ø§Ø¦ÙŠ
##Ø¯Ù…
Ø§Ù„Ø«Ø§Ù„Ø«
Ø§Ù„Ø§ØµÙ„
##Ø§Ù…ØªÙŠØ§Ø²
Ø§Ù„Ù‚Ø¯ÙŠÙ…
9
ÙƒØªØ¨
Ù„Ø§Ø­ÙˆÙ„
ØµØ§ÙÙŠ
ÙˆØ§Ù‚Ø¹
ÙŠØ¯Ø§ÙØ¹
Ù„ÙˆÙ„Ø§Ø¯
Ø¯Ø§ÙŠØ±
##Ø¯ÙŠØ±
Ø¯ÙƒØªÙˆØ±
Ø¨ÙŠØ¯
Ø¹ÙˆØ¶
Ø§Ù„Ø¨Ø¯Ø§ÙŠ
Ø§Ù„Ù†Ø¨Ø§Ø±
Ø­Ø¨Ùˆ
##Ø¨Ù†Øª
Ø±Ø§Ø¨ÙˆØ±
ØºÙŠØ§Ø¨
Ø§Ù…Ø±
ÙŠØ³Ø±Ù‚Ùˆ
##Ø§ÙŠØ±
Ø²ÙˆÙŠÙ†
Ø­Ø§Ø´Ø§
Ø¯ÙŠØ±ÙŠ
Ù†Ù‚
Ø£Ø¨Ù†Ø§Ø¡
Ø§Ù„ØªÙˆ
Ø´ÙØªÙˆ
Ø¨Ù†Ø³Ø¨Ø©
##Ù„Ø§Ù
##ÙˆØ·
ÙŠØ³Øª
##ÙˆÙˆÙˆÙˆÙˆ
##ÙŠØ¶
Ø§Ù‚ÙˆÙ„
Ø­Ø¨ÙŠ
Ø§Ø³Ù„Ø§Ù…ÙŠ
Ø§Ù„Ø¨Ø§Ù‡ÙŠ
Ù‚Ø¯Ùˆ
##Ù„Ø·ÙŠÙ
##Ø§Ù„Ø¶Ø­Ùƒ
Ø§Ù„Ø³Ø±Ù‚
##ØªÙØ§Ù‡Ø©
Ø§Ù„ÙƒØ¨Ø§Ø±
Ù„ÙØ±ÙŠÙ‚
Ø³Ù„ÙŠØ§Ù†
Ø§Ù„Ù…Øª
##Ø§Ù‡ÙŠ
##Ø¯Ø±
Ø§Ù„ÙƒÙ„ÙŠØ¨
Ø§Ù„Ù…Ø¹ÙŠØ´
##Ø§Ø³Ø©
##ÙˆØ²
Ù†Ù…Ø´ÙŠ
ÙÙƒ
ÙˆØ¹Ù†Ø¯
Ø§Ø±Ø¬ÙˆÙƒ
Ø£ÙƒÙŠØ¯
##Ø³ÙˆÙ
ÙˆÙ‡
Ø§Ø´ØªØ±Ùƒ
##Ù„Ø°ÙŠÙ†
Ø¨ÙÙ„ÙˆØ³
Ø§Ù„Ø­Ù…
Ø§Ø´Ù†Ùˆ
Ø§Ù„Ù†Ù‚Ø¯
##Ø±Ø§Ù‡Ù…
500
##ØµØºØ§Ø±
##Ø¯Ø²Ø§ÙŠØ±
##Ù„ÙØ±Ù†Ø³Ø§
Ø¹ÙŠÙ†ÙŠÙƒ
ÙˆØ±Ø§
Ø·Ø¨Ù‚
Ø¯ÙŠÙ…
##Ù†Ø¯
Ø¨ÙŠÙ†Ø§Øª
##ØµÙˆØµ
40
Ø§Ù„Ø¬Ø­ÙŠ
Ù†Ø¶Ø§Ù„
ØªÙˆØ§ØµÙ„
Ø§Ù„Ù‚Ø­Ø¨Ø©
Ø¨Ø±Ùˆ
##Ù„Ø´
Ø±ÙŠ
##ÙˆÙ„Ø§
Ø®Ù„ÙŠÙƒ
Ø¥ÙØ±ÙŠÙ‚ÙŠ
ÙØ§Ù‚
ÙˆØ§Ù„Øª
ÙˆØ§Ù„Ø¹
##Ø§Ø·
##ÙŠÙƒÙ…
Ø³ÙˆÙ‚
##ØµØ§Øµ
##Ø·Ø¨ÙŠØ¨
Ø§Ù„ØªØ¹Ù„ÙŠÙ‚
##Ø®Øµ
Ù„Ø¨Ø³
##ØºØ§Ø¯Ø±
Ø¨Ø¯Ø§
Ø³Ù…
Ø¨Ø­Ø¨
##Ù†ØªÙŠ
ÙŠØ®Ø§Ù
##Ø³ØªØ§Ø°
ÙÙ…Ùƒ
ÙŠÙ†Ø¬Ø­
Ø§Ù„Ø­Ø±Ø¨
Ø±ÙŠØª
Ø¹ÙˆØ¯
ÙˆØªÙ‚ÙˆÙ„
##ØªÙˆÙ†Ø³ÙŠØ©
ÙŠØ²
Ø£Ø´
Ù‚ÙˆØ§Ø¯
##Ø§Ù„Ù†Ø§Ø³
1000
##Ø¨Ø¹
Ø­Ù‚ÙŠÙ‚ÙŠ
Ø¨Ø§Ù„ØªÙŠ
Ù…ÙˆØ³ÙŠ
##Ù„Ø¥ÙØ±ÙŠÙ‚ÙŠ
##ØªÙˆÙ†Ø³
Ø§Ù„Ø§ÙØ±ÙŠÙ‚
Ø´ÙŠØ¦Ø§
##Ù†Ù…ÙˆØª
##ÙÙ‚Ø±Ø§Ø¡
##Ø§Ù„Ù…
Ø§Ù„Ø¨Ø±
Ø¬Ù…
Ù‚Ù„ÙˆØ¨
Ù…Ùƒ
Ù…Ø¹Ù†Ø§Ù‡
Ø­Ùˆ
Ø¯ÙŠØ§Ù„
Ù…Ø¹Ù…Ù„
Ø§Ù„Ø¥Ù†ØªØ®Ø§Ø¨
ÙˆØ¹
ÙƒØ¨Ø±
##ÙØ§Ù„
Ø§Ù„Ø´Ø±Ù
Ø±Ø§Ø¯Ø³
Ù…ØµØ§Ø¯Ø±
Ø£Ø±ÙŠØ¯
Ø§Ù„Ø¹Ø¯Ù„
Ø§Ù„Ù…Ù†Ø·Ù‚
Ø§Ù„Ù†ØªÙŠØ¬
Ø§Ù„Ø¯Ø²ÙŠØ±ÙŠ
Ù„Ù„Ø¬Ù…Ø¹ÙŠ
ØªØ´ÙˆÙÙˆ
Ù…ØµØ·Ù
Ù„Ø­Ø§Ø³
Ø³Ø¨ÙŠÙ„
Ø±Ø§Ø³Ùˆ
Ø¨Ø§Ø°Ù†
Ø¨Ø§Ø·Ù„
Ø«Ø§Ù„Ø«
Ù…Ø±ÙƒØ²
##ÙƒÙ…Ø´
Ø£Ø­Ù„
Ù†Ø¹Ù…Ù„Ùˆ
Ø¹Ø±ÙˆØ³
Ù…Ø«Ø§Ù„
Ø´Ø§Ø¯ÙŠÙ†
Ø¨ØµÙ
##Ù„ÙØ³Ø§Ø¯
Ø§Ù„Ø¨Ø§Ø±Ø­
Ø±Ø®ÙŠØ³
ØªØ³Ù„Ù…
Ù‡Ù‡Ù‡Ù‡Ù‡Ù‡Ù‡Ù‡Ù‡Ù‡Ù‡Ù‡Ù‡
Ø¹Ø§Ø¬Ù„
##Ù‚Ø·ÙˆØ³
Ø§Ù„ØµØ±Ø§Ø­
ØµØ¨Ø§ÙŠØ­ÙŠ
Ø³Ù„Ø§Ù…ØªÙƒ
##ÙÙˆØ²
Ø§Ù„ÙÙ†Ø§Ù†
Ø´Ù…Ø§Ù„
Ø¹ØµØ§Ø¨
Ø§Ù„Ù…Ø±ØªØ²Ù‚
Ø£Ø®ÙˆÙƒ
Ø§Ù„Ø²Ù…Ù†
ÙŠÙ…Ø«Ù„
Ø£Ø¹Ù„Ù…
Ø§Ù„Ø¹Ø§Ù‚Ø¨
Ø³Ø¹Ø¯
Ù‡Ø§Ø¯Ø§
ÙÙˆØ±
ÙÙ‚ÙŠØ±
ÙŠØ±Ø¨Ø­
Ø¶Ø¹ÙØª
ØªØµÙ„Ø­
##Ù†ÙˆØ¹
ØªØ¹ÙŠÙ
ÙŠØ¹Ø·Ùƒ
ØªØ·Ù„Ø¨Ùˆ
ÙŠØ´ÙˆÙÙˆ
##Ø¬Ø§Ø±
ÙˆØ§Ø¹Ø±
Ù„ÙŠÙ†
Ù‚ØµØ±
Ø¹Ø·
ÙŠÙ„Ø²Ù…Ù‡Ø§
Ø®Ø±
##Ù…Ù„Ø¹Ø¨
Ø³Ù†ÙˆØ§
##ØªÙƒÙˆÙ†
ÙØª
ÙØ±Ø§Ø±
ØªØ´Ø¬ÙŠØ¹
Ø§Ø±Ù‡Ø§Ø¨ÙŠ
##ØªØ¨Ø±Ø¬
Ø³Ø·Ø§ÙŠÙÙŠ
Ø®ÙˆØ§Øª
Ù…Ù‚
##ØªØ­Ø¯Ø«
##ÙˆØ²ÙŠØ¯
##Ø§Ù†Ø§
ÙØ§Ù†
Ø§Ù„Ø³Ù†
Ù‚Ù„Ø¨Ùˆ
Ø£Ø³
ÙˆÙ‡Ù…
Ø£Ùƒ
Ø§Ø®Ø±Ø¬
Ø§Ù„ØºÙ†
Ø§Ø³Ø·ÙˆØ±
Ø­ÙƒØ§Ù…
ÙŠØ·ÙŠØ­
Ø¨Ø§Ù„Ø³Ù„Ø§Ù…
ÙŠÙƒØ°Ø¨
##Ø¨Ø±Ø§Ù…Ø¬
ÙÙ‡Ø§
Ø±Ø§Ø¨Ø·
ÙˆØ­Øª
ØªØ­ÙŠÙ„
Ø§Ø®Ùˆ
Ø§Ù„Ù…ØºØ±Ø¨ÙŠ
Ù‚Ø§ØªÙ„
##Ø¨Ø§Ø¡
Ù‡ÙŠØ¦
Ø§Ù„Ù…Ø§Ù„ÙŠ
ÙŠÙˆÙÙ‚
Ø§Ù„Ù…ØºØ§Ø±Ø¨
ÙŠÙ‡Ù…Ùƒ
Ø§Ù„ØµØ§Ø¯Ù‚
ØªÙ‚Ø¯Ø±
##ØªØ§Ù†
Ø£ÙŠÙ‡Ø§
Ø­Ø±Ù…
ÙˆØªØ­ÙŠØ§
Ø§Ø¨Ø¯
ØªØ§
##Ù‚ÙˆØ§Ù†ÙŠÙ†
ØºÙ†
Ø¬Ø²Ø§ÙŠØ±ÙŠ
ØªØ±ÙƒÙŠ
ÙŠÙÙ‡Ù…Ùˆ
Ø±Ø²Ù‚
##ÙƒØ§Ù„Ø¹Ø§Ø¯
Ù…ÙŠØª
ÙƒÙˆ
Ø®ÙˆÙ„
Ø´Ù†
##Ø¯Ø§Ø±
##Ø®Ø¯Ù…
##Ù„ÙˆÙ†
##Ù€Ù€Ù€Ù€
Ø§Ù„Ø®Ù…
Ø§Ù„ØªÙ…ÙˆÙŠÙ„
##Ø¹ØµØ§Ø¨Ø§Øª
##Ø¨Ø«
##Ù…Ø´Ø§Ø¹Ø±
Ø¸Ù„Ù…
ÙØ§Ø´
Ù…Ø´Ø§Ø±ÙŠØ¹
Ù„Ø£
ÙÙ„ÙˆØ³Ùˆ
##Ù‚Ø±Ø¨
Ø¬Ø¨Ø±ÙŠ
Ø¬Ø³Ù…
##Ø¹Ù‚ÙˆÙ„
Ø§Ù„ÙˆØµÙ
##Ø§Ø¹Ø§Øª
##Ø®ØªØ§Ø±
Ø§Ù„Ù‚Ø¯
Ù‚Ø§Ù„Ù‡Ø§
Ø§Ø­Ù„Ø§Ù…
##Ø§Ø¹Ù…Ø§Ù„
Ø®Ø§
Ù…Ø¯ÙŠØ±
##Ù…Ø¯
ÙˆØ¬Ø¨
##Ù‚ÙˆØ§
Ø§Ù„Ø¯Ø§Ø±
##Ø¹Ù†ÙˆØ§Ù†
##ÙŠØ¶Ø§
ÙŠÙƒØªØ¨
##Ø±Ù†Ø§
ÙˆØ¨Ø§Ù„
##Ø§Ù…ÙˆØ§Ù„
Ø¹Ø§ÙˆØ¯
ÙˆØ±Ù‚
Ø¨Ø§Ø¬
##Ø¯Ù„ÙŠÙ„
Ù…Ø¨Ø±ÙˆÙˆÙˆÙˆÙˆ
ØªØªØ­Ø¯Ø«
##Ù…Ù‡
Ø£ØµÙ„
ÙŠØºÙ†ÙŠ
ÙˆØ®Ù„ÙŠ
Ø¬Ø¹Ù„
Ø§Ù„ÙˆØ³Ø·
Ø§Ù„Ø¨Ø±Ø§
Ø£Ø­Ø¨
Ø³ÙÙŠ
##Ù‰Ø¡
ÙˆØ²
Ø§Ù„Ø¶Ø­Ùƒ
Ø°Ø§
ØµØ­Ø§
ÙÙ„Ù†
##ÙŠÙƒÙˆÙ†
##Ø£Ù…ÙˆØ§Ù„
Ø¥Ù†Ùˆ
##9
Ø³ÙŠÙƒÙˆ
ØªØ®
Ø§Ù„ØµÙØ±
Ù‚Ø¯Ù…Øª
Ø­Ø±Ù‚
Ø§Ù„Ø¶Ùˆ
Ù†ØµØ­Ø­
##Ù…Ø¨Ø¹Ø¯
Ù†Ù‚ÙˆÙ„Ùƒ
##Ø³ÙŠØ·Ø±
##Ù…ÙˆØª
ÙØªØ±
Ø´Ù
Ø¨Ø¯Ù„
ØªØ¹Ø¯ÙŠ
Ù‚Ø§Ø¨Ù„
##Ø·Ùˆ
ÙˆØ³Ù„Ø§Ù…
ÙŠÙ‚Ø¹
Ù…Ø±Ø¨ÙˆØ­
ÙŠØ¬Ø¹Ù„
Ù…Ø¨Ø§Ø´Ø±
##Ø¬Ø§Ø¨Ùˆ
##Ø§Ø¦Ù‚
##Ø¸Ù‡Ø±
Ø§Ù„Ø¨Ø§Ø·Ù„
Ù…Ø§Ø¡
##Ø®ÙˆØ§Ù†Ø¬ÙŠ
Ø§Ù„ÙˆØµÙˆÙ„
ØªÙ…Ù†ÙŠØª
Ø§Ù„Ù…Ø¨Ø§Ø±
Ø§Ù„Ù…Ø°ÙŠØ¹
Ø§Ù„ØªØ£Ø³ÙŠØ³
ÙŠÙˆØªÙŠÙˆØ¨Ø±
Ø§Ù„Ù…Ø±ÙŠØ¶
Ù…ÙˆØ§Ù‚Ù
Ø§Ù„Ø¬Ù†Ø³ÙŠ
Ù…ØªØ£ÙƒØ¯
##ÙÙ„
Ø§Ù„Ø±Ø³Ù…ÙŠ
Ø§Ù„Ù…Ø¯Ø±Ø¨
Ø§Ù„Ø¯ÙƒØªÙˆØ±
Ù‚Ù„Ùƒ
Ø¨Ù‚Ù†Ø§Øª
ØªØµÙŠØ±
Ø§Ù„Ø®Ù„Ù‚
##4
Ù…ÙŠØ¨ÙˆÙ†
##Ø§Ù„Ù†Ø§Ø¯ÙŠ
##Ø¹Ø¯Ù…
Ø§Ù„Ø³Ù
##ØµØ¯Ø±
Ù„Ù„Ø§
ÙŠØ¯ÙØ¹
Ø§Ù„ÙˆØ³Ø®
Ù†ÙˆØµÙ„
Ù‡Ø§Ø±Ø¨
Ø¯ÙŠÙ…Ù‚Ø±Ø§Ø·ÙŠ
Ø¬Ù†ÙˆØ¨
Ø§Ù…ÙˆØ±
Ø³Ù…ÙŠÙ†
##ØµÙŠÙ„Ùˆ
##Ø­ÙŠØ©
Ø¯Ø§Ù…
ØµØ§Ø¨Ø±
Ù†Ø¯Ø®Ù„
Ø§ÙŠØ¶Ø§
##ØºØ±ÙŠØ¨
ÙˆØ®ÙŠ
Ø´Ù…Ø§Øª
Ø§Ù…Ø´ÙŠ
##ØªØ´ÙˆÙŠÙ‡
##Ø¨ÙˆØ±
ÙŠØ¶Ø±Ø¨
ÙÙƒØ±
ØªÙ‚Ù„ÙŠ
Ù…Ø±Ù‡
Ø§Ù„Ø­ÙŠ
Ù†Ø´Ø±
Ø§Ø¹Ù…Ù„Ùˆ
ØªØºÙŠØ±
Ù…ÙˆØ³ÙŠÙ‚
Ù…Ø¹Ù‡
ÙØ±ÙŠØ¯
ÙŠØ³Ø§Ù†Ø¯
##Ù„ÙŠÙƒÙ…
ÙˆØ§Ù„Ø¹Ù…Ù„
##Ø´ÙƒÙˆÙ†
ÙˆØ§Ù„Ø¹Ø¨Ø§Ø¯
Ø´Ø±Ø¹
Ø§Ø­Ø¨Ø§Ø¡
Ø±Ø¶Ø§
##Ù‚ØµØ¯
Ø¨Ø­Ù‚
Ø³Ù†ÙŠ
Ø¨Ø§Ø±Ø´Ø§
Ù„ÙŠØ¨ÙŠ
ÙŠÙ‚Ø¹Ø¯
Ù…Ù…Ø§
##Ø¨Ø§Ù†
ÙˆØ£Ù†Ø§
Ù…Ø§Ù‡Ø±
ÙŠØ§Ø±ÙŠØª
ÙˆØ¥
Ø§Ù„Ø´ÙŠØ·Ø§Ù†
ÙŠØ¹Ø·ÙŠÙ‡
Ø¨Ù†ØªÙŠ
Ù„Ù„Ø£Ø³
Ø®Ø·Ø±
Ù†ØªÙŠØ¬
Ø·ÙŠØ§Ø±
Ø§Ø¨Ø¯Ø§Ø¹
Ø³Ù‚Ø·
Ø§Ù„ÙˆØ§Ø¯
##Ù†Ø­Ø¨Ùƒ
##Ø¯ÙŠØ¯
##Ø£Ù†
Ø¢Ù…
Ù„Ø§Ø¹Ø¨ÙŠÙ†
##Ù‚Ø±Ø§Ø¡
##Ø­ØµØ©
Ø§Ø¹
Ø®ÙˆÙ†
Ø¨ÙˆÙ‡
Ø­Ø¨Ø³
ØªÙ„Ù‚Ø§Ù‡
Ø£Ù…Ù„
Ù†ÙƒØª
Ø§Ù
Ù‚Ù„Ø¨Ù‡
##ØµÙˆØª
Ø±Ø¦Ø§Ø³
Ù„Ø¨
ØªØ¹Ø¨Øª
##Ø±ÙØ¹
Ù…Ø­Ø§ÙˆÙ„
##Ø°ÙŠÙ†
Ø¯Ø®Ù„Ùˆ
Ø§Ø¹Ø·ÙŠÙ†
##Ø¯Ùƒ
Ø£Ù„ÙƒØ³
ÙŠÙ‡ÙˆØ¯
Ù†Ø¹ÙŠÙ…
##ÙˆØ¹
Ù„Ø­Ù†
Ø¨Ù„Øº
Ø¨Ø´Ø±
Ø§Ù„ØµÙˆØ±
##ÙˆØ¬
Ù…Ù„Ø§Ø¹Ø¨ÙŠØ©
Ø¸
##Ø±Ø¶
Ù†Ø­ØªØ±Ù…
Ø·Ø±Ø­
##Ø³Ù…
ÙŠØ¨Ø§Ù†
##Ø§Ø­Ø³Ø§Ø³
Ø¶Ø±
##Ø¹Ø±Ù
ØºÙ†Ø§
Ø§Ù„Ø£ØµÙ„
##Ù‡Ø¯Ù
Ø³ØªÙŠÙ„
Ø­Ø·Ùˆ
Ø§Ø¹Ù…Ø§Ù„
Ø§Ù„Ø³ÙŠØ§Ø­
Ù…Ø¹Ù†Ø¯Ùˆ
##Ø£Ù…ÙˆØ±
ÙˆÙ…Ø²Ø§Ù„
##ÙˆÙˆÙˆÙˆÙˆÙˆÙˆÙˆÙˆÙˆÙˆÙˆÙˆÙˆÙˆÙˆ
ØªØ³Øª
##Ù‚Ù„
ØµØ¯Ù‚Ù†
ØªÙÙˆÙˆÙˆ
ÙˆØ±Ø§Ùƒ
Ø­Ø¨ÙŠØªÙˆ
Ø£ÙˆÙ„Ø§
Ù…Ø¹Ù†Ø§
Ø§Ù„ÙƒÙ
##Ù…Ø§Ø´
ØªØ®Ø¯Ù…Ùˆ
Ø¨Ù„Ø§Ù‡
##Ø±Ø£ÙŠ
Ø­ÙŠØ§ØªÙ‡
Ø£Ù…ÙˆØ±
##Ø¹ÙˆØ¯
ÙˆØ¬Ù„
Ù„Ø­Ù…
ØªØµÙˆØ±
ÙˆÙÙ‚Ùƒ
Ø§Ù„Ø­Ø§
##Ø§Ù„Ù
Ø§Ù„Ø´Ø±Ø¹ÙŠ
Ø³ÙˆØ³
Ù†Ø¹Ù„
##Ù‚Ø¨Ù„
##ÙˆÙ„Ùƒ
ØµØ­ÙÙŠ
##Ø´Ù
##Ø¨Ø§Ø±
Ø¬Ø¨Øª
Ø²ÙˆØ§Ø¬
##Ø³Ø±
##ÙˆÙ†Ø³
##Ù‡ÙˆÙ„Ùƒ
Ù„ÙŠØ§
##ÙƒÙ„Ù†Ø§
Ù„Ø¨Ø³Øª
Ù…Ø­ØªØ±Ù
Ø§Ù„Ø¯Ùˆ
##ÙÙŠØ©
##Ø³Ø¬Ù†
##Ø±Ù
Ø´Ø¹Ø¨Ù‡Ø§
##Ù†ÙˆØ§
Ø§Ù„Ù†ÙØ³
Ø§Ø¯
Ø§Ù„Ù…Ù„Ø§Ø¹Ø¨ÙŠ
ØªØ´Ø¯
Ù‚Ø±
Ù„Ø¨Ù†Ø§Ù†
ÙØ®Ø±
Ø§Ù„Ù…Ø±Ø§Ù‡
##Ø¨Ø§Ø±Ùƒ
##Ø´Ø®Ø§Øµ
Ù‡Ø§Ø°Ùˆ
##Ù†Ù‡Ù…
##ÙƒØªØ±
##Ø¹Ùˆ
ÙŠØ·Ù„Ù‚
##Ø³ØªØ·ÙŠØ¹
ÙƒÙˆØ³ØªÙŠÙ…
##ÙŠÙ†Ø©
ØªØ§ÙƒÙ„
Ù…Ø¤Ø«Ø±
ÙƒÙŠÙ„Ùˆ
Ù„ÙƒØ­Ù„
Ø§Ù„Ø¬Ù…Ø§Ù‡ÙŠØ±
ØªØ³ÙŠÙŠØ±
Ø§Ù„Ø´Ø±ÙŠÙ
Ø§Ù„Ø¨ÙŠØ¶
##ÙØ§
Ø§Ù„ØªØ§Ø³Ø¹
ØªÙ†ÙØ¹
Ù…Ø­Ø³ÙˆØ¨
Ø§Ù†ØªØ¯Ø§Ø¨
Ø´Ø±Ø§
Ø§Ù„Ø§Ø±Ø¶
##ØªÙˆØ§ØµÙ„
Ø¨ØµÙˆØª
ØªÙ‡
ÙƒØªØ¨Øª
##Ù†ÙƒÙ…
Ø§Ù„ØªÙ…Ø«ÙŠÙ„
Ø§Ù„Ù…Ø³Ø§Ø¹Ø¯
Ø§Ù„Ø¨Ù‡ÙŠÙ…
##Ù„Ù‚ÙŠØ³
##Ø¨Ù†ÙŠ
ØªØ¹Ø§ÙˆÙ†
Ø£Ù‡Ù…
Ø¨ØµÙŠØ·Ùˆ
##Ø¶Ø§Ø¹
Ø§Ø³ØªØ§Ø°
Ø³Ø±Ø§Ø­
ÙˆØ§Ù„Ø­Ù…Ø¯
ÙŠØ¹ÙŠÙ†Ùƒ
ØªÙ…Ø³
Ø­Ø¯ÙŠØ«
##Ù‚ØµØ±ÙŠÙ†
##Ù„ÙÙ„ÙˆØ³
Ø§Ù„ØµØ¹Ø¨
Ø¹Ø¬Ø²
##Ù…ÙˆÙ‚Ù
ÙŠÙ‡Ù…
Ú¨
ÙˆØ¥Ù„
Ù…Ø±ØªØ²Ù‚
ØªØ±Ù…
ÙÙˆØ²ÙŠ
Ø¯Ø®Ù„Ùƒ
ØªÙ‚Ø±ÙŠØ¨
Ù…Ø¶Ø­Ùƒ
Ø§Ù„Ø±Ø§Ø¨Ø·
Ù…Ø²Ø¨Ù„
Ø³Ù‡Ù„
Ù…Ø­Ø§Ø³Ø¨
##Ø§ØªÙˆ
Ø§Ù„ØµØ­ÙÙŠ
##ÙˆÙˆ
##Ø´ÙˆØ§Ø±
ÙƒÙ‡Ùˆ
##ØªØ®Ù„Øµ
ØªÙ‡ØªÙ…
Ø§Ù„Ù‚Ø§Ø¦Ù…
Ù…Ø§Ø±Ø³
Ø®ÙˆØ°
##Ø¶Ø©
Ø§Ø¨Ù†Ø§Ø¡
Ø£Ø±Ø¶
Ø¬ÙŠØ¨Ùˆ
Ø§Ù„ØªØµÙˆÙŠØ±
Ø§Ù„Ø¬Ù‡
Ù„ÙˆÙ†
Ø§Ù„Ù…Ø¬Ø±Ù…
Ø§Ù„Ø¶Ø±Ø¨
ÙƒÙØ§Ùƒ
ØªØ±Ø¨Ø­Ùƒ
ØµÙ
Ù…Ø´Ø§
Ù…Ø§ÙƒÙŠØ§Ø¬
##Ø²ÙˆÙ†
Ø®ÙˆÙ
Ø¹ÙˆÙ†Ùƒ
##ÙÙ‰
Ø¯Ù…ÙˆØ¹
ØµÙ†Ø¹
Ø¨Ø­Ø§Ø¬
##Ø²Ø§
ÙˆØ¥Ù†Øª
##Ù‚Øµ
##ÙÙˆ
Ø¨Ù„Ø§Ø¯Ù‡
##Ø´Ø±Ø§Ø¡
Ù…Ù†Ø¸Ù…
##ÙØªØ§Ø­
Ø§Ù„Ù…Ø¯
##Ø§ÙƒÙ…
ØªÙƒ
Ù„Ù„Ø£
Ø®Ù„Ùˆ
##Ù†ÙŠØ´
ÙŠØµØ¨Ø±
Ø£Ø®ØªÙŠ
Ù…Ø§Ù…Ø§
Ø±Ø§Ø¯ÙŠ
##Ø±ÙˆØ­
ÙƒÙˆØ±ÙŠ
Ø§Ø´ØªØ±ÙƒÙˆ
Ù‚Ø±Ø§
Ø§Ù„Ø·Ø¨Ù‚
##Ø±ÙˆØ­Ùƒ
Ø§Ù„Ø¨Ù†Ùƒ
Ø§Ù…ÙŠØ±
ÙØ±Ù†
ÙŠØ®Ø±Ø¬Ùˆ
ØµØ­ÙŠ
ÙˆÙ‚
##Ø²ÙŠÙ†
##Ø¨Ø§Ù„ÙŠ
Ù„Ø³Ù„ÙŠÙ…
Ø£Ø±Ø¬Ùˆ
##ØªÙ‚Ø¯Ù…
Ù…Ø§Ù„Ùƒ
##Ø³Ùˆ
##Ù€Ù€Ù€Ù€Ù€Ù€
ÙŠØ³ÙŠØ±
##Ø¨Ø·Ø§Ù„
Ø¹Ø¬Ø¨Ùˆ
##ÙˆÙ„Ù‡Ø§
##ÙØ±ÙˆØ¹
Ù‚Ù…Ø±
Ù…Ù…ÙˆÙ„
ÙŠØ­Ù…ÙŠÙ‡
##Ø¹Ù…
Ø§Ù„Ù…Ø¯Ù†ÙŠ
ØªØ±Ø¬ÙŠ
##Ù‡Ø¤Ù„Ø§Ø¡
##Ø±Ø¬Ù„
##Ù†Ø§Ùƒ
Ù„Ù‚Ù†Ø§Øª
##Ø¨Ø¯
ÙŠØ±Ø¯
##Ù„Ø¨Ø±Ù†Ø§Ù…Ø¬
ÙŠÙ‚Ù„
##Ù…Ù†Ø§
ØªØ±Ø¯
ÙˆØ­Ø¯Ùˆ
##Ø­Øµ
ÙˆØªÙˆ
##Ø±Ø§Ùƒ
Ø§Ø¯Ø¹Ùˆ
##Ø¯ÙˆÙ†
ØªØ¹Ø¯
Ù„Ù‚ÙŠØª
##Ø¹Ø±Ø¶
##Ù…Ø·Ù„ÙˆØ¨
ÙŠÙ…
Ø£Ø³Ø·ÙˆØ±
ÙÙ„ÙŠ
Ù‚ØµØ¯
##Ø§ÙƒØ«Ø±
##Ø¹Ù‡
Ø®Ø±ÙˆØ¬
##Ù…Ø§ÙƒØ±ÙˆÙ†
ÙŠÙ‚
##Ù†Ø­Ù†
ÙƒØ±Ø³ÙŠ
##Ù†Ø²Ù„
##Ø¬Ù…Ø§Ø¹
##Ø¶Ø¹Ù
##ÙˆØ§Ø­ÙƒÙ…
Ø§Ù„Ø°ÙƒØ±
ØªØ¨ÙŠØ¹
Ø­Ø¯Ø«
Ù‡Ù‡Ù‡Ù‡Ù‡Ù‡Ù‡Ù‡Ù‡Ù‡Ù‡Ù‡Ù‡Ù‡Ù‡
Ù†Ø¬ÙŠ
Ù…Ø§ØªØ´
##ÙØ±ÙŠÙ‚
##Ø±Ø¦ÙŠØ³
Ø§ØªÙ‚Ùˆ
Ø±Ø¨Ø­Øª
##ØµÙˆÙ„
Ù†Ùˆ
ÙŠØ¯ÙŠÙƒ
Ø®Ù„ÙŠÙ„
##Ø¨Ø´
Ù†Ø§Ù†ÙŠ
##Ø¨ÙŠØ¨ÙŠ
Ø£Ø®
ÙƒØ§Ø±
Ø´Ø¨ÙŠÙ‡
##ØªÙ‚Ø¯ÙŠØ±
ÙŠÙƒÙˆÙ†Ùˆ
##Ø¯Ù‚ÙŠÙ‚Ø©
Ø§Ù„Ø·Ø­Ø§Ù†
Ù†Ø±
Ù‡Ø§Øª
##ÙˆØ¬ÙˆÙ‡
Ù„ØºÙ†ÙŠ
##Ø¬Ø±
Ù†Ø§Ø¬
Ø§Ø­ØªØ±Ù…
Ù‚ØªÙ„Ùˆ
Ø§Ù„Ø·Ø­Ø§Ù†Ø©
##Ø§Ø¬ÙŠ
Ø¯Ø±
Ø´Ø§Ù‡Ø¯
Ø§Ù„Ù†Ø¨ÙŠ
ÙŠÙƒØ±Ù‡
Ø³Ù„ÙˆÙ…
ÙŠÙ‡Ø¨Ù„
##Ø¹Ù„Ø§Ù‡
##Ø³Ù†
##Ù‡ÙŠØ´
Ø­ØµØ©
ÙŠØ³Ø¹
Ù†ÙØ§Ù‚
Ø§Ù‡Ø¯Ø§Ù
Ø§Ø´Ù‡Ø§Ø±
ÙŠÙˆ
ØªØ³Ø¨
ÙˆØ§Ù„Ù
##Ù…Ø§Ù†
Ø§Ù†ØªÙ‡
##Ø£ÙƒØ¨Ø±
##Ø¯ÙˆØ§
Ø­Ø³Ø§Ø¨ÙŠ
##ÙŠØªÙŠ
##Ø±Ø®Ø³
ØªØ³Ø±Ù‚
Ø§Ù„Ø£Ù…Ù†ÙŠ
ÙŠØ±ÙˆØ­
Ø§Ù„Ù…Ø«Ù„
##Ø¹ÙˆÙ†
Ù‚Ù„ÙŠ
ÙŠØµØ·Ø§Ø¯
Ø§Ø³ØªØºÙØ±
Ø§Ù†ØªØ®Ø§Ø¨ÙŠ
ÙˆØ§Ù„Ù…ØºØ±Ø¨
##Ø¯Ø¹Ø§Ø±Ø©
Ø¨Ø­Ø±
##Ù„Ù‚Ø§Ø¡
Ø§Ù†Ù†Ø§
Ø±ÙŠØ¬ÙŠÙ…
ØªØ§Ø¹Ùƒ
Ø¨Ø§Ù„Ø´
ÙŠØ¯Ø²
Ø¨Ø§Ù„ØµØ­
Ø±Ø¨Ø¹
ÙŠØ³ØªØ·ÙŠØ¹
ÙŠØ´ØªØ±Ùƒ
ÙŠØ­Ø¯Ø«
Ù‡Ø§Ø¨Ø·
##ØªØ­Ù‚Ù‚
Ø³ØªÙƒÙˆÙ†
Ø§Ù„Ø­Ø¯ÙˆØ¯
ØªØ­ØªØ±Ù…
Ø¯ÙŠÙ‚
##Ø§Ù†Øª
##ØªÙ„Ø¨Ø³
Ø§Ø¬Ù†Ø¨ÙŠ
##Ù…Ø³Ø§Ø¨Ù‚
Ø§Ù„Ø¨ÙŠØª
Ø§Ù„Ù…Ù…Ø«Ù„
Ø§Ø´Ø±Ù
ØªØ¯Ø¹ÙŠ
Ø§Ù„Ù‚Ø·Ø§Ø¹
Ø§Ø³Ø±Ø§Ø¦ÙŠÙ„
Ø§Ù„Ù…Ø·Ø±
Ù†Ù‚Ø§Ø·
ÙˆØ¹Ø¯
Ø§Ù„Ù…Ø¤Ø³Ø³
Ù…ÙÙ…Ø§
Ø®Ø·ÙŠØ±
Ø§Ù„ÙÙŠØ³Ø¨ÙˆÙƒ
Ù…Ø·Ù„Ø¨
Ø±Ù…Ø²
ØªØ­Ø±Ùƒ
ÙØ¶ÙŠØ­
ÙŠØ­Ø§ÙˆÙ„
Ø§Ø³ØªØ±
##ÙØ§Ø´
Ø§Ù„Ø¬Ù‡Ù„
Ø®Ø§Ù„ÙŠ
Ù„Ø­ÙƒØ§ÙŠ
Ø§Ù„ÙˆØ¹ÙˆØ¯
Ø§Ù„ÙØ¯ÙŠÙˆ
##Ø¨Ù„Ø§Ø¯
Ø§Ù„Ù†Ù‡Ø§ÙŠ
Ø§Ù„Ø®ÙˆÙ†
Ø§Ù„Ø®Ø¨Ø±
Ø·Ù…Ø¹
Ø®Ø³Ø±
##Ù‚ÙŠØª
ÙˆØ§Ù‚Ù
Ù…Ù‡
Ù…Ø²Ù„Øª
Ø³ÙˆØ§Ø¡
Ø§Ø±ÙˆØ§Ø­
##Ù…Ùƒ
ÙŠØ¯ÙˆÙ…
Ù„Ø±Ø¦ÙŠØ³
Ø­Ù†ÙŠÙ†
ØªÙˆØ²
Ø¯Ø²
ÙŠÙ…ÙˆÙ„
Ø§Ù„ÙÙ‚ÙŠØ±
ÙÙŠØ¯ÙŠÙˆØ§Øª
##ÙˆÙƒÙŠ
Ø£Ù„ÙŠ
Ø¬Ø¹Ù„Øª
ÙˆØ§Ù„Ø¯ÙŠÙ†
Ø§Ù„Ø´Ø±Ø·
Ø¨Ù„Ø§Øµ
Ø§Ù„ÙØ§
Ø®ÙˆØªÙŠ
Ø§Ù„ÙƒÙˆ
ÙˆØµÙ„Ùˆ
##Ù…Ø§Ù…
Ù„ÙŠÙ„ÙŠ
Ø¹ÙŠÙˆÙ†
##Ù„Ù„Ø®Ø±
Ù„Ø§ÙŠ
Ø¹Ø¯ÙŠØ¯
Ø§Ù„Ù…Ù‚Ø¯Ù…
##Ù‚Ù„Ø¨
ÙŠØ¬ÙŠØ¨Ùˆ
Ø«ÙŠÙ‚
##Ø¹Ø´Ù‚
Ù…Ø§ÙÙ…Ø§
Ø¹Ø§ÙŠÙ„
Ø§Ù„Ø­ÙŠØ·
ØµØ¨Ø±
Ø­Ù‚ÙŠÙ‚
##Ø³ÙŠØ§Ø±Ø§Øª
Ø¨Ø¯Ø£
Ù…Ø³Ø¤ÙˆÙ„ÙŠ
ØªÙ‚Ø¯ÙŠÙ…
##Ù‡ÙŠØ±
Ù…Ø³ÙŠØ¨
Ù„Ø³Ù†
Ø³Ù…Ø­Øª
##Ø³Ø¨Ø§Ø¨
Ø°ÙƒÙŠ
ØªØ­Ø¯Ø«
##Ù‡Ø±
##ÙƒÙ„Ù‡Ø§
##ÙÙ‚
Ø³Ù…Ø§Ø±
Ø§Ù„Ø§Ø³
Ù„Ù‡Ø¬
Ø­Ø¬Ø±
##Ù„Ø¹ÙŠØ¯
Ø§Ù„ØªÙ‚Ø¯Ù…
Ø°Ø±
##Ø³Ø§Ø¡
##Ø¹ÙŠØ©
Ø¨Ø±Ø¬Ø§Ù„
Ù†Ø´ÙƒØ±
ØªÙƒÙ†
Ø·Ø§Ø±
##ØµÙˆØ±
Ø£ÙŠØ§Ù…
Ù…Ø¬Ø§Ù„
ØªØ­Ù‚Ù‚
##ÙˆØ±ÙŠ
ÙÛŒ
Ù†Ù‚ØµØª
Ø§Ù„Ø¨Ù†
Ø§Ù„Ø­Ù„Ùˆ
Ø§Ù„Ø³Ù„Ø¨ÙŠ
Ù†Ø³ØªÙ†Ø§
Ø§Ù„Ø¹ÙŠØ´
Ø¹Ø¯Ùˆ
##Ø­Ø´
##ÙˆØ¡
Ù†Ø¨
##Ù…ÙƒÙ†
Ø§Ù„Ø§ØºÙ†ÙŠÙ‡
Ù†Ø³Ø¨
Ø§Ù„Ø±ÙŠØ­
Ø­Ø²Ø¨Ùƒ
ÙŠØ³ØªØ§Ù‡Ù„
Ø¹Ø§ÙŠÙ„Øª
Ø¬Ø²Ø§ÙŠØ±
400
Ø­Ø¬
Ø§Ù†ÙØ³
ÙŠØ´Ø¨Ù‡
Ø³Ø­Ø±
ÙˆØºÙŠØ±Ù‡
##Ø«Ø±
ØªÙØ±Ø­
Ù…Ø¬Ø¯
##ÙŠÙ†Ù‡Ø§
Ø¨Ù‚ÙŠØª
##ÙŠØ¨ÙŠ
Ø¨ØºØ¶
##ÙØª
Ø¬Ø¨Ù„
Ø¯ÙŠØ±Ùˆ
Ø¹Ù…Ù„ØªÙ‡Ø§
##Ø­Ù‚
Ø§Ù‡Ù…
Ø®ØµÙˆØµ
Ù…Ø·Ø§Ù„Ø¨
ÙÙ‚Ø±Ø§Ø¡
##Ø¬Ø¨
##Ø¨Ø³
##Ù†Ø¨Ø­
Ø­Ù‚Ùˆ
Ø¥Ø¹Ù„Ø§Ù…
Ù…Ø¯Ø±Ø³
Ø¹Ù…ÙŠ
Ø­Ù‚Ø§
Ø³ÙŠØ¯Ùƒ
ÙŠØ­ÙŠØ§
Ø®Ø·Ø§Ø¨
##ØªØ¶Ø§Ù…Ù†
Ø³Ø§Ù„Ù…
ÙƒØ°Ø§
24
Ø­Ù‚ÙŠØ±
Ø¯Ø¹Ø§
##Ø®Ø·Ø·
##Ø·Ø¨
Ù…Ø³ØªÙ‚Ù„
##ÙŠØ§Ø­ÙŠ
Ù„Ù„Ø­
Ø­Ø¸
##Ø²Ø¨ÙŠ
##Ù†ØªØ¸Ø±
ØªØ±Ø¬Ù…
ÙˆÙ†Ø§Ø³
##Ù„Ø¯
Ø§Ø¯Ø§Ø±
##Ø£Ø³Ø§Ø³
Ø£Ø®Øª
Ù‚ØªÙ„Ùƒ
Ø§Ø­ÙƒÙŠÙ„
##Ø§ØªÙƒÙ…
Ø±Ø³Ù…ÙŠ
##Ù‡Ø§Ø¯
ÙˆØ¹Ù†
Ø§Ù„Ø¹Ø±Ø§Ù‚ÙŠ
##Ø£Ø³Ø¨Ø§Ø¨
Ø¨Ø±Ø¬
ØªÙ‚Ù„
Ø·Ø§Ù„
Ø§Ø®Ù„Ø§Ù‚
##Ø¹ØµØ¨
##Ù†ÙˆØ§Øª
Ø§Ù„Ù…Ø§Ø¯ÙŠ
Ù†ÙˆØ¨
##Ø²Ø¹ÙŠÙ…
Ù†Ø³Ù…Ø¹Ùˆ
##Ù‚Ø¯Ø±
ÙˆØªÙˆØ§
Ø§Ù„ØªØ±
Ø­Ù…Ø§
Ø¨Ø¹Ø«
Ø¹Ù…Ø±Ù‡
Ø¬Ø¨ØªÙˆ
Ø¹ÙƒØ³
ÙÙ‚Ø±
ØªØ±ÙˆØ­
Ù…Ø¹Ø§Ø¯
##ÙˆØ§Ù‚Ø¹
ØªØ²
Ø§Ù„Ø±Ø§ÙŠ
ÙŠÙ†ØªØ®Ø¨
ÙƒÙ†ØªÙ…
ÙƒØ§Ø´
ØªÙˆØ±ÙŠ
Ø§Ù„ØªØ¹Ø¨ÙŠØ±
Ø§Ù„Ø¥Ù…Ø§Ø±Ø§Øª
##ÙØ³Ù‚
Ø§Ù„ÙƒØ§Ø°Ø¨
Ø¹Ø§Ø¬Ø¨
ÙŠØ¹ÙŠØ´Ùˆ
##Ø±ÙŠÙ‚
ÙØ­Ù„
Ù…Ø«Ù‚Ù
Ø¨Ø§Ù„Ø£
ÙŠØºÙŠØ±
Ø§Ù„Ø¹Ø§Ù‡Ø±
ÙˆØ¹ÙˆØ¯
ØµØ­ÙŠØª
Ø¥Ù…Ø§
Ø¬ÙˆØ§Ù†
ÙˆØ§Ù„Ù†Ø¬Ø§Ø­
##ÙØ³ÙØ§Ø·
ÙÙ„Ù…
##ÙŠØ¬
Ù…Ø±ØªØ§Ø­
Ø§Ù„Ø¨ÙˆØ²
Ù…Ù„Ù
Ø§Ù„ÙƒÙˆØ±ÙˆÙ†Ø§
ÙØ§Ù„Ø­
Ø§Ù„Ù…Ù†Ù‡ÙˆØ¨
Ù…Ù„Ø§Ø­
Ø§Ù„Ù…ØµØ§Ù„Ø­
Ø³Ø§Ù†ÙØ§Ø±
Ø§Ù„ØªØ´ØºÙŠÙ„
Ø§Ù„Ù…Ø§ÙÙŠØ§
Ø§Ù„Ø¯ÙŠØ§Ø«
Ø§Ù„Ù…Ø§Ø³Ùƒ
Ù…Ø±Ø²ÙˆÙ‚
Ø§Ø®ØªÙŠØ§Ø±
##Ù„Ø¨
Ø§Ù„Ø¯Ø³ØªÙˆØ±
Ù…ÙƒØ´ÙˆÙ
Ø§Ù„Ù…Ù‚Ø§Ø¨Ù„
ÙØ±Ù†Ø³Ø§ÙˆÙŠ
##Ø­ÙŠÙ†
Ø´Ø¨ÙŠ
ÙƒÙ„Ø§Ù…Ù‡
Ø§Ù„ØªØ±Ø´ÙŠ
Ø±ÙˆØªÙŠÙ†
Ù‚ÙˆÙ„ÙŠ
ÙØ±ÙˆØ®
Ø§Ù„Ù‚ÙŠØ±ÙˆØ§Ù†
Ø­Ø§Ù…Ù„
Ø²Ø¯Øª
Ø§Ù„Ù…Ø³Ø®
ØµÙ„Ø­
Ø§Ù„Ø¹Ø¨ÙŠØ¯
Ù†Ù
Ø§Ø³Ù…Ø¹
##Ø§ØµÙˆØ§Øª
ÙˆÙ„Ø§Ø²Ù…
##Ø§Ø­Ø³Ù†
ÙˆÙ„Ø§Ù‚Ùˆ
##ÙŠÙŠÙŠÙŠ
##Ø§Ù„Ù‚Ø§Ø¨
Ø¨Ù†Ø§
Ù…Ø¯Ù†ÙŠ
ØªÙ‚ÙˆÙ„ÙŠ
Ø§Ù„ØµØ¨Ø§Ø­
##ÙÙŠÙ‡
Ù„Ø­Ø²Ø¨
##Ù…Ø³Ù„Ø³Ù„
Ù†Ø§Ù‚ÙÙˆ
Ù„ÙƒÙ„Ø§Ù…
Ù†Ø·Ù„Ø¨
Ù„Ø­Ù‚
Ø§Ù„ÙŠÙˆØªÙŠÙˆØ¨
##Ù„ÙŠØ´
ÙˆØ´ÙƒÙˆÙ†
##Ø±Ø²
ÙˆØ§Ø´ØªØ±Ø§Ùƒ
##Ø¯Ø±ÙˆØ³
ÙˆØ§Ù„Ø³Ø±Ù‚
Ù†Ø¬Ø­Øª
Ø§Ù„Ù…Ø¯ÙŠØ±
Ø­ÙˆÙ…
Ù…Ù‡Ø§Ø¬Ù…
Ø§Ù„ÙˆØ§Ù„ÙŠ
Ø±Ø­Ù…Ù‡
Ø§Ù„Ø³Ø§Ø­
Ù„ÙƒØ§Ù†
Ø¨Ø§Ù„ÙƒÙ…
Ø§Ù„Ø­Ø¬Ø±
ÙŠØ±Ø²Ù‚Ù†
Ø§Ø®ÙŠØ±Ø§
Ø±Ø®ÙŠØµ
ÙˆØ§Ù‚Ø¹ÙŠ
ÙŠÙ‡Ø¯ÙŠÙ‡
Ù„Ù‡Ø°
Ø§Ø³ÙˆØ¯
##Ø¯Ø±Ø³
##Ù‡Ø§Ø¡
Ø¨Ù†ÙŠ
Ø³Ø¨Ù‚
##Ø¬Ù‡
Ø²ÙŠØ§Ø¯
##Ø´Ù‡Ø¯
ØªØ­ÙƒÙˆ
Ø§Ø±Ø§Ø¯
ÙƒØ±Ø´
Ø­Ø¯ÙˆØ¯
Ù†Ø¨ÙŠ
##Ø±Ø³Ù…ÙŠ
##Ø­ÙƒÙ…
Ø¶Ø§Ø¹
Ø§Ù„Ø³Ø¨Ø³
Ù…Ø®ÙŠØ¨
ØµØ­Ø­
##Ø¨Ø¥Ø°Ù†
Ø§Ù„Ø¬Ù†
Ø§Ù„ÙˆØ¹ÙŠ
ÙŠØ¨Ø¹Ø¯
Ø®Ù„ÙŠÙ
Ø£Ù…ÙŠØ±
##Ø¯Ø¨
Ø®Ø§ÙˆØªÙ†Ø§
##ØªØ­ÙŠØ©
Ø£Ø¨Ø¯Ø§
Ø¬Ø§ÙŠØ¨
Ø®Ù
Ù…Ø¹Ù‡Ø§
ÙØ§Ø¹Ù„
Ù‡Ø±Ø¨
##ÙˆÙ„Ù‡Ù…
##ÙƒØª
Ø§ÙŠØ§Ù…
##ØµØ±
Ù„Ù‚
Ø¨Ø±Ø§Ø³
Ø§Ù„Ø¹Ù‚Ù„
Ø§Ù„Ø§Ø¬ØªÙ…Ø§Ø¹ÙŠØ©
##Ø°Ø©
Ø·Ùˆ
ØªÙ‚Ø±Ø§
Ø§Ù„ØµÙ
ØºÙˆÙ„
Ù†Ø¬ÙŠØ¨
Ø§Ù„Ø´Ø¨Ø§
Ù…Ø³ØªÙˆØ§Ù‡
ÙÙ„Ø§Ù†
##Ø¯ÙŠÙƒ
Ø¹Ø±
Ø§Ø­ÙƒÙŠ
##Ù…ÙŠÙ…
##ÙƒØ¨Ø±
##Ù‡Ø§ØªÙ‡
Ø§Ù„Ø¬Ù‡ÙˆÙŠ
##Ø¹Ø¨Ø§Ø¯
18
##Ø§Ø°
Ù„Ø³
Ù„Ù‚Ø¨
Ù†Ù‚Ø¯
Ù…Ø´Ø§Ø¹Ø±
##Ø¯ÙˆØ±
Ø§Ù„Ø±ÙˆØ­
Ø¥Ø±Ù‡Ø§Ø¨
Ø­Ù‚ÙŠ
Ù…Ø§Ø³Ùƒ
##Ø§Ù„Ø´
##Ø£Ù„Ø§ÙƒØ³ÙŠØ³
ÙˆØµÙØ§Øª
Ø¯Ù…Øª
ÙŠØ²Ùˆ
Ø§Ø­Ø²Ø§Ø¨
##Ù‡Ù…Ø§
ØªÙ‡Ø¨Ø·
Ø¹Ù†ÙˆØ§Ù†
Ø§Ù„Ø¹Ø³ÙƒØ±ÙŠ
Ø§Ù„Ù†Ø§
ØªØ³ØªØ§Ù‡Ù„ÙŠ
ØªÙØ±Ø¬Øª
Ù…ØµØ§Ù„Ø­Ù‡
##Ø±Ø«
Ø­ÙƒØ§
Ø§Ø­Ø³Ù†Øª
Ù…Ø§ÙŠØ§
Ø§Ù…Ø«Ø§Ù„
##ØµÙŠØ±
Ù…Ø¹Ù…Ø±
##Ø¨Ø¯Ø§Ø¹
##Ø¬Ø§Ù†ÙŠ
##ØµØ­Ù‰
Ø§Ø­Ø³
Ø§Ø¯Ø§
Ø§Ø¹Ù…Ù„ÙŠ
##Ø±Ø§Ø³
##Ø­Ø±Ø§Ø±
Ø§Ù„Ø£Ø®Ø±
Ø§Ù„Ø±Ø®
Ù…Ø³ØªÙˆØ§Ùƒ
Ù†Ø®Ø±Ø¬
Ø­Ø§Ø±
##Ø¯ÙŠØ©
ØµØ¯Ø±
Ø£Ø±
ÙˆØ§Ù„Ø­
Ø¨Ø¬Ø§
Ø¶Ù„
##ØªØºÙ„Ø·
Ø§Ù„Ø£Ù†
Ø¨Ø¹ÙŠÙ†
Ù…ÙˆØ³Ù…
##Ø¥Ù„Ø§
Ø§ÙŠÙ‡Ø§
Ø§Ù„Ø£Ø®Ù„Ø§Ù‚
ØºØ§Ø¯
ÙŠÙ‡Ø²Ùƒ
ØªØ´Ø±ÙŠ
Ù„Ø§Ù„Ø§
ØªØ¹Ø¬Ø¨
Ù…Ø§Ø±Ùƒ
ÙˆÙ†Øµ
##ÙƒØ±ÙŠ
ÙŠØ´Ùƒ
Ø¨Ø§Ø³
##Ø£Ø¹Ø¯Ø§Ø¡
ÙˆØ±Ø¦ÙŠØ³
##Ø´Ø¹Ø¨Ù‡Ø§
##Ø§Ø±ÙŠ
Ø§Ù„Ø¹Ù„Ù…ÙŠ
##Ø¯ÙŠÙ…Ø§
Ù…Ø¹Ù†Ø¯Ùƒ
Ù„Ù‚Ø·
##Ø³Ù
Ù…ØªØª
Ø¬Ø¹Ù
Ø§Ù„Ø¹Ø²
Ø¹Ù‚ÙˆÙ„
Ù†Ù„Ù‚
##ØªØ±Ùˆ
##Ø¬ÙŠØ¨
Ø§Ù„Ø£Ø®ÙŠØ±
Ø§Ù†Ø´
##8888888888888888
##Ù‡Ø¯
13
##Ù„Øº
Ù‡Ø°ÙˆÙ…
ØªØ¹Ø±ÙØ´
##ÙˆÙƒÙ…
Ø±Ù…Ø¶Ø§Ù†Ùƒ
Ø£Ø®Ø±Ø¬
Ø±Ù‚Øµ
50
##ØªØ±Ø§Ø³
ÙŠØ¨
##Ø§Ù…ÙˆØ±
Ø§Ù„Ø³ÙˆÙŠØ³
Ø­Ø§Ø´
Ù…Ø¨Ø±ÙˆÙˆÙˆ
##Ø¨Ø±Ø´Ø§
Ù…Ù„Ø§Ø¹Ø¨ÙŠ
ØªØ¹Ù„ÙŠÙ…
ÙˆØ±
Ø§Ù„Ø¬Ù…Ù„
Ù…Ø¹ÙŠ
ÙŠØ­Ø§Ø³Ø¨
Ù‚Ù
##Ø¹Ø§
##Ø¹ØªØ¨Ø±
Ø§Ù„ÙˆØ­ÙŠ
ØªØ¹Ø±ÙŠ
Ø§Ù„Ù…Ø®Ù„Ùˆ
##Ù‚Ø·Ø¹
Ø¹Ø§Ø´Øª
##Ø¹Ø±ÙÙˆØ´
Ø¯Ø§Ùƒ
##Ø±Ø­ÙŠÙ…
Ø¯ÙØ§Ø¹
ÙŠÙ†Ù‚Øµ
Ø­ÙŠØ§Ø¡
Ù†Ù‡Ø¨
Ø§Ù„ÙØ±Ø­
ÙŠØ¯ÙŠÙ‡
ÙƒÙˆÙ„
Ø§Ù„Ø­Ø¶
ÙŠØ²ÙŠØ¯Ùˆ
Ø§Ù„ØªÙ†Ù…
##Ø¬Ø²
##Ø¬Ù‡Ø§Øª
Ø§Ù„Ø¹Ø§Ø¯
##Ù…ÙˆØ²
Ù…Ø«ÙˆØ§Ù‡
Ø§Ù„Ø¥Ø¯Ø§Ø±
##2016
Ø§Ù„ØµÙ‡ÙŠÙˆÙ†ÙŠ
##Ø­Ø´ÙŠØ´
Ù…Ø°ÙŠØ¹
Ù„Ø§Ù„Ø¬ÙŠØ±ÙŠÙ†Ùˆ
ØªÙ†Ø·Ù‚
Ø§Ù„Ø¹Ù„Ù…Ø§Ù†ÙŠ
Ø§Øº
ÙÙŠÙ†
ÙŠÙ‚Ø¯Ù…
Ø§Ù„ØµÙØ§Ù‚Ø³ÙŠ
ÙŠØ¹Ø§Ù†ÙŠ
Ø§Ù„Ù…ØªØ­Ø¬Ø¨
##Ø®Ù„Ø§Ù†ÙŠ
##Ø£ÙƒÙŠØ¯
Ø³ØªØ¨Ù‚
Ø®Ø§Ø³Ø±
Ø§Ù„Ù…Ù†Ø§ÙØ³
ÙŠØ¹ØªÙŠÙƒ
Ø®ÙÙŠÙ
ØªÙ‚Ø¹
Ø§Ø¨Ø¯Ø¹Øª
Ø´Ù‡Ø§Ø¯
ÙƒØ´Ù
Ù…Ø¬Ù‡ÙˆÙ„
Ù…ÙˆØ²ÙŠÙƒ
ÙÙƒØ±Øª
ÙŠÙ‚Ø¶ÙŠ
ØªØ³ÙƒØª
ÙŠØ¹Ø§ÙˆÙ†
Ø·Ù…Ø§Ø¹
Ø±ÙˆÙˆÙˆØ¹
Ø·Ø±
Ù†Ø¬
##Ø¬Ù†Ø¯ÙˆØ¨
Ø§Ù„Ù„ÙˆØ­
ØªØªØµÙˆØ±
ÙƒÙˆÙ…ÙŠØ¯ÙŠ
Ù…Ø­Ø§Ù…ÙŠ
Ø´Ø§ÙŠØ®
##Ø­Ø¨Ø©
ÙŠØ§Ø¹Ù…Ø±ÙŠ
ØªÙˆØ¬Ù‡
ÙØ¶Ù„
Ø§Ù„Ù…Ø­Ø§Ù…ÙŠ
Ø§Ù„Ø®Ø§Ù…Ø¬
Ø§Ù„Ù…Ø·Ø§Ù„Ø¨
Ø¨Ø±ÙŠ
Ø§Ù„Ø­Ø³Ø§Ø¨
Ø§Ù„ÙˆØ¯Ø§Ø¯
Ø·Ø²
Ø¨Ø²Ø§Ø§
Ø§Ù„Ù„Ø·Ù
Ø³ÙŠÙ†Ø§Ø±ÙŠ
ÙŠØ¬Ø±ÙŠ
Ø§Ù…Ù†
##Ù…ÙŠØ±Ø§Ø«
##Ø¨ÙˆØ¨
##Ø£Ø¯Ø¨
ÙŠØ´
##Ù†ÙØ³Ùƒ
Ø§Ø³ØªØºÙ„Ø§Ù„
##Ø¹Ù†Ø¯ÙŠ
Ù„Ù„Ø±Ø¦Ø§Ø³
ÙˆÙ
Ø¨Ø±Ø´Ø§Ø§Ø§
Ù…Ø­Ø±Ù…
Ø³Ø±Ù‚Ùˆ
Ø§Ø¬ØªÙ…Ø§Ø¹ÙŠ
Ø§Ù…Ø±Ø§
##Ø¨Ù†Ø§
##Ù„Ø­ÙƒÙˆÙ…Ø©
Ø§Ù„ÙƒØ¨Ø±
Ø§Ù„Ø¯ÙØ§Ø¹
ÙˆØ¹Ù„Ø§
##Ù…ØµØ¯Ø±
Ø³Ø§Ù…Ø§Ø±
##Ú¨
Ù…Ø¤Ø³Ø³
Ù‚ÙŠØ§Ù…
ØªÙÙƒØ±
Ø§Ù„Ø­ÙƒØ§Ù…
Ø¸Ù„
##Ù…Ù‚Ø·Ø¹
Ø§ØºÙ„Ø¨
##Ø´Ø±
Ø§Ù„Ø³Ø§Ø­Ù„ÙŠ
##Ø¨Ø§Ø¨
Ø§Ø¨Ø¹Ø¯
Ø¨Ø§Ù„Ù‚Ù†Ø§
ÙØ´Ù„Øª
Ø¬Ø¯ÙŠ
Ø¹Ù†Ù‡Ø§
Ø¹Ù„Ù…Ø§Ù†ÙŠ
##Ù„Ø¬Ø²Ø§Ø¦Ø±
Ø§Ù„Ù„Ø§Ø²Ù…
##Ø£Ù…Ø±ÙŠÙƒØ§
ÙŠÙ‡Ù†ÙŠÙƒ
ØªÙŠØªØ±
ÙˆØ§Ù„Ø£
##Ù…Ø±Ø­Ù„Ø©
Ø§Ù„Ù…Ø±Ø¶
Ø§Ù„Ø®Ø¶Ø±
Ø¨Ø§Ø±
Ø¹Øµ
Ø§Ù„Ø¹Ø±
ÙØ¶Ø§ÙŠØ­
ØµØ±
ØªØ¨Ø¯Ø§
##Ø¨Ù„Øº
Ø§Ù„ØºØ§
ÙŠØ¬Ø¯
ÙŠØ¯Ø®Ù„Ùˆ
Ø¨Ù†Ø§Ø¡
Ø§Ø¯Ø®Ù„Ùˆ
ØªÙ…Ù†Ø¹
Ø®Ø¯Ù…Øª
ØµÙˆ
Ø£Ø±ÙˆØ§Ø­
Ø¹Ø²ÙˆØ²
Ø§Ù„Ø¬Ø§Ù†ÙŠ
Ù…Ø®ØªÙ„Ù
Ø§Ù„ÙÙ†ÙŠ
Ù…ÙƒØ§
ÙŠØ¹ÙŠÙ†
Ø§Ù„Ø£Ø³Ø§Ø³ÙŠ
##ÙƒÙŠØ¯
ØºØ¶Ø¨
Ø§Ù„Ø²ÙƒØ§
Ø§Ù„Ù…Ø³Ø§ÙˆØ§
Ø­Ø±ÙŠ
Ù…Ù†Ø­Ø·
Ù„ÙˆØº
ØªÙØªÙ‚
Ø¯Ù…Ø§Ø¡
ÙŠØ®Ù„
ÙŠÙ†Ø¹Ù„
Ø³Ø±Ù‚Øª
Ù„Ø£Ù†Ùƒ
##ÙŠØ·
Ø§Ù„Ø§ØµÙ„ÙŠ
##Ø³Ù„
Ø³Ù†ÙØ±
Ù„Ø§ÙŠÙ
##Ø´Ù‡Ø±
Ø¶Ø¹Ù
##Ù…Ù„Ø§Ø¡
##50
Ø§Ù„Ø¹Ù…Ø§Ù„
ØªØ´ÙˆÙ‡Ùˆ
##Ø¯Ù†Ø§
##Ø­Ù…Ø§Ø±
##1
Ø§Ù„ÙƒØ±Ø§Ù…
Ø­Ùƒ
ÙØ§Ø²Øª
##Ø¹Øª
##Ù†Ù‚Øµ
Ø£Ù‡Ø¯Ø§Ù
Ø§Ø¹Ø¯Ø§Ø¡
Ø§Ù„Ù…Ø®
##Ø£Ù…Ø§Ù…
Ø§Ù„ØªÙˆØ§Ù†Ø³Ø§
##ÙÙŠÙ†
Ù…Ø¹Ù„ÙˆÙ…Ø§Øª
##ÙØ¹Ù„
ØºØ±Ø¨
##Ù‡Ø§Ø¯ÙŠ
Ø²ÙˆØ¬Øª
Ø¯Ù‚ÙŠÙ‚
##Ø¹ÙˆØ¬
##Ù‚Ø±
ØªÙƒØ¨Ø±
Ø®Ù„Ø§Øª
Ù…Ø¹Ø·ÙŠØ§Øª
##Ù€Ù€Ù€Ù€Ù€Ù€Ù€Ù€Ù€Ù€Ù€Ù€Ù€
Ø¬Ù…Ø¹ÙŠØª
ÙŠØ­ÙƒÙˆ
Ø­Ø¨Øª
Ø¨ÙŠØ§Ù†
##Ø´Ùˆ
ØªÙ‚Ù
Ø²Ø±
##Ù…Ø§Ù„
Ø´Ø®ØµÙŠØª
##ÙŠÙ‚Ù„Ùƒ
ÙŠÙ†ØµØ±
##ÙŠØ¯Ùƒ
ÙØ§Øª
##Ø³ÙŠØ±
##Ø¥Ø°Ø§
Ù‡Ø°Ùˆ
Ù„Ø¯ÙŠÙ‡
Ø¬ÙˆØ§Ø¨
Ø¨Ø¹Ø¶Ù†
Ù…Ø³ØªÙ‚Ù„Ø©
##ÙÙŠØ¯ÙŠÙˆÙ‡Ø§Øª
##Ø´Ø¹Ø±
ÙˆØ´Ù†Ùˆ
Ù…Ø±ÙŠÙˆÙ…
Ø´ÙˆÙÙˆØ§
ØªØ§Ø®Ø°
Ø§Ù„ÙˆÙ„Ø§Ø¯
##ÙˆØ±Ø§Ø¡
Ù†Ø´Ø±ÙŠ
ØªØ­Ù„
##Ø§Ù„Ø§ÙŠØ§Ù…
##Ø·ÙˆØ±
##Ø¯Ø¯
Ø¨Ø¬
Ø§Ù„Ø­Ø§ÙƒÙ…
##Ù„ØºÙ†Ø§ÙŠØ©
Ø¹Ø´Ø§
##Ø³Ø±Ø¹
ØªØ±Ø§Ø¨
##ÙŠØªØ¬Ø§ÙˆØ²
Ù…Ø§ØªØª
ÙŠØ§Ø³
ÙˆØ²ÙˆØ¬
ÙŠØ¬
ØªØ¸Ù‡Ø±
##Ø³ÙŠØ¯
ÙŠØ§Ø®Ø°
Ø¨Ù‡Ù…
Ø§Ù„Ø´Ø¹Ø±ÙŠ
Ø²Ù‡Ø±
Ø§Ù„Ø®Ø±
##ØºÙ†ÙŠ
Ù†Ù‚ÙˆÙ„Ù‡Ø§
Ø¹Ø¯Ù†Ø§
##Ø¹ÙˆØ°
##Ø§Ù„ÙÙ„ÙˆØ³
Ø¹Ø§ÙˆÙ†ÙˆÙ†
Ù…Ø§Ø²Ù„Øª
ØªÙƒØªØ¨
Ø´Ø±Ø·
Ù…Ø³ÙŠØ­ÙŠ
##Ø±Ø§Ù
Ø³ÙŠØ¨Ùˆ
ÙˆÙ…Ù„Ø§
##Ø²Ø§Ø¡
Ù†Ø´Ùƒ
Ø§Ù…Ù‡Ø§
##Ù…Ø¤Ù‚Øª
Ø¯ÙŠØ²
ÙˆØ±Ø¬Ø§Ù„
Ø§Ù„Ù…Ø±Ø­
ÙƒÙ„Ù…Ù‡
ÙŠØ·ÙˆÙ„
ÙˆØ§Ø­
ØºØ¯Ø§
##Ø´Ø©
##Ø´Ø¹Ø±ÙŠ
Ø±Ø§Ù‚ÙŠ
Ø«ÙˆØ±ÙŠ
Ø§Ø¯Ø®Ù„
Ù…Ø±ÙŠ
##ØµÙØ±
Ù†Ùƒ
Ø§Ù„ØªØ±Ø§
Ø¨Ø§Ù„Ø®ÙŠØ±
Ù„Ø§Ø¨Ø¯
ØªÙ‚Ù„Ù‚
Ù…ØºØ±Ø¨
Ø¨Ø¯Ù†
ÙˆØ¨Ø±Ø§
ØªÙ„Ù‚Ø§
##ØªÙÙƒÙŠØ±
##Ø¯Ø®ÙˆÙ„
ØªÙ…Øª
ÙŠØ²ÙŠÙƒ
ØµØ­Ø­Øª
##Ø¹Ù„Ù…
Ù†Ø³Ø£Ù„
Ù‚Ø±ÙŠØª
ÙŠÙ‡ÙˆØ¯ÙŠ
##Ù„ÙˆÙ‚Øª
Ù…Ø¹Ø±Ù
##Ø¨Ø­
Ø¨Ø§Ù„Ø­
Ø§Ù„ÙØ¹Ù„
##ÙˆÙ„Ø¯
Ù„Ø§Ù‡ÙŠ
Ù†Ø¹Ø·ÙŠÙƒ
Ø¯ÙŠØ³
##Ø±ÙˆØ³
##ÙÙŠÙ‡Ø§
Ø¨ÙŠØ§
##ÙˆÙ„Ø§Øª
##Ø§Ø³ØªÙ‚Ù„Ø§Ù„
Ø§Ù„Ø§Ø®Ù„Ø§Ù‚
##Ù…Ø³Ø§Ù†Ø¯Ø©
ÙˆØ¬Ù…Ù‡ÙˆØ±
ÙˆØ§Ù„Ø¥
##Ù‚ÙŠØ©
Ø·Ø¨
Ø§Ù„Ø§Ø¬ØªÙ…Ø§Ø¹ÙŠ
Ø§Ù„Ø¨ÙŠ
Ø¨Ø§Ù„Ø¹Ùƒ
##ÙˆØ³Ø®
##Ø§Ù‡ÙŠÙ…
Ø­Ø³Ø±
ÙŠØ±Ø¬Ø¹Ùˆ
##ÙŠÙŠÙŠÙŠÙŠ
##Ø±Ù‡Ø§
##Ø¸Ø©
##Ù…Ø¹Ø·ÙŠØ§Øª
##Ù‚Ù
ÙŠØ³Ø£Ù„
##Ø¨Ù†Ø²Ø±Øª
##Ù„Ù†ÙØ§Ù‚
##Ø§Ù…ÙŠÙ†
Ø¯Ø±Ø§
Ø§Ø³Ù…ÙŠ
##ØªØ®Ù„Ù
##ØµØºÙŠØ±Ø©
Ø§Ø±Ù…Ø³
ÙŠØ§Ø®ÙˆÙŠ
##Ø²Ø§ÙŠØ¯
##Ø±Ø²Ù‚
##Ø­Ø±
Ù…Ø¨Ø§Ø¯Ø¦
ÙˆØ±Ø§Ø³
##ØµØ­
ÙˆØªØ­Ø¨
ÙˆÙƒÙŠ
##ØªØ§Ù†ÙŠ
##Ø¨ÙˆÙƒ
Ù‚ÙˆØ§Ù†ÙŠÙ†
##Ø´Ø§Ø¡
25
ØªØ¬Ø§Ø±
##Ø®Ù…Ø¬
ØªØ·Ø¨ÙŠÙ‚
##Ø¯ÙˆÙ„Ø§Ø±
Ø§Ù„Ø±Ø§Ø³
ØªØ­Ø·ÙŠ
Ø§Ù„ØµØºÙŠØ±
Ø®Ø§Ø·Ø±Ùƒ
Ø±Ø¨Ùƒ
##Ø±Ø¡ÙŠØ³
ØªØ¨Ø³
Ø§Ù„Ø®Ø·Ø§Ø¨
Ø²ÙŠÙ†Ùƒ
##Ø¹Ø¸Ù…
Ø§Ù„Ø«Ù‚Ø§Ù
##Ø§Ø§
Ù†Ø§ÙˆÙŠ
##Ø´Ø§Ù†
Ù‚ÙŠ
ÙƒØ§ÙÙŠ
Ø·ÙŠØ­
Ø®Ø³Ø±Øª
Ø§Ù„Ø£Ø®
ÙˆØ¹Ù„ÙŠ
##Ø­Ø§Ø±
ÙˆØ±Ø¯
ÙˆØ³ÙŠØ¨
Ø±Ø®Ø³
Ø§Ù„ÙØ®
Ù‚Ø±Ø¨
ØªØ§Ø¹Ø¨
##Ø«Ù‚
##Ø³ÙƒÙ†
##Ø§Ù„Ù‡
Ø²Ø§
ÙƒØ§Ù„
Ø­Ø§Ø³Ø¨
##Ù†Ø§Ø¯ÙŠ
Ø¹Ø§ÙˆØ¯Øª
Ù…Ø§ÙÙŠ
ÙØ¹Ù„Øª
Ù…Ø§ÙÙŠØ§
Ø¨Ø¹Ø¶Ù‡
Ø·Ù…ÙˆØ­
ÙØ¯
ØªÙƒØ±Ù‡
ÙŠØ£ØªÙŠ
ÙˆÙØ§
##Ø¹Ù…Ø±ÙŠ
##Ø²ÙŠØ¯
##Ø±Ø§Ø±
Ø±Ø¬Ø¹Ùˆ
##ØºØ±Ø¨
##Ø³Ø§Ù„Ù…
Ù„ÙŠØ­Ø¨
ÙƒØ±Ù‡Øª
ÙˆØ´ÙˆÙ
Ø§Ù„Ø¯ÙˆÙ„ÙŠ
Ø¹ÙŠ
Ø¨ÙƒÙŠ
##Ø¹Ù‡Ø¯
Ø¹Ø±ÙÙ†Ø§
Ø¶Ù„Ù…
##ØªØ¹Ø§Ø·Ù
##ÙƒØ³
ÙƒÙŠÙÙˆ
Ø§Ù„Ø¨Ù„Ø¯ÙŠ
Ø§Ù„Ø¯Ø±
Ø¨Ø§Ù„Ø§
Ø®Ø§Ø·ÙŠ
##ÙƒØ«Ø±
Ø§Ù„Ø°Ùˆ
##ÙÙˆØ§
##Ø§Ø§Ø§Ø§Ø§Ø§
Ø¶ØºØ·
Ø§Ù„Ø³Ùˆ
Ø§Ù„Ø³ÙŠ
ØªØ­Ø¨Ùƒ
Ø§Ø°
Ø«Ø§Ø¨Øª
Ø§Ù„Ù…Ø«Ù‚Ù
Ù‚Ø§Ù‡Ø±
ÙˆÙŠØµØ¨Ø±
##Ù…ÙŠØ©
ÙŠÙ„Ù‚
Ù„Ù…ØµÙ„Ø­
Ø¨Ø±Ø§ÙÙˆØ§
##5
ÙˆØ¬
Ø§Ù„Ø§Ø¬Ù†Ø¨ÙŠ
Ù„Ù„Ø§Ø³
Ø§Ù„ÙØ·Ø±
Ø§Ù„Ø§Ø³ØªØ§Ø°
Ø§Ù„ØªØ³Ø¬ÙŠÙ„
Ø§Ù„Ù…ÙˆØ¬ÙˆØ¯
Ø­Ø±Ù
Ø§Ù„Ù…ØªØ®Ù„Ù
Ø§Ù„Ø­Ù…ÙŠØ¯
Ù†Ø¹Ø´Ù‚
ÙŠÙƒØ´Ù
Ø·Ø­Øª
##Ø³ÙƒØ§Øª
Ù…Ø®Ø§Ø®
ÙˆØ¬Ø¹
##ÙˆÙŠÙ„
Ù†Ø¹Ø§Ù†ÙŠ
Ø§Ù„ØµÙŠÙ
ØªØ­Ø§Ø±Ø¨
Ù‚Ù†Ø§ØªÙƒ
Ø·ÙŠ
Ù…Ø¸Ù„ÙˆÙ…
ØªÙ‚ÙŠØ³
Ø¸Ø§Ù„Ù…
Ø§Ù„Ø¬Ø³Ø¯
Ø§Ù„ÙØ§Ø±Øº
##Ø§Ø¦Ù‡
ØµØ§ÙŠØ±
ÙŠØµØ¨Ø­
##Ø£Ø±Ù‚Ø§Ù…
Ø·Ø§Ù„Ø¹
Ù…Ø³Ø±ÙˆÙ‚
Ø§Ù„Ù…Ø³ØªØ´Ù
Ø§Ù„Ù…Ø¹
ÙˆÙƒÙ…Ø§
Ù‚Ù„ÙˆØ¨Ù†Ø§
##Ø¹Ù†
Ø§Ù„ÙŠÙˆØªÙˆØ¨
Ø§Ù„ØªØ±ÙˆÙŠÙƒ
ÙˆØ§Ù„Ø°ÙŠ
Ø§Ù„Ø£ÙŠØ§Ù…
ÙŠÙÙŠØ¯
##Ø¯Ù…ÙˆØ¹
Ù„Ø¯Ø±Ø¬
Ø²Ø¨ÙˆØ¨
##Ù…Ø²ÙŠØ¯
Ù‡Ø±Ù…
Ù†Ø´ÙˆÙÙƒ
Ù…ØªØ§ÙƒØ¯
Ù…Ù‡Ø²Ù„
Ø§Ù„Ø¸Ø§Ù„Ù…
Ø±Ø§Ù‚Ø¯
##Ø­Ø³Ø§Ø³
Ù…ØªØ®Ù„Ù
##Ù„ÙˆÙ„
##Ø³ÙˆØ§Ø´
ÙˆÙ‚Ù„Ø©
ÙŠØ¹ÙˆØ¯
Ø¹Ù‚Ø§Ø¨
Ø­Ù†ÙˆÙ†
ØªØ­Ø±ÙŠØ±
Ø§Ù„Ø§Ù‚ØªØµØ§Ø¯ÙŠ
##Ø§Ø®Ø±
Ù…Ø±ÙˆØ±
Ù†Ø¶ÙŠÙ
Ø¯Ø§ÙØ¹
##Ø§Ù„Ù‰
ÙˆÙŠÙ‚ÙˆÙ„
Ù…Ø³Ø¨Ù‚
Ù‚ØµÙŠØ±
Ø§Ù„Ø¯ÙŠ
Ø¨Ø²Ø§Ø²Ù„
Ø§Ù„Ø²Ø§ÙŠØ¯
##Ù†ØªÙ…
Ø§Ù„Ù…Ø­ØªØ±Ù…
ØºÙŠÙˆØ±
Ø´Ø±Ø¹ÙŠ
Ø§Ù„ÙØ±
##Ø´ÙƒÙ„
Ø§Ù„Ø§Ù†ØªØ¯Ø§Ø¨
##ÙˆØ¶ÙˆØ­
##Ø¶Ù‰
Ø§Ù„Ù…Ø´Ø§Ù‡Ø¯
Ù†Ø¹Ø±ÙÙƒ
Ù„ÙˆÙ„Ø§
Ø©
ÙŠØ³Ù…Ø¹Ùˆ
Ø¯Ø§Ø±Øª
Ø§Ù„Ø¹Ø±ÙŠÙ‚
ÙˆØ±Ø§Ø¡Ù‡
Ù…Ø¸Ø§Ù‡Ø±
##Ø¨Ø§Ù„Ùƒ
##Ù†Ù
Ù†Ø­ÙƒÙˆ
##Ø·Ø§Ø±
80
Ø§Ù„Ù‡Ùˆ
Ù‚Ø±Ø§Ø±Ø§Øª
ÙŠØ·Ø¨Ù‚
##Ø­ÙƒÙˆÙ…Ø§Øª
Ø³Ø¬Ù„
ÙŠØ§Ø§Ø§Ø§Ø§
ÙŠÙØ¶Ù„Ùƒ
Ù‡Ø¨Ù„
ØªØ¶Ø±Ø¨
Ù…Ø¹Ù‡Ù…
##Ø´Ù‡ÙŠØ¯
ÙˆØµÙ„Ù†Ø§
Ù†Ø³Øª
Ø§Ø¶Ø­Ùƒ
ØªØ·Ù„Ø¨ÙˆÙ†
Ø§Ù„Ø¶Ø¹Ù
ÙŠØªØ¨Ø¹
##ØªÙŠÙ†ÙŠ
Ø¹Ø¬Ù„
ØªÙÙˆÙˆÙˆÙˆ
ÙØ±Ø¹
##Ù€Ù€Ù€Ù€Ù€Ù€Ù€
ÙˆÙ„ÙƒÙ„
Ø¯ÙŠÙ†Ùƒ
Ø§Ù†ØªØ§
##Ø¬Ø¯ÙŠØ¯
Ø´Ù‡Ø±ÙŠ
Ø¬Ù†Ø¨
##Ø¨Ù†Ù‰
ØºÙ†ÙŠØª
Ø°Ø±Ø§Ø¹
ÙØ£
Ø¨Ø§Ù„Ø³
##ØªØ¹Ø§ÙŠØ´
Ø§Ù„Ø§Ø´ØªØ±Ø§Ùƒ
##Ø­ØªÙŠ
ÙˆØ§Ù„Ø¯ÙŠÙ‡
Ù„ÙØ§Ø¦Ø¯
##26
Ù‚Ø§Ù„ÙŠ
##Ø¥Ø³Ù…
##Ø¹Ø¨Ø¯
Ø®Ø±Ø¨Ùˆ
##Ø§Øµ
Ø­Ø¯ÙŠØ¯
##Ø§ÙØ±Ù‚ÙŠ
Ù…Ù†Ø¸Ø±
Ø­Ù…Ø§Ù…
Ø§Ø±Ø­Ù…
##Ù„Ù…Ø§Ø°Ø§
##Ù‡Ù‡Ù‡Ù‡Ù‡Ù‡Ù‡Ù‡Ù‡Ù‡Ù‡Ù‡Ù‡
Ø§Ù„Ø­Ø¯ÙŠØ¯
Ø¹Ø´Ù‚
Ø¬Ø¨Ù‡
Ø§Ù„Ù†ØµØ±
ØªØ­Ø±Ù‚
##Ø²Ø­
ÙŠÙ‚Ø±
Ø¨Ø¯Ø±
##Ù„ÙŠÙ‡Ù…
##Ø¹Ø§Ù…
Ø±Ø¦ÙŠØ³Ø§
Ù„Ø®Ø¯Ù…
Ø®ÙŠØ±Ù„Ùƒ
Ù…Ø§ÙÙŠÙ‡Ø§
ÙŠØ­ØªØ±Ù…
Ù„Ù„Ø¥
##Ø§Ù„Ø¨
Ø£Ø²Ù…
ÙˆÙ‡Ù„
Ù…Ø¯ÙŠÙ†
##Ø¬ÙˆØ²
##Ø¹Ø¯ÙŠØ¯
ØµÙˆØªÙ‡
ØµÙ†Ø§Ø¹
##Ø¯Ø§Ù…
##Ù†Ø§Ø¡
Ø¥Ù†Ù‡Ø§
ØµØ±Ù…
Ø§Ø¹Ù„Ø§Ù…ÙŠ
Ø¬ÙˆØ¹
Ù†Ø¹Ø§ÙˆØ¯
##Ù†Ø³ÙŠ
Ù‚Ø§Ø¯
ØªØ®Ù„Ù
Ù†Ø¨Ø§Ø±
##ØªÙ„Ø§Ø¹Ø¨
##ØªÙˆØ´
ØªÙƒØ°Ø¨Ùˆ
Ø§Ù„Ø³Ù„ÙŠÙ…
Ø®Ø§Ù„Øµ
Ø¹Ø§Ø´Ù‚
##Ù‚ÙŠÙ†
##Ø§Ù‚Ø©
Ø£Ø¹Ø¯Ø§Ø¡
00
##Ù…Ù‡Ù…
Ø³Ø§Ù‡Ù…
Ù…Ù‚Ø·Ø¹
##ÙØ§Ù‡Ø§
Ù…Ù†Ø§ÙÙ‚ÙŠ
##Ø±Ø¹
Ø§Ù„Ø³ÙˆØ¯
Ø­Ø¬Ø§
##ÙˆÙˆÙˆÙˆÙˆÙˆÙˆ
Ø±Ø§Ø³Ù‡
##Ù…Ù‰
ØªÙ‚Ø¯ÙŠØ±
Ø¹Ø±ÙØªÙˆ
Ø§Ù„Ù‚Ø¯Ø±
Ø¯Ø±Ø¬
Ø·Ù„Ø¨Øª
ØºÙŠØ±Ùƒ
ØªØ¯
ÙŠØ­Ø±Ù‚
Ù…Ù†Ø§Ø³Ø¨
Ù‚Ø¹Ø¯Øª
##Ù‚Ù„ÙŠÙ„
Ù†Ù…
Ø¥Ø¯Ø§Ø±
Ø§Ù„Ø§Ø³Ù
ÙØ¶Ø­
Ø§Ø¯Ø§Ø¡
##Ø­Ù„ÙˆÙ„
##Ø³ÙŠÙ
##Ø§ØªÙ‡Ø§
##ØªÙ‡Ù…ÙŠØ´
Ø§Ù„ÙÙ‡
ÙÙƒÙ„
##ÙØ·
ØªØªØ¹Ø¯
ÙŠÙˆØ§ÙÙ‚
Ø§Ù„Ø¶
Ø§Ù„Ù†ÙˆØ§
Ù†ØªØ¹
Ø­ØµÙ„
ØªÙƒØ´Ù
Ø¸Ù‡Ø±Øª
##Ø³Ù‡Ù„
ÙˆØ§Ù„Ø±
Ø²Ùˆ
ÙˆÙ„Ø§Ùˆ
Ø¨Ø¯Ùˆ
Ø¹Ù…Ø§Ù„
Ø³Ø§ÙƒÙ†
##Ø´Ù†ÙˆØ§
Ø¨Ø§Ø³Øª
Ø£Ù†ØªÙŠ
ÙÙ„Ùˆ
Ø§Ù„Ø´Ø§Ø´
ØªÙØ±Ù‚
ÙˆÙŠØ­ÙØ¸
Ø§Ù„Ø§Ø®Ùˆ
Ø«Ù…Ø§
Ø¬Ø§Ùƒ
##Ø§Ø­Ø±Ø§Ø±
Ø§Ù„Ø§Ø­Øª
Ù†Ø­ÙƒÙŠÙˆ
ÙŠÙ‡Ø¨Ø·
Ù„Ø§Ø²Ù…Ùˆ
ÙƒØª
Ù†Ø¹Ø±ÙÙˆÙ‡
##Ù„Ù†
##ÙØ§Ø®Ø±
ÙØ§Ù‡Ù…ÙŠÙ†
Ù…Ø¹Ù‚Ø¯
ÙˆØ³ÙŠØ¯
ÙŠÙƒØ¨Ø±
Ø§Ù„Ø¹Ù†
Ø§Ù„ÙˆØ§Ù„Ø¯
Ø¥Ø¹
ØªØ¯ÙŠØ±
Ø¨ÙŠÙ†Ù‡Ù…
ÙˆØ§Ù„ÙÙ‚Ø±
##Ø±Ø¢
ÙƒØ§Ù†Ùƒ
Ø¨Ø¯Ø§Ùˆ
##Ø³ÙŠÙ†
##ØºØ¨Ø§Ø¡
ÙŠØ®Ù
ÙŠÙ‡Ø¯Ø±
##Ø®Ø·ÙˆØ©
ØªØ¬
##Ù…ÙƒÙ…
##Ø®Ù„Ø§Øµ
ÙˆÙˆÙˆÙˆÙˆÙˆ
Ù…Ø®Ùƒ
##Ø¨ÙˆÙ†
##Ù†Ø·Ù‚
##Ù‚Ø±ÙŠØ¨
##Ø´Ø¯ÙŠØ¯
Ø¹Ø¨Ùˆ
Ù…Ø¨Ø§Ø¯Ø±
##Ù‚Ø­Ø¨Ø©
ØªØ§Ø¬
Ø§Ù„Ù…Ù†Ø§
##Ø¶Ù‡Ø±Ù„ÙŠ
ÙˆØ³ÙŠ
Ù…Ø§Ø²Ø§Ù„Ùˆ
Ø§Ù„Ø²Ø±
Ø¬Ù…Ø¹ÙŠØ§Øª
ÙŠØ¯ÙŠ
##Ø¯Ø®Ù„ÙƒÙ…
Ù†ØªØ§Ø¦Ø¬
Ø±Ø¯Ùˆ
Ø§Ù„Ø´Ø§Ø¨ÙŠ
##Ø±ÙƒØ²
Ø§Ù„ØµØ­Ø§Ù
##Ø¨Ù‚
##Ø§ÙƒØ´
ÙˆÙ„Ù‡
ØªÙÙ‡Ù…Ùˆ
##ÙŠØªÙ‡
Ù…Ù‚Ù†Ø¹
##Ø§Ø´Ø®Ø§Øµ
ØªØ¬ÙŠØ¨Ùˆ
##Ø¹Ø±Ø³
Ù„Ù†ÙØ³Ù‡
##Ù„ÙŠÙ„
Ù„Ø­
Ø´Ø¨Ù‡
ØµÙ†Ø¯
##Ù…ÙˆØ§Ø¶ÙŠØ¹
Ø±Ø¢Ù‡
##Ø°Ù„
##Ø§Ø¦Ø¨
ÙØ³Ø¯
Ø§Ù„Ù…Ø¬
Ø§Ù„Ø£Ø¨
Ø§Ù„Ø¹ØµØ¨
ÙŠØ¹Ø¬Ø¨
Ù…Ø¹Ù†Ø¯
ØªØ·Ù„Ø¨
##Ø´Ù‡ÙˆØ±
ÙŠØ¨ÙŠØ¹Ùˆ
Ø¹ÙÙˆÙŠ
Ø­Ù…Ø²
Ø±Ø¬Ø§Ù„Ø§Øª
##Ù…Ø§ÙƒÙŠØ§Ø¬
ÙŠØ¬Ø¹Ù„Ù‡
ÙˆØ¨ÙŠÙ†
Ø¯Ø§Ø®Ù„ÙŠ
Ø®Ù„Øª
##Ø®Ø¶Ø±
##Ø³ÙˆÙ†
##ÙÙŠÙ„Ù…
##Ø³Ù‚Ø§Ø·
Ø¢Ù…Ù†
ÙÙ‚Ø§Ù„
##Ø·ÙÙŠ
ÙˆÙƒØ£Ù†
Ø§Ù„ØªÙØ§Ù‡
ØªÙ†Ù‚Øµ
##Ø¨Ù‚ÙŠ
Ø³Ù„
##Ù„Ø±Ø§Ø¬Ù„
##Ø§Ù‚Ø¯ÙŠÙ†
Ø¬ÙŠØªÙˆ
ÙŠØµØ±Ù
ØªÙˆØ¶ÙŠØ­
##Ø­Ø·
##Ù‚Ù„Ø¨ÙŠ
##ÙƒÙŠØ´
Ø®Ù„Ù
Ø¹Ø±Ùƒ
##Ø²Ù…Ø§Ù†
ØªØ¨Ø¹Øª
Ø§Ù„Ù…Ø­ØªÙˆ
##Ù†Ø®Ø§Ù
##Ø§Ù„Ø¯Ù†ÙŠØ§
Ø¨Ø¹Ø¶Ùƒ
##Ø§Ø³ÙˆØ¯
##Ø­Ø¯
ÙƒØ³Ø±
Ø§ØºÙ†
Ø§Ù„Ø£Ù…Ø§Ù†
##Ø°Ø±
##Ø£Ø®ÙŠØ±
##ÙˆÙ„Ø§Ø¯
ØªÙ‚Ø±ÙŠ
##ÙÙ‡Ù…
ØªØ·
Ø­Ø§Ø·
Ø§ØªØ­Ø§Ø¯
Ø¨Ø±Ø§ÙÙˆÙˆÙˆ
Ø´Ø¹Ø¨Ù‡
Ù…Ø¨Ø±ÙˆÙˆ
##Ø²Ø§Ø²Ø§
ÙØ§Ø²
##Ù†Ù‡Ø¶Ø©
Ø¥Ù„Ù‡
Ø§Ù„Ù‚Ø­Ø¨
##Ù…Ù†Ø§Ø³Ø¨
##Ù‡Ù‡
##Ø·ÙŠØ±
##Ø­ÙØ¸
Ù„Ø¹Ù‚Ùˆ
ÙˆÙƒ
##Ù†ÙÙˆØ°
Ø§Ø¯Ø¹Ù…Ùˆ
Ø¹Ù„Ø§Ø¬
ÙƒÙˆÙ†Øª
##Ø§Ù„Ø§Ø®Ø±
##Ù…Ù‡Ø§
##Ù„Ù‚Ø¨
##Ø³ØªÙŠØ±
Ø§Ù„Ø£Ø­Ø¯
ÙŠØ³Ø¨
ÙˆØ¨Ù†
ØªØ´Ø¬Ø¹
##ÙŠÙ„ÙŠ
##Ø±ÙˆØ§
##Ø¯Ø®Ù„
##Ù†Ø¸Ù
Ù†Ù‡Ø§ÙŠ
##Ø³Ø¹Ø¯
Ø±Ø§Ù†
ÙƒÙ„Ø§Ù…Ùˆ
##Ù…Ù†Ø­Ø¨Ø´
Ø§Ù„Ø¹ÙŠØ¯
Ø§Ù„Ù‚ÙŠÙ…
##Ø­Ù„Ùˆ
Ù…Ø±Ø¯ÙˆØ¯
Ø³ÙŠØ±
##ØªÙˆØ¨Ø±
##ÙˆØ­Ù„Ùƒ
ÙŠØ¸Ù‡Ø±Ù„
##Ù„ÙˆØ´
Ø§Ù„Ø¬Ø§Ù‡Ù„
ÙŠØ­ÙØ¸Ùˆ
Ø§Ù„Ø¨Ù‚ÙŠ
##ÙƒÙŠÙ…Ø§
Ø§ÙŠØ¯ÙŠ
Ø§Ù„Ù…ÙˆØ¸Ù
##Ø§Ø¦Ø¯
Ø§Ù„Ø§Ø­ÙˆØ§Ù„
Ø§Ù„Ø®Ø§Ù…Ø³
Ø§Ù„Ø®Ø¨Ø²
Ø­Ø§Ù„ÙŠ
Ù†Ø·Ø§Ù„Ø¨
Ø§Ù„Ø°ÙƒÙˆØ±
Ø®Ù„ÙˆÙ‡
Ø§Ù„Ø¯Ø³ØªÙˆØ±ÙŠ
Ø§Ù„Ø¨Ù„Ø¨Ù„
##ØªØ­Ø±Ø´
Ø§Ù„ÙƒØªØ§Ø¨
ØªØ¬Ù…Ø¹
ÙØºØ§Ù†Ø³
Ø§Ù„Ø¬Ø¯
##ÙˆØ¬ÙŠÙ‡
Ø£Ø¹Ø·ÙŠ
ØªØ­Ù„ÙŠÙ„
##Ø¬Ø±Ø§Ø¦Ù…
Ù„Ù„Øª
##Ø³Ø­Ø¨
ÙŠØªÙ‚Ø¨Ù„
Ø¬Ø§Ù†ÙÙŠ
ØµØ¨Ø§Ø·
Ù…Ù‡Ø¯Ø¯
ØªÙˆØ­Ø´ØªÙƒ
Ø§Ù„Ù…Ø´Ø±Ù‚
##Ù‚Ø­Ø§Ø¨
Ø§Ù„ÙƒÙˆÙƒ
ÙˆØ§Ù„ÙƒÙ„
Ù…Ø§Ø´ÙØª
##Ø­Ø¨Ø§Ø¡
Ø§Ù„Ø­Ø¯
ØµÙ‡ÙŠÙˆÙ†ÙŠ
ÙŠØµØ­Ø­
##Ø§Ù„Ø¬Ø²Ø§Ø¦Ø±
ØµØ§Ù†Ø¹
##ØµØºØ±
Ø§Ù„Ø·Ø§Ù‡Ø±
Ø¨Ø§Ù„Ø¬Ù…Ø¹ÙŠ
Ù†ØªÙ…Ù†Ø§Ù„Ùƒ
ØªØ¹Ø¨ÙŠØ±
Ø§Ù„Ø¬Ø±Ø­
ØªÙ†Ù‚Ù„
Ø§Ù„ØªØºÙŠÙŠØ±
Ù„Ø­Ø¸
Ø§Ù„Ø±Ø§Ø¯ÙŠ
Ù…ÙƒØ±ÙˆÙ‡
Ù…Ø´Ø§Ø±Ùƒ
ÙˆÙ†ØªÙ…Ù†
Ø£Ø±Ø§Ø¯
Ø§Ù„ØªØªÙˆÙŠØ¬
Ù†Ù‡Ø¨Ø·
21
Ø§Ù„Ø­Ø¯Ø§Ø¯
##ÙˆÙƒØ³
Ø§Ù„Ø±Ù‚Ù…
Ø®Ø¨ÙŠØ«
Ø§Ù„Ø¹ÙŠ
Ø¯ÙŠØ³Ù…Ø¨Ø±
Ø­Ø´
Ø§Ù„Ø³Ù„ÙÙŠ
Ø§Ù„Ø¹Ø±ÙˆØ³
Ø§Ù„Ù…Ù†Ø§ÙÙ‚
Ø§Ù„Ù…ÙˆØ§
##Ù†Ø§ØµØ±
Ø§Ù„Ø¨Ù„
Ù†Ø§Ø¨Ù„
Ø§ØºØªÙŠØ§Ù„
Ø§Ù„Ø¹Ù‚Ø¯
##Ù…ÙƒØ§Ù†
Ø¨ÙˆÙ†
##ØªÙƒÙˆÙŠÙ†
Ø¹Ø¨ÙŠØ¯
##Ø§Ø¹Ø±Ø§Ø³
Ø­ÙƒÙˆÙ…ØªÙƒ
##ØªØ¹Ø±ÙØ´
Ù„ÙˆØ·
ØµØ­Ø§Ø¨
Ø§Ø³Ø±Ø§Ø±
Ø§Ù„Ø¥Ø´ØªØ±Ø§Ùƒ
Ø§Ù„Ø¹Ø³Ù„
Ù…ØªØ­Ø¬Ø¨
Ø³Ø£
Ø¬ÙŠØ¹Ø§Ù†
ÙØ¯ÙŠÙˆÙ‡Ø§Øª
Ø®Ù„ÙŠØª
##Ø¨Ù„Ø¯Ø§Ù†
Ø§Ù„Ø«Ù„Ø§Ø«
Ø§Ù„Ù‚Ø·Ø§Ø±
##Ø§Ø±Ø¯Ù†
Ø§Ù„Ù…Ù‡
Ù„Ù„Ø¹Ù…Ù„
ÙØ§Ù‚Ø¯
Ø¨Ø±ÙŠØ·Ø§Ù†ÙŠ
ÙŠØªÙ†Ø­Ø§
##Ø£Ø´Ø¨Ø§Ù‡
Ù‚Ø°Ø±
Ø´Ø§Ù†
##Ø±Ø­Ù…
ØªØ±ÙŠØ¯ÙˆÙ†
##ÙƒØ°Ø¨
Ø¬Ù„Ø§Ù„
Ø§Ù„Ø¨Ø´Ø±ÙŠ
Ø§Ù„Ø§Ø³Ù…
Ø¹Ø§Ù‡Ø±
Ù†Ø²
##Ø²Ø±Ù‚
Ø§Ø³ØªÙ…Ø±ÙŠ
##Ù…ÙˆÙ†ÙŠ
##Ø·ÙŠÙ
Ù…Ø¨
Ù„Ø¥
ÙŠØ¬ÙŠÙƒ
##Ø¹Ø·Ø§Ø¡
ØªØ­Ø§ÙˆÙ„
Ø§Ø¹Ø·ÙŠ
Ù†ÙˆØ±Ù…Ø§Ù„Ù…Ùˆ
Ù‡Ø±Ø¨Øª
##Ø¹ÙˆØ±
Ø£Ø¨
Ø§Ù„Ù‚Ø¯Ø§Ù
Ø§Ù„Ù…Ø³ØªØ¹
Ø§Ù„Ù…Ø±Ø­Ù„Ø©
Ù…ØªÙƒÙˆÙ†
Ù‚Ù‡Ùˆ
Ù…Ù‡Ø¯ÙŠ
ÙˆÙŠØ¹Ø·ÙŠÙƒ
##Ø­Ø¨Ùˆ
Ø§Ù„Ø¬Ø¨Ù‡
ÙˆØ§Ù„ÙƒØ°Ø¨
Ù†Ø²Ù„Øª
Ø¨Ø³Ù„Ø§Ù…
ÙˆØ®
Ø¯Ù…Ø±Øª
ÙƒÙ„Ù…Øª
Ù‚Ø¯Ø§Ù‡
Ø¨Ø±Ø§Ùˆ
Ù„Ø¬Ù…Ù‡ÙˆØ±
ØªØ³ØªØ±
Ù…Ø³Ø§Ø¡
Ù…Ù„ÙŠØ§Ø±Ø§Øª
Ø¬Ù†Ø§Ù†
Ø§Ù„Ù…ØµØ§Ø±
ÙƒØ¨
Ø§Ù„Ù…ÙƒÙˆÙ†
ÙˆØ¹ÙŠ
Ø£Ù„Ù…Ø§Ù†ÙŠ
Ø§Ù„Ø´Ù‡Ø§Ø¯
Ø¹Ø§ÙŠÙ„Ø§Øª
ÙŠØ³Ù„Ù…
ÙˆØ§Ù„Ø¹Ø§Ù„Ù…
##Ù„ØªÙˆØ§Ù†Ø³Ø©
##Ù„ÙƒÙ„ÙŠØ¨
Ø§Ù„ÙÙŠÙ„
Ø³ÙŠØ¦
ØªÙ„Ù‚Ø§Ù‡Ù…
##Ø­Ø§ÙˆÙ„
Ù‚ÙŠØ§Ø³
ØªØªØ±Ùƒ
Ø§Ù…Ø¹Ø§Ùƒ
Ø£Ù…Ù†
Ø²ÙŠØ§Ø±Ø©
ÙŠØ¨Ø¯Ùˆ
Ø§Ù„Ù‚Ø°Ø±
##Ø¨Ø§Ø¹Ø¯
Ø§Ù„Ø·Ø¨
Ø¯Ø¨
Ø²Ø§Ø¯Ù‡
Ø´Ø±ÙƒØ§Øª
Ø§Ù„Ø³Ù„
Ø®Ø·Ø£
Ø§Ù„Ø¯ÙŠÙ†Ø§Ø±
ØªØ³Ù…
Ø§Ù„Ø¯Ù‚ÙŠÙ‚Ø©
Ø®Øµ
ÙŠÙƒÙˆØ±
Ø®Ø¯Ù…ØªÙƒ
ØªÙØ±
##ØªØ¹Ù…Ù„
ØªØ­Ø´ÙŠ
Ø§Ù„Ø¹Ù‡Ø±
Ø²Ø¨
Ø§Ù„ÙˆØ²Ø§Ø±
##Ø¸Ù„Ù…
ÙŠÙ‚Ø§Ù„
Ø®Ø§Ø±Ø¬ÙŠ
Ø§Ù„Ø±Ø§
ÙˆØ±Ø­Ù…
Ø§Ù„ÙØ±Ø¯
ÙˆÙŠØ­Ø¨
ÙŠØ®Øµ
ÙŠÙƒØ«Ø±
ÙŠØ´Ø±ÙŠ
Ø§Ù„Ø¹Ø¬Ù„
Ø£Ø¹Ø²
Ø§Ø°ÙƒØ±
Ù†Ø¬Ø­
ØªØ¬Ø±Ø¨
##Ø´Ø¤Ùˆ
Ø­Ø³ÙŠØ¨
##Ø§Ø§Ø§Ø§Ø§Ø§Ø§Ø§
ØºØ¨Ø§Ø¡
Ø¬Ø±Ø¨Øª
##ØªÙˆÙ†Ø³ÙŠ
Ù…Ù‚Ø§Ø±
Ù…ÙˆØ§ØµÙ„
Ù…ÙˆØ§Ø¶ÙŠØ¹
##Ø§Ù†Ø­Ø·Ø§Ø·
Ø¨ÙƒÙ„Ø§Ù…
Ù„Ø­Ù„
##Ø±Ø¨Ø­
##Ø¹Ø´
Ù„Ù‡Ø¬ØªÙƒ
Ø¬Ø¨ÙˆØ±
Ø£Ø®ÙŠØ±
Ø§Ø·ÙØ§
Ù…Ù„ÙŠØ§Ù†
Ø´Ø¹Ø¨ÙŠ
Ø§Ù„ØªØ§Ù„ÙŠ
Ø´Ø§Ø±Ùƒ
##Ø¬Ø§
##ÙƒÙˆÙ…
Ø§Ø³Ù…Ø§Ø¡
##ØªØ¹Ù„Ù‚
Ø¬Ø±Ø­
Ø§Ù„ÙƒÙˆØ±ÙŠ
Ø¯ÙŠÙ†ÙŠ
Ø®Ù„Ø·
Ù†Ù‚Ø±Ø§
Ù†Ø¸Ù†
##ØªØµÙˆÙŠØª
Ø§Ø¹Ø·ÙŠÙ‡
##Ø¯ÙŠÙ†Ø§
Ù„Ù„Ù†Ø§Ø¯
##Ø¨Ø§Ø­
##Ø³Ø§
Ø§Ù„Ø­Ø±ÙŠ
ÙŠÙ†ØªØ¸Ø±
Ø§Ù„Ø·Ø±
ÙˆØ°Ù†ÙŠ
Ø£Ù…Ù†ÙŠ
Ø§Ù„Ø®Ø±Ø§
##Ø§Ù„ØªÙŠ
ÙˆØ§Ù„ØµØ­
Ù…Ø§Ø¯ÙŠ
Ø§Ù„Ø§Ù‚ØªØµØ§Ø¯
ÙˆØ§Ù„Ø¯
ØªØ®Ù„
##Ø¬ÙˆØ±Ø§Øª
Ø§Ù„ØªÙˆØ§
ÙØ§Ø¦Ø¯
ÙŠØ§Ø§Ø§Ø§
ÙØ§Ù†Øª
ÙˆØ³Ø§Ù…
Ø¨Ø²Ø§Ø§Ø§Ø§
Ø³ÙŠØ§Ø¯ØªÙƒ
ÙŠÙ…Ø³
ØªÙØ±Ø¬
ÙØ¯Ùˆ
Ø£Ø­Ø¨Ùƒ
ØªÙ†ØªÙ‡
ÙŠÙ†ØªÙ…
ÙØ±Ø¬
Ø£ÙÙƒØ§Ø±
##ÙˆÙˆÙˆÙˆÙˆÙˆÙˆÙˆÙˆÙˆÙˆÙˆÙˆÙˆÙˆ
ÙŠØ§Ù„ÙŠ
##Ù…Ø±ÙŠÙ…
Ù…Ù
Ø£Ø¹Ù…Ø§Ù„
Ø®Ù„Ø§
Ø¨Ø§Ù„Ø¹
Ø§Ù„Ø±Ø§Ù‚ÙŠ
Ø§Ù„Ù…Ø³Ø§Ø¨Ù‚
ÙˆØ§ÙÙ‚
Ø§Ù„Ø·Ø§
Ø§Ù„Ø§ØµÙ„Ø§Ø­
##ØªÙˆÙ‚Ù
ØªØ­Ø³Ùˆ
Ø³Ùƒ
ÙŠÙ„
##Ø®Ø§ÙŠØ¨
##Ù‡Ø§Øª
ÙˆØµØ­
##Ù†ØªÙ‡Ø§
##Ù…ÙˆØ´
##Ø¹Ø²
##Ø§Ø·ÙŠØ±
Ø¥Ø³Ù„Ø§Ù…ÙŠ
ÙŠØ§Ø®Ùˆ
Ø§Ù„Ø­Ø³
Ø¹Ø¬Ø¨
Ø§Ù†ØªØ®Ø¨Ùˆ
##Ø²Ø§Ù„
ØªØ¹Ù†ÙŠ
ÙŠØ´Ù‡Ø¯
##Ø­Ù‚Ù‚
ÙˆÙ„Ù…Ø§
##Ø´ÙŠÙ†
ÙŠÙ‡Ø¯
##Ø¨ÙŠØ±
ÙŠØ¯Ù„
##Ø¹Ù†Ø¯Ùƒ
##Ø§Ø¹Ø¯Ø§Ø¡
Ø¹Ø¨
##Ø±Ø¨Ø¹Ø©
##Ø§Ø«
ÙŠØµ
Ø§Ø±Ø²Ù‚
##Ø§Ø¦Ø¯Ø©
Ø§Ù„Ù…Ø¤
Ø¬Ù‡Ø§Øª
ÙƒÙ…Ù„Ùˆ
##ØµØ¹Ø¨
Ø·ÙŠØ­Øª
##Ù‡Ø¯ÙŠÙƒ
ÙƒÙØ±
Ø´ÙŠØ±
ÙˆØµÙˆÙ„
##Ø¹Ø¬Ø¨ØªÙ†ÙŠ
ØªÙ‚Ù„ÙŠØ¯
Ù†Ø³ÙŠ
##Ù†ÙŠÙƒ
Ø¨Ø§Ù„Ø·ÙŠ
##00
##Ø·Ø§Ø­Øª
##Ø³ØªÙÙŠØ¯
Ø§Ù‚
Ø¹Ù„Ø§Ø¨Ø§Ù„
Ø´Ø¹ÙˆØ¨
Ø¯Ø§Ø±Ùƒ
##Ø§Ù„Ø±Ø¬Ø§Ù„
##Ø§Ù†Ùˆ
##ØªÙØ±Ø¬
ØªØ­Ø¯ÙŠ
Ù‚Ø§Ù†ÙˆÙ†ÙŠ
##ØªØ£ÙƒØ¯
##ÙŠÙ…Ù†
Ø§Ù„Ø¥Ø³Ù„Ø§Ù…ÙŠ
Ø®ÙˆØª
Ù†Ø­Ø³Ùƒ
##Ù…Ù‡Ø§Ø¬Ù…
##ÙƒØ§Ø±
ØºØ§ÙŠØ±
ÙŠØ¯ÙˆØ±
Ù…Ù†Ø§ÙØ³
##Ø®ÙŠ
Ø´Ø¨
##Ù†Ù‚Ù„
ÙˆØµÙÙ‡
##Ù„Ø§Ùƒ
Ø¨Ø­Ø§Ù„
Ù…Ø®Ùˆ
Ø§Ù„Ø¨Ø§Ø³
##Ù„Ø¹
Ù„Ù„Ø¯Ùˆ
##Ø®Ø§Ù„Ù‚
##20
Ù„ÙØª
ÙˆÙŠØ§
##Ù‚Ù„Ùƒ
Ø£Ø®Ùˆ
##Ù…Ù…Ø±Ù†
ÙˆØ§Ø¬Ø¨
ÙŠØ·Ù„Ø¹Ùˆ
Ø¨Ø­Ø«
ÙˆÙŠØ¬Ø¹Ù„
##ØªÙˆØ¬Ù‡
Ø®Ù„ÙŠÙ†
##Ø§Ø³ÙŠ
##Ø§ØµØ©
##Ø§Ù„Ù‡Ø§
ÙˆØ¬Ù‡Ùˆ
##Ø²Ø¹
Ø§Ù„Ø§Ø³Øª
Ø­Ø³Ø§Ø³
Ø´Ø¹
Ø§Ø¹Ù„Ø§
##Ø¬Ø¹Ù„
##ØµØ§Ø±
Ù…Ø³Ø§Ù†Ø¯
ÙˆØº
Ø´Ù‡Ø¯Ø§Ø¡
Ù†ÙŠØªÙƒ
Ø§Ø¬
##Ø¨Ø§Ù‡
##Ø¬ÙˆØ§Ø¨
##Ø§Ù„Ùˆ
##Ø´Ø·
##Ù‡Ù‡Ù‡Ù‡Ù‡Ù‡Ù‡Ù‡Ù‡Ù‡Ù‡Ù‡
##Ø¨Ø±Ù‰
Ø¬ÙˆØ§
ÙˆØ§Ù„Ø¨Ø±Ùƒ
##ØªØ´Ø¬ÙŠØ¹
ÙˆØ§Ù„Ø¬Ø²Ø§Ø¦Ø±
##Ø§Ù„Ù‚Ø§Ù†ÙˆÙ†
##Ø§ØµØ­Ø§Ø¨
##Ø¯ÙŠÙƒÙ…
##ØªØ­Ù…Ù„
Ø¹Ø§ÙˆÙ†Ùˆ
Ø£Ù
ÙŠØªØµØ±Ù
ÙŠÙƒØ°Ø¨Ùˆ
Ø£Øª
##Ø§Ø¦Ù„
Ù…Ø§ØªÙˆ
Ø¶Ù…Ù†
##ÙŠØ¬ÙŠ
ÙØ§Ø´Ù„Ø©
ØªØ®Ø§Ù
##ÙŠØ¹Ø¬Ø¨Ù†ÙŠ
Ø§Ù‡ØªÙ…Ø§Ù…
ÙˆØ§Ù„Ø§ÙØ±ÙŠÙ‚ÙŠ
##Ø§Ù„Ø§ÙØ±ÙŠÙ‚ÙŠ
Ø³Ù…Ø¹ØªÙˆ
Ø³Ù„Ø¨ÙŠ
Ø±Ø¬Ø§Ø¡
##Ù„Ø¹Ø±Ø¨
Ø§Ù„Ù…Ø­
Ø§Ù„Ø¹Ù…
Ø§Ù„Ù‡Ø¯Ø±
ØªÙ‡Ø±Ø¨
##Ù…ÙŠÙ…ØªÙƒ
##Ù‚Ø§Ù„
ÙˆØ¶Ø¹ÙŠ
##Ù…ÙˆÙÙ‚
Ù‡Ø§Ø¯Ùˆ
ØªØ³ØªØ¹Ù…Ù„
ØªÙ‚Øµ
Ø¨Ø§Ø¹
##Ù†Ø¬Ø­
##Ø±ÙŠØ¯
##Ø£Ù…Ù„
Ø¸Ø±ÙˆÙ
ÙˆØ­Ø³Ø¨
ØªØ£
##Ø±ÙŠØ§Ø­
ÙŠÙ…Ù†Ø¹
Ø¨Ø§Ù„Ø¹Ù…Ù„
Ø´Ø·Ø±
##Ø°Ù‡Ø§Ø¨
##Ø¯ÙŠÙˆØ«
ØªØ¹Ù…Ù„ÙŠ
Ø§Ù„Ø¬Ø§Ø±
Ø­Ø§ÙØ¸
Ø§Ø´Ù‡Ø±
ÙˆØ¨ÙƒÙ„
##Ù„Ø¬
ÙŠÙ†ÙŠÙƒ
Ø§Ù„Ù…Ø§Ø¶ÙŠ
##Ø£ØµÙˆØ§Øª
##Ø³Ø·
Ø§Ù„Ø­ÙƒÙˆÙ…
ØªØµØ±ÙŠØ­
ÙŠØ³Ùˆ
Ø·Ù„
Ù…Ù‚Ø¯Ù…
300
##ÙØªØ­
ØªØ¹Ø·ÙŠÙ‡
Ø¹Ù†Ùƒ
Ø§Ø­ØªØ±Ø§Ù…Ø§Øª
ÙˆÙ‡Ø§Ùƒ
##Ø§Ù†Ùƒ
Ø¨Ø§Ø¹Ùˆ
Ø­Ø¶Ø±
##Ø±ÙƒÙˆØ¨
Ø§Ø±Ù…
Ø·Ø§
##Ø®Ø¨Ø§Ø±
Ø«Ù„Ø§Ø«ÙŠ
Ø±ÙˆØ³
##Ù„Ø³Ø¹Ø¯
##ÙˆÙ‚Ù
Ù„Ù†ÙØ³
##Ø£Ù‡Ø¯Ø§Ù
##ØªØ³ØªØ±
##Ø§Ù„Ø§Ù…Ø§Ø±Ø§Øª
Ø§Ù„ÙƒØ¨
Ù…ÙˆÙ„Ø§
ÙŠÙ…Ø«Ù„Ùˆ
ØªØ®ÙÙŠ
Ø§Ù„Ù…Ù„Ø­
##ØªÙ‚Ø³ÙŠÙ…
Ø®Ø±ÙŠ
Ù†Ø§Ø±ÙŠ
##ÙˆØ§Ø¬Ù‡
Ø±Ø§Ø¶ÙŠ
ÙˆÙŠØ²ÙŠØ¯
##ÙŠØªØ§Ù…
##ØªÙ‚Ùˆ
ÙŠØ¨Ø¯
##Ø£ÙƒØ«Ø±
Ø®ÙˆÙŠ
Ø£Ø³Ù…
ÙƒÙŠØ¯
Ø§Ù„ÙÙ„Ø§Ø­ÙŠ
##Ø§Ø¨Ø¯Ø§Ø¹
Ø§Ù„Ø£Ø·
ÙˆÙƒÙ„Ø§Ù…
##Ø§Ø±Ø­Ù„
ÙŠØ­ÙƒÙŠÙˆ
##Ø§Ù†Ù‚Ù„Ø§Ø¨
##ÙŠØ­Ù…ÙŠÙƒ
Ù†Ø¨Ø¯Ù„
Ù†ØµØ±
##Ø´Ù‰
##Ù†ÙØ³
##Ù‚Ø¨
ÙŠØ¹Ø§ÙˆØ¯
Ø¨Ø§Ù„Ø¯Ù…
##Ø§Ù„Ù†Ù‡Ø§Ø±
##Ø¶Ùˆ
##ÙÙ‚Ø±
ÙˆÙŠÙ†ÙŠ
##Ø²ÙˆØ±
##ÙŠØªÙ‡Ù…
Ù…Ø³Ø§
Ø³Ù
Ù„Ù„Ø¹Ø¨
Ø¨Ø²
Ø²Ø§Ù„
##ÙŠÙŠÙŠ
Ù…ÙˆØªÙˆ
##Ø±ÙˆÙ†
##Ø¬ÙˆØ¹
##Ù„Ø§Ù„
Ø´ÙˆÙÙ„
Ø®ÙˆÙ‡
##Ù…Ø±Ø§Ø¶
##ÙˆØ«ÙŠÙ‚
Ø§Ù„Ø¨Ø§
Ø§Ø³Ø·ÙˆØ±ÙŠ
Ø§Ù„Ø®Ø·
Ù†Ø±Ø§Ù‡
##Ø§Ù…Ø§Øª
ÙƒØ«Ø±Øª
ÙˆØ§Ù„Ø§Ù†
ÙŠÙ„Ø²Ù…Ùƒ
Ø³Ø§Ø¨Ù‚
ÙŠÙ‡Ù†ÙŠ
ÙˆØ¬Ø¹Ù„
Ù‡Ù†
##ØªÙ„Ùƒ
##Ø±ÙŠØ§
Ù…Ø±Ø³
Ø§Ù„Ù…Ù†Ø¸
Ù‚ÙŠØ§Ø¯
ÙŠØ­Ø¨ÙˆÙ†
##ØªØ­ÙƒÙŠ
##ÙŠØ§Ù†
##Ø¥Ø³Ø±Ø§Ø¦ÙŠÙ„
##Ù„Ø­Ø±Ø§Ù…
##Ø³ÙŠØ§Ø³ÙŠØ©
##Ø®Ø·Ø£
##Ø±Ø­
ÙŠÙˆØªÙŠÙˆØ¨
ÙŠÙ
##Ù‚Ø§Ø¹Ø¯
Ø§Ù„Ù…Ù„Ø§Ø¹Ø¨
Ù‚Ø³Ù…
Ø§Ù„Ø¹Ù‚Ø§Ø±
ÙˆØ§Ø¯
##Ù…Ø§Ø±
Ø§Ù„Ø¶Ø±
Ø£Ø«Ø¨Øª
##Ù…Ù„Ùƒ
Ø¬Ù†ÙˆØ¯
Ù…Ø­Ø¯ÙˆØ¯
##Ø¯Ù‡Ø±
Ù…Ø¬Ù†ÙˆÙ†
Ø§ÙŠØ§
Ø§Ù„Ù…Ø¯Ø±Ø³
ØªØ¨Ø±Ø±
ØªØ¨Ù‡Ø¯ÙŠÙ„
Ø§Ù„ÙØ§Ø¶Ù„
##95
ÙŠØ¹ÙŠØ·
ÙƒÙˆÙŠØ³
Ø±ÙŠØ§Ø¶
Ù…Ø³Ø§ÙƒÙ†
Ù…Ø«Ù„Ùƒ
ØªØ­Ø·Ùˆ
Ø±Ø§Ø¨ÙŠ
##ÙˆØ¹Ø©
Ø¬Ø²ÙŠÙ„
Ø§Ù„Ù‚Ø§ÙÙ„
Ù…Ù„Ø§Ø­Ø¸Ø©
ÙˆØ§Ù„ØªÙˆÙ†Ø³ÙŠ
Ø®Ø®Ø®Ø®Ø®
ØªØ³Ø¬ÙŠÙ„
Ø´Ø§Ù…Ø®
Ø§Ù„Ø§Ø´Ù‡Ø§Ø±
Ø®Ø¨Ø²
Ø§Ù„Ø¨Ù„Ø§ØªÙˆ
Ø§Ù„Ø¬Ø²Ø§Ø¡
ØªØ³Ø£Ù„
ØµØ±Øª
Ø§Ù„Ø§ØªØµØ§Ù„
ÙƒØ§Ø°Ø¨
Ø£Ø¯Ø¹Ùˆ
##ÙÙƒ
Ø§Ù„Ø¹Ø¬ÙˆØ²
Ø§Ù„Ø§Ù…Ø§
Ø²ÙˆØ¬Ù‡
Ø§Ù„Ù…Ø­ÙŠØ·
Ù†Ù„ÙˆÙ…
Ù…ØªØ®Ø§Ù
Ù…ØºÙÙ„
##Ø´Ø®Øµ
Ø§ØªÙÙ‡
##ØªÙ„ÙˆÙŠ
Ø®Ø§ØªÙ…
ØµØ§Ø­
Ø§Ù„Ø§Ù†ØªÙ‡Ø§Ø²ÙŠ
Ø§Ù„Ù…Ø¨Ø§Ø´Ø±
Ø¹Ø§Ø¯Øª
ÙƒÙˆÙ…Ù†ØªØ§Ø±
##ØµØ§Ù„Ø­
ÙŠØ­ØµÙ„
##Ø±ÙˆÙƒ
Ø§Ù„Ù…Ø¬ÙŠØ¯
##Ù†Ø§Øª
Ù„ØºÙŠØ±
Ù‚Ø±Ø±Øª
Ø§Ù„Ù…Ø´Ø§Ø±Ùƒ
Ø³Ø§Ù…Ø·
Ø§Ù„Ø§Ø¹Ù„Ø§Ù…ÙŠ
ØªØ¶Ù…Ù†
Ø­Ø´Ø§Ù‡
ØªØ¹Ø±Ø¶
Ø§Ù„Ø§ØºØ§Ù†ÙŠ
Ù„Ø¹Ø²ÙŠØ²
##Ø³Ø¨Ø©
Ù…Ù‚Ù‡ÙˆØ±
Ø§Ù„Ø¨Ø±Ø§Ù†ÙŠ
Ø¨Ù„ØºØª
Ø§Ù„Ù…ÙØ¶Ù„
##Ù…Ø§Ø°Ø§
Ø£Ø¬Ù†Ø¨ÙŠ
##Ø´ØªØ±Ùƒ
Ø¹Ù…Ù„Ù‡Ø§
Ø¨Ø±Ø¯Øª
Ø£ØµØ­Ø§Ø¨
##ÙƒÙˆØ§Ù„ÙŠØ³
##Ø¥Ù…ØªÙŠØ§Ø²
##Ø¬ÙŠØ¯Ø§
Ø¹Ø¬ÙˆØ²
ÙˆÙ…Ù†Ø§ÙÙ‚
Ø§Ù„Ù…Ù†ÙƒØ±
ÙŠØ§Ø§Ø§Ø±Ø¨
Ø³Ø±ÙˆØ§Ù„
##Ø§Ø³Ø¯
ÙØ®ÙˆØ±
Ù…ÙŠØ²Ø§Ù†
##Ø®Ø§ÙˆØªÙ†Ø§
Ø§Ù„Ù…ÙˆØ³ÙŠÙ‚
Ø§Ù„Ù‚Ù…Ø¹
Ù†Ø¸Ø±ÙŠ
Ù…Ø§Ø¹Ù†Ø¯Ù‡Ù…
Ø§Ù„Ø¨Ø±Ù„Ù…Ø§Ù†
Ø¶Ø¯Ùƒ
ÙŠØ¶Ø±
Ø§Ù„Ø´Ø¦
ÙŠÙ†Ø²Ù„
Ù…Ø³ØªØ¹Ø¯
Ø§Ù„Ø¹Ù…ÙŠÙ‚
##Ø¯Ù†ÙŠØ§
Ø§Ù„Ù…ØµÙ„Ø­
##Ø±Ø®ÙŠØµ
Ù†ÙˆØ§ÙŠØ§
ÙƒØ§Ø³Ø­
Ù…ÙÙ‡ÙˆÙ…
Ø§Ù„Ø±Ø®Øµ
ØªØ£Ø®Ø°
##Ù‚Ø§Ø¯Ø±
Ø¯Ø±Ø§Ù‡Ù…
Ø§Ù„Ø²ÙŠØ§Ø¯
Ø®Ø·Ø¨
##ÙƒØ§Ù…Ù„
ÙŠØªÙ†ÙØ³
ÙŠÙÙˆØ²
ÙˆÙ‡ÙˆÙ…
Ø±Ø¤ÙˆØ³
##Ø¯Ù‡Ù…
##Ù‡Ù‡Ù‡Ù‡Ù‡Ù‡Ù‡
ØªÙ†Ø­ÙŠ
ØªÙ…Ù„Ùƒ
Ø§Ù„ÙØ§ÙŠØ¯
ØªØ¹ÙŠÙŠÙ†
Ø¥ØµÙ„Ø§Ø­
Ø£Ø¹Ø§Ø¯
ÙƒØ¨Ø±Øª
##Ø³Ø¨
Ø­ÙƒÙŠØª
##Ø§Ø§Ø§Ø§Ù‡
Ù†Ù„Ø¹Ø¨Ùˆ
Ø§Ù„Ø­ÙŠÙˆØ§Ù†
Ø§Ù„Ø§Ù…Ø±ÙŠÙƒÙŠ
Ø§Ù„Ø±Ø¦ÙŠØ³ÙŠ
Ù†Ø¹Ù„Ù…
Ù…Ù‚Ù„Ø¨
ÙØ¯ÙŠØª
ØªØ¹Ø§ÙˆØ¯
##Ø­Ø¨ÙˆØ¨
ÙˆØ§ØªÙ…Ù†
Ø­ÙˆØ§ÙŠØ¬
ØªÙƒÙˆ
ÙˆÙŠØ¬Ø¨
Ø§ÙˆØµÙ„
ØªØ¹ÙŠØ´Ùˆ
##Ù‡Ù‡Ù‡Ù‡Ù‡Ù‡
Ø¥Ø·Ø§Ø±
ØªØ³ØªØ·ÙŠØ¹
Ø¯ÙŠØ³Ø¨Ø§Ø³ÙŠ
Ø§Ù„Ø´Ù‡ÙŠØ¯
##Ù†Ù‚Ù„Ùƒ
Ù†Ø±Ø¬Ùˆ
##Ø«Ù†Ø§Ø¡
ÙŠØµØ¯Ù‚
Ø§Ù…Ø±ÙŠÙƒØ§
Ø¹Ø³ÙƒØ±ÙŠ
ØºÙŠØ§Ø±
Ø¨Ø¶Ø­Ùƒ
Ø¹Ø°Ø§Ø¨
ÙŠØ­Ø´Ù…
Ù†Ø´Ø¬Ø¹Ùƒ
ØªØ§Ùˆ
##Ø¹Ø±
##Ø§Ù„Ø²ÙˆØ§Ù„ÙŠ
000
ÙŠÙ‡Ù…Ù†ÙŠ
Ø­Ø´Ù…
Ù‚Ø¶Ø§ÙŠØ§
Ø®Ø±Ø¨
Ø§Ù„Ø§Ø¨Øª
##Ø¯Ø§Ù†
Ø§Ù„Ù…Ø¨Ø§Ø¯Ø±
Ø§Ù„Ù…Ù†Ø²Ù„
Ø§Ù„Ø£Ø­
Ø´Ø§Ø°
Ø§Ù„Ù„Ø­Ø¸
Ø§Ù„Ù„Ø­Ù…
##ÙØ§Ø±
##Ù„ØªÙˆ
##ØµØ¯Ù‚Ø§Ø¡
Ø§Ù„Ù…Ø¯Ø§Ø±
Ù‚Ù„ØªÙˆ
ØªÙ†ØªØ¸Ø±
ØªØ¨ÙŠØ¹Ùˆ
Ø§Ù„Ø³ÙˆØ±ÙŠ
##ØªØ¨Ø§Ø¯Ù„
ØªØ¬Ø§Ø±Ø¨
Ø­Ø§Ù„Ù‡
Ø§Ù„Ø§Ù†ØªØ®Ø§Ø¨
Ø®Ù„ÙˆÙ†Ø§
Ø§Øµ
##ØªØ§ÙƒØ¯
##Ø¯Ù†ÙŠ
Ø§Ù„Ù…Ø­ÙƒÙ…
Ø§Ø®Ø¨Ø§Ø±
Ø²ÙŠØª
Ø§Ù„Ø¬Ø²ÙŠØ±
Ù†Ø§ÙØ¹
##Ø§Ù…Ø§ÙƒÙ†
ØªØ­ÙˆØ³
Ø§Ù„Ø¹Ù„Ø§Ù‚
##Ø¹Ø´Ø§Ù‚
##Ù…ÙÙŠØ¯
Ù…Ø³ØªØ¹Ù…Ø±
Ø¨Ù„Ø¯ÙŠ
Ù„ÙÙŠØ¯ÙŠÙˆ
ÙˆÙŠØ±Ø²Ù‚
ÙˆØ­ÙŠØ¯
##Ø¬Ø§Øª
Ø§Ù„Ø·Ø¨ÙŠ
##Ù†Ø§Ø±
Ø§Ù„Ø£Ùˆ
Ù…ÙˆÙ„Ø¯
ÙŠØ§Ù‚Ù
##Ø§Ù„Ù‚
ØºØ§Ø¨
Ø§Ù„Ø´Ø¹Ø§Ø±
##Ø±Ø§Ù‡
##Ø§Ù„Ø±Ø¬Ù„
Ø¨Ø±ÙƒØ§
Ø´Ù‚ÙŠÙ‚
Ø§Ù„ØµØ¯Ù‚
##ÙƒØ¨ÙŠØ±Ø©
Ø§Ø¬ØªÙ…Ø§Ø¹
Ø¹Ù‚Ù„ÙŠ
##Ø§ØªÙ†Ø§
Ø§Ù„ÙˆÙ„Ø§ÙŠ
##ÙˆÙˆÙˆÙˆÙˆÙˆÙˆÙˆÙˆÙˆÙˆÙˆÙˆÙˆ
Ø®ÙØª
Ø§Ù„Ù†Ùˆ
Ù†ÙƒÙˆÙ†Ùˆ
Ø§Ù„Ù…Ø³ÙŠØ­ÙŠ
Ø§Ù„Ù…Ø¬Ù‡ÙˆØ¯
ÙŠØªØ­Ù…Ù„
##ØªÙˆÙ†
Ø­Ù…Ø§Ø¯
Ù„Ù„Ù†Ù‡
Ø³Ø§Ø¨Ù‚Ø§
##Ø¨ØºÙŠØª
##Ø¸Ø­Ùƒ
Ù†Ø³ØªÙ†
ØªØ­Ù…Ù„
Ù…ØµÙ„Ø­ØªÙ‡
Ø§Ù„Ù†Ùƒ
Ø§Ø­Ù†
ÙˆØ³Ù„ÙŠÙ…
Ø®Ù„ÙŠÙˆ
##Ø¨Ø¯ÙˆÙ†
ØµÙ…Øª
##ÙŠØ²ÙŠØ¯Ùƒ
Ù‚Ø§Ø¨Ø³
Ø¨Ø§Ø±Ø¹
Ø§Ù„ÛŒ
##Ø§Ù„ÙŠØ³Ø§Ø±
##Ø±Ø´
ØªÙƒÙ„
##Ø¹Ù„ÙŠÙƒ
ÙƒØ§ÙØ±
Ø¬ÙŠØ±Ø§Ù†
##ÙŠÙˆ
Ù…Ø¹Ø±Ùƒ
##Ø³Ù‰
ÙÙˆØ±Ø§
ØµØ±ÙØª
Ù†Ø§ØµØ±
##Ø§Ø´ÙŠ
##Ø¨Ø³Ø§Ù…
ÙŠØ­Ø§Ø±Ø¨
##ÙŠÙ†ÙƒÙ…
##Ø§Ø¶
Ø§Ù„Ø­Ø§Ø±
ØµØ¯Ø±Ù‡
Ù…Ø§Ø¹Ù†Ø¯ÙŠ
##Ø§Ù„ØªÙˆØ§Ù†Ø³Ø©
ÙŠØªØ±
##Ù…Ø¹Ù„ÙˆÙ…Ø§Øª
Ø§Ù„Ø¹Ø±ÙŠ
##Ù†Ø¨ØºÙŠ
Ø§Ù„Ø¨Ø±Ùƒ
##Ø¬Ùˆ
##Ø±Ø§Ù‚
ÙˆÙ…Ø´
##ÙˆÙƒÙ„
##Ø±Ù…ÙŠ
##ØªÙ†Ø¨ÙŠØ±
##ÙØ²
ØªÙ†ØªØ®Ø¨
Ø·Ø¨ÙŠØ¹
Ø¹Ù†ØµØ±ÙŠ
##Ù†Ø³Ù…Ø¹Ù‡Ø§
##Ø´ØªÙ…
##Ù‚Ø§Ø¯Ù…Ø©
##Ø³Ù…Ø¹Ù‡Ø§
##ÙŠØ±ÙŠÙ†
##Ù…Ø¨Ø±
##Ø­Ùˆ
##Ø°ÙŠ
ÙŠØ´ÙÙŠ
Ù…Ø®ÙŠØ¨Ùƒ
Ù…ÙƒØ´
Ù†Ø®Ø¨
##ÙˆØ±Ùˆ
Ø§Ù„Ø¹ÙƒØ±
Ù…Ø³Ùƒ
##ØºØ§Ø¡
##Ø­Ø´Ù…
Ù…Ø­Ø·
Ø§Ù„ØµØ­Ø§ÙÙŠ
ØµØ±ÙŠØ­
##Ø¹ÙˆØ§
Ø±Ø¬
ÙŠØ®Ù„ÙŠÙ‡
ÙƒØ´
Ø³Ø¬Ù†
##Ø¤Ù…Ù†
Ù…Ø§Ø²Ù„
Ù†Ø¹Ø·ÙŠ
##Ù†ØªØµØ±
##Ø´ØªØ±Ø§Ùƒ
##ÙÙ„ÙˆØ³
Ø´ÙƒÙ„Ø§
##ÙØµÙ„
##Ø³ØªØ±
Ø§Ù„Ù„ÙˆÙƒ
ØªØµÙˆÙŠØ±
Ù‡Ù‡
Ù…Øµ
ÙŠØ§Ø§Ø§
Ù„Ø­Ù…ÙŠ
Ø§Ù‚Ø¨Ù„
##Ø¹ÙÙˆ
Ø§Ù„Ù‚Ù‡Ø±
Ø£Ø³Ø¨Ø§Ø¨
ØºØ²Ø§Ù„
Ø§Ù„Ù…Ø·Ø§Ø±
##ÙƒÙŠØ±
Ø§Ù„ÙØµØ­
Ù‚Ø·
##Ø¯ÙŠØ³
##Ø³ÙƒØ±
##Ø®ÙˆÙŠØ§
ÙÙ…Ùˆ
ÙŠØ§ÙƒÙ„Ùˆ
ÙˆØµØ¨Ø±
ÙƒØªØ±
##Ø¬Ø§ÙŠØ©
Ø¨Ø£Ù†Ù‡
##ØµÙˆØ§Ø¨
ÙƒØ£Ù†Ù‡
ÙŠÙƒØ¨Ø±Ùˆ
Ø§Ù„Ø¨Ø­Ø±ÙŠ
Ù‚Ø¯Ø±Ù‡
ØµØ§
##Ø³Ù„ÙˆÙ…Ø©
Ø§Ù„Ù…Ù‡Ø²
Ù…Ø¹Ø§Ø±Ø¶
##Ú¨Ù„
##ÙŠÙŠØ²
Ø§Ù„Ø¨Ø§Ùƒ
Ø§Ù„ØªÙ„Ø§Ù…
##Ø®Ù„Ø§Ù
##Ù…ÙˆØ§ØµÙ„
ØºÙŠØ±Ùˆ
##Ø­Ùƒ
ØªÙ…Ø¯
ÙˆÙ‚ØªÙƒ
##Ø¹Ø§Ø¦Ù„ØªÙƒ
ØªØ®Ø³Ø±
Ù…Ù†ØµØ¨
##Ø¬Ù…
ÙƒÙÙˆ
##Ø§Ù„Ù…ØºØ±Ø¨
##Ù†Ø³Ø§
Ø´ÙØ§
##Ù†ØµØ§Ø¦Ø­
##Ù†Ø¸Ø±
Ø§Ù„Ù…Ø¹Ù„ÙˆÙ…
ÙˆÙŠØ¨Ù‚
Ø§Ù„Ø­Ø¬
Ø¬Ø±ÙŠÙ…
ÙŠØ°Ù‡Ø¨
##Ø±Ø¯Øª
ÙˆØ§Ù„Ù†
ÙˆÙ‚Ù„Ø¨
ÙˆØµØ§Ø±
Ù…Ù„Ø¹Ø¨
Ø§Ù„Ø¹Ø±Ø§
Ø§Ù„Ù…Ø¯ÙŠÙ†
Ù…Ø³ÙŠ
ÙƒÙ†ØªÙˆ
Ø§Ø°Ù‡Ø¨
ÙŠØ¨Ø§Øª
Ø¬Ø¹
Ø¯Ø§Ø±Ùˆ
ÙˆÙƒÙŠÙ„
##Ø¶Ø±Ø¨
##Ù„ØªØ±Ø¬ÙŠ
##ØªÙ…Ø«Ù„
ÙŠØ¯Ùˆ
##Ø¹Ø§Ø±Ù
##Ø±Ø§Ø«ÙŠ
ÙˆÙ‚ØªØ§
##ØµÙ†Ø¹
ÙŠØªÙ…Ù…
##Ø±Ø¬Ø§Ù„
Ø§Ù„Ø§Ø²Ù…
Ø¥Ø¨Ø±
ÙˆØªØ±Ø¬Ø¹
ØªÙƒÙ„Ù…Øª
Ù…Ù„Ø­
90
ÙŠÙØªØ­
Ø®Ø¯Ø§Ø¹
Ø§Ù„Ø«ÙˆØ±
ØºÙ„
##Ø¬Ø§Ù„
##Ø¯ÙŠÙ†Ø§Ø±
Ø§Ø¹Ù„
Ø§Ù„ÙÙ‚ÙŠ
Ø§Ù„Ø²Ù…
Ø¹Ù
Ø§Ù„Ù…ØºÙ†ÙŠ
Ø£Ø¬Ø¯
ØºÙ†Ø§Ø¡
##Ø±Ø­Ù„Ø©
##ÙÙ‡
##Ø¯ÙˆØ¯
##Ø­Ø³
##ØªØµÙ„Ø­
ÙŠØ¬Ù…Ø¹
##Ø§Ø§Ø§Ø§Ø§Ø§Ø§Ø§Ø§Ø§Ø§
ØªØ¬Ù†Ù†
ØªØ­Ù„Ù…
ØªØ¹Ù„Ù‚
##Ø§Ù…Ø§
ÙˆØ¬Ø§ÙŠ
Ø§Ø®Ø°
ØªÙ†Ø¬Ù…Ùˆ
ØªØ®Ù„Ø·
##Ø¬Ø±Ø£
ÙŠØ¨ÙŠÙ†
Ø§Ø³Ù…Ø¹Ùˆ
Ø³Ø¨Ø§Øª
##Ø±ÙŠØ¡
Ø®Ù„ÙŠÙ‡Ø§
ÙŠØ³ØªØ±Ùƒ
Ø­Ù„Ø§
ÙŠØ³Ø§Ø¹Ø¯
Ù…Ù†Ø¹Ø±Ù
Ù…Ø´ÙƒÙ„Øª
##ÙˆÙ‚ÙˆÙ
##ÙˆØ¬ÙˆØ¯
Ø£Ø¯
Ø§ØªÙ…Ù†Ø§
ØªÙÙˆØª
Ø¨ØµØ­ØªÙƒ
Ø­Ø¯Ø§
ØªÙ†Ø³
##Ù„Ø¨Ø³
##Ù„ÙÙ„
##Ø³Ùƒ
ÙŠÙ„Ø¹Ø¨Ùˆ
Ø´Ø±ÙØª
ØªØº
Ø£Ù‚ÙˆÙ„
Ø§Ù„Ø³Ù…
ØºØ´
Ø¯Ø¹
ÙŠØ§Ù…Ø¹Ù„
Ø¬Ù†Ø³
Ø§Ù‚ØªØµØ§Ø¯
Ø´Ù‡
##Ù„Ø£
##Ø®Ùˆ
ØªØ§Ù„ÙŠ
##Ø§Ù„Ø§Øª
##Ù„Ù…ØºØ§Ø±Ø¨
Ø§Ù„Ø¹Ùˆ
Ù…Øº
Ù†Ù‚Ø¯Ø±
ÙƒØ±Ù‡ØªÙˆ
ØªØªØ¹Ù„Ù…
Ø§Ù†Ø­Ø¨
Ù…Ø¹Ø§Ù…Ù„
##Ø¹Ø§Ø¯Ù„
##Ø§Ø®Ø·Ø§Ø¡
Ø¯Ù…Ø¹
##ØºØ¨ÙŠ
ÙˆØ³Ù†
ÙŠØ­Ø¶Ø±
ÙŠÙˆØµÙ„Ùˆ
ÙƒØ§Ù„Ø¹
ØªØ¯Ø®Ù„Ùˆ
Ù…Ù†Ø¬Ù…
Ø§Ù„Ø¬Ø²Ø§ÙŠØ±ÙŠ
Ø¯Ø±Øª
##Ù‚Ø§
Ø§Ù„ØºØ§Ù„
##Ø§ÙƒØ¨Ø±
Ù…Ø³Ù„Ù…ÙŠ
##Ø¹ÙŠØ¨
Ù†Ø¨Ø±
##Ù„ÙŠØ¨
##ØªØ§Ø¨Ø¹
Ø¨Ø·
Ø´ÙƒÙˆ
Ù‡Ø¨
Ø±Ø§Ø¬Ø¹
##Ø²Ùˆ
Ø§Ù„Ø¬Ø¨
##Ø³ÙŠØ³
Ø¹Ø¨Ø§Ø±
##Ø¹Ø§Øª
##Ø¨ÙŠÙƒ
##Ø±Ø¦
Ù†Ø¬ÙŠØ¨Ùˆ
ØªØ¬Ø¨Ø¯
Ø¹Ø±Ø§
##Ù‡Ù„
Ù…Ø§Ù„ÙŠ
##ØªØ·Ø¨ÙŠÙ‚
ÙÙ†ÙŠ
Ø§Ù„Ø§Ø¹Ø¨
##Ø´ÙŠØ´
##Ø¹ÙŠÙ†Ùƒ
Ø§Ù„Ø¯ÙˆØ±
##Ø£ØµØ¨Ø­
##ÙƒØ´Ù
ÙˆØ§Ù„Ø¯ÙˆÙ„
Ø­Ù†
##ØªØ±Ùƒ
Ø§Ù„Ø¨Ù‡Ø§
##Ù…ØµØ¯Ø§Ù‚ÙŠØ©
Ù‚Ù†
Ø®Ø§Ù
Ù„Ù„Ø¬
##Ù†Ø¬Ù…
Ù…Ù†Ø§ØµØ¨
##Ø°ÙŠØ¨
Ø§Ù„Ø§Ø±Ù‡Ø§Ø¨ÙŠ
Ù†ÙƒÙ…Ù„
Ù†Ù‚Ø§Ø¨
Ø¬Ù„Ø³
Ø°Ø§Ùƒ
Ø§Ø­Ø´Ù…
ÙˆÙŠØª
Ù†Ø³Ø§Ù„
##Ø³Ø±Ù‚
Ø¨Ø§Ø±Ø´
Ù…ÙƒØ±
Ø´Ø¤
##Ø§Ù„ÙÙ‚Ø±
##Ù‡Ø¬ÙˆÙ…
##Ù…ÙˆØ³Ù…
ÙŠØ¨Ø·
ØªØ¨Ø¹ÙŠ
Ø§Ù„Ø¨Ù†Ùˆ
##Ø±Ø§Ø­
##Ø³Ù„Ø§Ø­
Ù†Ø²ÙŠØ¯
ØºØ¨ÙŠ
##Ø¯ÙƒÙ…
Ù†Ø¬Ù…Ùˆ
Ø¨Ø¥
##Ø³Ù„Ø§Ù…
ØªÙ†Ù‚
Ø¨Ù…Ù†
Ø§Ù‡Ø¯
##Ù„Ø³
##Ø§Ø±Ùƒ
Ø§Ø®ÙˆØ§Øª
##Ù„Ù…ÙˆØ³Ù…
Ø³Ø§Ù…Ø­Ùˆ
ÙˆØµ
Ø§Ù„Ø·Ø§Ø¹
Ø¯Ø¨Ø±
ÙˆÙ…Øª
##ØºÙ„
ØªØ±Ø§
##Ø¨Ø±Ùƒ
ÙˆÙ†ØªÙˆÙ…
ØµÙˆØªÙˆ
Ø¬Ø¯Ùˆ
ØªØ±Ø¶
##Ø·Ø¨Ù‚
ÙˆÙ‡ÙˆØ§
##Ù„ØªØ²Ù…
ÙŠØ­Ù‚Ù‚
Ù†ÙƒØªØ¨
##ØªØ±Ø§Ø¬Ø¹
ÙŠØ´ÙÙŠÙƒ
Ø·Ø§Ù…Ø¹
ÙˆØµÙˆØª
Ø¬Ù„Ø¨
##ÙˆÙˆÙˆÙˆÙˆÙˆ
##Ø¯ÙØ¹
##Ø­Ø§Ø¬
Ø£Ù…ÙŠ
Ù„Ø¯ÙŠÙƒ
##ØªØ­Ø§Ø¯
##Ø­Ù„Ùƒ
Ù„Ø§Ø²Ù…Ùƒ
##Ù‚Ø¨Ø­
Ø·Ù„Ù‚
##Ù†Ø·Ø¨Ù‚
ØªØ±Ø¨Ø­Ùˆ
Ø¶ÙŠØ¹
ÙÙ‡Ù…ÙˆÙ†
##Ø§Ø§Ø§Ø§Ø§Ø§Ø§
##Ù…ØºØ§Ø±Ø¨
##ÙØ§Ù‡
Ø¢Ù†
##Ø¹Ù„ÙŠ
ØµÙ„Ø§Ø­
Ø§Ø³ØªÙ…Ø±
Ø³Ø§Ø¹Ø¯
##ÙŠÙÙˆØª
Ù…ÙŠØ¯Ø§
Ø£Ø³Ø¨ÙˆØ¹
##ØªØ¹Ø§Ù„ÙŠÙ‚
Ø§Ø¹Ù„ÙŠÙƒ
##Ø­Ø¨Ùƒ
ÙˆØ¯
##Ø¯Ø±Ø¬
ÙŠØªØ¹Ø¯
Ú¨Ø¯Ø§
##Ø±ÙŠÙ…
##Ù„Ø§Ø²Ù…
Ù„ÙŠÙ„
ÙŠØ­ÙØ¶
##Ù…ÙˆØ§Ù‚Ù
ÙØ±Ø§Ù†Ø³
ØªÙ†Øª
##Ø³Ø§Ù…ÙŠ
##Ø³Ø§Ù‚Ø·
Ø¹Ù„ÙˆØ´
##Ø§ÙˆÙ„Ø§Ø¯
##ØªØ¬
ØªÙ„ÙØ²
Ø§Ù„ÙˆØ²
Ù†Ø±ÙˆØ­
##Ø±Ø§Ø¹ÙŠ
##Ù€Ù€Ù€Ù€Ù€Ù€Ù€Ù€Ù€Ù€Ù€Ù€Ù€Ù€Ù€
Ø§Ø«Ù†
##Ø¨ÙƒÙ…
ÙŠÙÙƒ
Ø¬Ø±Ø¬ÙŠØ³
Ù†Ù‡Ø¶Ø§ÙˆÙŠ
Ø§Ù„ÙƒØ§Ø¯Ø­
Ø³ÙŠØªÙƒÙˆÙ…
##Ø¶Ø¶Ø¶
Ø§Ø²Ù…
Ø§Ù„Ù‚Ø¨ÙŠØ­
##ØªØµØ§ÙˆØ±
Ù…Ù‚ØªÙ†Ø¹
31
Ù„Ø³Ø§Ù†
ØªÙ„
Ù…ØºØ±ÙˆÙ…
Ø§Ù„ÙˆØ§Ø³Ø¹
Ø³Ø®ÙˆÙ†
Ø¨Ø£Ù†ÙØ³
Ø§Ù„Ø²ÙŠØªÙˆÙ†
##Ø¨ÙˆØ´
Ù†Ø§Ø²Ùƒ
Ø§Ù„Ù…Ù†Ø§Ø¶Ù„
Ø§Ù„Ø´ÙØ§Ù
ÙŠØ¹ØªØ°Ø±
Ù…Ø±Ø§Ùƒ
ØªÙ‚Ø¹Ø¯Ùˆ
Ø§Ù„Ø£Ù‡Ù„ÙŠ
##ØªÙƒØ¨Ø±
Ø§Ù„Ø¹Ø§Ø¬Ù„
Ø¨Ø§Ù„ÙØ±Ù†Ø³ÙŠ
Ù‡Ø¯Ø§Ùƒ
ØªØ±ØªØ§Ø­
Ø§Ù„Ø¨ÙˆÙ…Ø§ÙŠ
Ø®Ø¶Ø±Ø§Ø¡
Ù…Ø­Ø§ÙƒÙ…
ÙŠØ¹Ù‚Ù„
Ø§Ù„Ø­Ø§ÙÙ„
Ø§Ù„Ù…Ø³ØªØ­ÙŠÙ„
ÙØ¹Ø²Ùƒ
ØªØ±ÙŠØ®
Ø§Ù„ÙÙ„Ø³Ø·ÙŠÙ†ÙŠ
##Ù†Ø´Ø±
ÙØ¹Ù„Ù‡
Ø§Ù„Ù†Ø§Ø¬Ø­
Ù…Ø¯Ø§
Ø§Ù„Ù…Ù‚
Ø§Ø¶Ø±Ø¨
Ø§Ø«Ø¨Øª
##ØªØ¹Ø±Ù
##Ø³Ù„Ø³Ù„
Ù„Ù„Ø¬Ù…Ù‡ÙˆØ±
Ù…ØªÙÙ‚
Ø§Ù„Ø­ÙƒÙŠÙ…
Ø§Ù„ÙŠÙƒ
Ù†Ø³ÙƒÙ†
ÙŠØµÙ†Ø¹
ÙŠØ«Ø¨Øª
Ø¨Ù„Ø¹ÙˆØ·
Ù†ØºÙ†ÙˆÙ‡Ø§
Ù…ØªØ£Ù„Ù‚
##Ø´Ø±ÙˆØ·
Ø¨Ø­Ø¶ÙˆØ±
Ù„Ø¬Ù…Ø¹ÙŠ
ØªØ¬Ø§Ù‡
Ù…Ù†Ø§Ø¸Ø±
##Ù„Ø±Ø³ÙˆÙ„
Ù†ÙØ±Ø­Ùˆ
Ø§Ù„Ù…Ø±Ø¡
Ù†Ø¹ØªØ¨Ø±
Ø§Ù„Ù…Ø±ØªØ¨Ø©
Ù†ÙŠÙÙˆ
##Ø°Ø§Ù‡Ø¨
Ù…Ø³ØªØºØ±Ø¨
Ø§Ù„ÙØ¶Ø§Ø¦
Ù…Ù…Ø³Ø·
ÙŠÙ‡Ù†ÙŠÙ‡
Ø¨Ø§Ù„ÙÙŠØ¯ÙŠÙˆ
Ø§Ù„Ù…Ø´Ø¨ÙˆÙ‡
ØªÙ‚Ø¶ÙŠ
Ù„ÙØ¸
ØªÙÙŠØ¯
##ÙŠÙ†Ø¸Ø±
Ù…Ø±Ø§Ù‚Ø¨
ØªÙˆØ¬Ø¹
Ø§Ù†ÙˆØ§Ø¹
Ø¹Ù‚Ù„ÙŠØª
Ø§Ù„Ø£Ø³Ø¯
ÙØ¯ÙˆÙ‡
Ø§Ù„Ù…ØªØ­ÙŠÙ„
Ù…ÙˆÙ„ÙˆØ¯
Ø§Ù„Ø§Ø­Ù…Ø±
##ØªØ£Ù„Ù‚
##Ø§Ù†Ù‡
##ÙŠØ±Ø­Ù…
Ø£ØµÙŠÙ„
Ø´ÙŠØ·Ø§Ù†
Ø§Ù„ØªØ³ÙŠÙŠØ±
##ÙˆØ³Ø·
60
ØªØ®ØªØ§Ø±
Ø¨ÙˆØ³
Ù…ÙˆÙ„
##Ø®ØªÙ„Ù
ÙØ£Ù†Øª
Ø§Ù„Ù‚Ø§Ø³Ù…
Ù…ÙˆØ¨Ù†
Ø®ÙˆØ§
##02
Ø§Ù„ØªÙ†ÙÙŠØ°
Ø­Ø§Ø·ÙŠÙ†
##Ø¬ÙŠÙ„
##Ø§Ø¦ÙŠ
##Ø³ØªØ­Ù‚Ø§Ù‚
Ø§Ø³Ù„Ø§Ù…
Ø§Ø¬Ù†Ø¯
Ù…Ø´Ù‡ÙˆØ±
##ØµÙ„Ø­
Ø¹Ø¶Ùˆ
Ø´ÙƒØ¯
Ø¶Ø§Ø±Ø¨
Ù…ØºØ§Ù„Ø·
Ù„Ù„ÙˆØ·Ù†
Ø£ÙˆØ±Ùˆ
Ø§ÙŠØ´
Ø¨Ù„ÙŠÙŠÙŠØ²
##Ù„Ø¹Ø§Ù„Ù…
Ø¨Ù‡Ø°
Ø§Ù„Ø°Ø¦
Ø·Ø¹Ù…
Ø·Ø­ÙŠÙ†
ØªØ­ÙˆÙŠÙ„
Ø´Ù„Ø§Ùƒ
ØªÙÙˆØ²
ØªØµØ¨Ø­
Ø§Ù„Ø±Ø´
Ø³Ù‚ÙˆØ·
Ø§Ù„Ù‚Ù…Ø±
##ÙŠØ¡
Ø±ÙŠØ§Ø¶ÙŠØ§
ÙŠØ²Ø¯Ø§Ø¯
Ø£ÙÙ‡Ù…
Ù„Ù„Ù…ÙˆØ§Ø·Ù†
ØªØ¹Ø±
##ÙŠÙ‚Ø±Ø±
Ø§Ù„Ø¶Ø¹ÙŠÙ
##Ø¹Ø±Ø§Ø³
Ù…Ø²ÙŠÙ
Ø§Ø³ÙƒØª
Ù…ØµÙŠØ¨
ØªÙˆÙ‡
ØªØ´ØªØ±ÙƒÙˆ
ÙŠØ­Ù‚
Ù†Ù‚ÙˆÙ…
Ø§Ù…Ø³Ø®
Ø§Ù„Ø­Ø«Ø§Ù„
ÙˆÙ„Ø§ÙƒÙ†
##Ø¯Øª
##Ø¹Ø§Ø±Ø§Øª
Ù†Ø²ÙŠÙ‡
Ø§Ù„Ø·ÙŠ
Ø²ØºÙˆØ§Ù†
Ø¶Ø§Ù‡Ø±
Ø§Ø´Ùƒ
ÙŠØªÙ…ØªØ¹
##Ø¨Ø§Ø¹
Ø£Ø®ØªÙƒ
Ù…Ø¨Ø±Ø±
Ù…Ù‚ÙˆØ¯
##Ù„ÙŠÙ†Ø§
Ù†ØµÙŠØ¨
##Ø§Ù„ÙŠÙˆÙ…
Ø¨Ù„Ø§Ùƒ
Ø§ØªÙƒÙ„Ù…
ÙÙ…Ù†
##Ø¨Ø±Ùˆ
Ø­Ø´Ù…Øª
##Ø°Ù‚ÙˆÙ†
Ø²Ù‡
##55
Ø¯Ø±ØªÙˆ
ØªØ§Ù‚Ù
Ù…Ø³Ø±Ø­ÙŠØ©
ÙˆØ¹Ù…
Ø§Ù„Ø¥Ø¹Ø¯Ø§
Ø­Ø¶Ø±Øª
Ù…Ù†Ø¸ÙˆÙ…
ÙˆØ§Ù„Ø³Ù„
Ø¬Ù„Ø¯
Ø§Ø­ÙØ¸
Ø§ØªÙØ±Ø¬
Ø®ÙˆØ°Ùˆ
Ù„ØªÙƒÙˆÙ†
##Ø¬ÙŠÙ†
ÙŠÙ‡Ø¨Ù„Ùˆ
Ø³Ø®Ù
Ø¨Ø§Ù„ØªØ§Ù„ÙŠ
ØªØ­Ø§Ù„Ù
ÙØ§ÙŠ
Ø§Ù„Ø­Ù†ÙŠ
ØµØ§Ø­Ø¨Ùƒ
Ø§Ù„ÙƒØ±Ø´
Ø¨Ø­
Ø§Ù„Ù…Ø­Ø§Ø³Ø¨
##ØºØ§ÙÙ„
Ø§Ù„Ù…Ø­Ù„ÙŠ
Ø§Ù„Ø¨Ù„Ø§
Ø¨ÙŠØ±Ùˆ
Ø³ÙˆØ§Ù‚
Ø§Ø³Ø£Ù„
Ø®Ø·ÙŠØ¨
Ø§Ù„Ø®Ø·Ø±
Ù„Ù„Ø¹
Ø§Ù‚ØªØµØ§Ø¯ÙŠ
ØªØ­Ù…ÙŠ
Ø¥Ø´ØªØ±Ùƒ
##ØªÙˆØµÙ„
##800
Ø°Ø§ØªÙ‡
##Ø¹ÙˆÙ†ÙŠ
ØªØ§Ø¨Ø¹Ùˆ
Ú¨Ù„Ø¨
Ø§Ù„ÙØªØ±
Ø§Ù„Ø§Ù…Ù„
Ù†Ø®
ÙˆØ¯Ù„Ø§Ù„Ùƒ
Ù‡Ø²ÙŠÙ…Ø©
Ø¨Ø·Ù„Ø¨
Ø¬ÙˆÙ‡Ø±
Ø§Ø²
ÙŠØªØ³Ù…
ØªØ±Ø´Ø­
Ø§Ù„Ø±Ù‚ÙŠ
Ø§Ù„ÙˆØ²Ø±Ø§
ØªØ¨Ø®Ù„
ØµØ±Ù
Ø§Ù†ØªÙ‡Ø§Ø²ÙŠ
ØªØ¬Ø§ÙˆØ²
Ø¹Ø¯Ø§Ùˆ
Ù„Ù‡Ø¬ØªÙ†
Ø£Ø±Ø¬Ø¹
ØªØªÙ…Ù†
##ÙˆÙ†Ø³ÙŠ
Ø§Ù„Ø§Ø¬Ø§Ø¨
Ø®Ø±Ø§ÙÙŠ
Ø¬Ø³Ø¯
Ø¨Ø£Ø¨ÙˆÙ†
Ù…Ø¹ØªÙ…Ø¯
Ø¨Ù‡Ø§ÙŠ
ØªÙ…Ø§Ù…
Ø¨Ø§Ù„Ù„Øº
##Ù†Ø·Ù„Ù‚
Ù†Ø¨Ø¯Ø§
Ø¨ÙˆØ¯Ø±
Ø§ÙˆÙƒ
ØºØ±Ø§Ù…
ÙˆØ§Ù„Ù‡
Ø§Ù„Ù…Ù‡Ø¯ÙŠ
Ø¨Ø±Ø¯
##ÙˆØ§Ø±
Ø¨Ø¯Ù„ÙˆÙ‡
Ù†Ø²ÙŠØ¯Ùˆ
Ø§Ù„Ø­Ø¬Ø§
Ø§Ù„ØµÙ…
Ø­Ø§ÙÙ„
##Ø³ÙˆØ£
##ØªÙØ§Ø¹
ØªØ®Ù
##Ù…Ù„Ø§Ø¨Ø³
##Ù†Ø§Ø¶Ù„
ØµØºØ±
##ØºØ¶Ø¨
ØªÙ†ØµØ­
Ø§Ù…Ù‡
Ù†ØµÙŠØ­Øª
Ù…Ù†Ø§Ø¶Ù„
ÙŠØ´Ùˆ
Ø´ÙŠØ¨
ÙŠØ±Ø¶ÙŠ
Ù…ØªÙˆØ³Ø·
ÙˆÙ…Ø¨Ø¹Ø¯
Ø¹Ù…ÙŠÙ‚
Ù…Ø§ØªØ­Ø¨
Ù…ØªØ¹Ù…Ù„
Ù„Ø¯Ø¹Ù…
ÙŠØ¹Ø§ÙˆØ¯Ùˆ
Ø§Ù„Ø¹Ø§Ø¯ÙŠ
Ø¹Ø¬Ø¨Ø§Øª
Ø¶Ø®Ù…
Ø§Ù„Ø±Ø¨
##Ø§Ù„Ø¯Ø¹Ø§Ø±Ø©
Ø§Ù„Ù…Ø±ÙŠ
Ø¨Øº
##Ø³Ù…Ùƒ
Ø¯Ø§ÙŠ
Ù…Ø§Ø¹Ù†Ø¯Ùƒ
##Ù„Ø±
Ø§Ù†Ù‚Ù„Ø§Ø¨
Ù…Ø§ÙÙŠÙ‡
ÙŠÙ†Ø¬Ù…Ùˆ
Ø¬Ø²Ø§Ø¡Ø±ÙŠ
Ù…Ø§ØªÙ†Ø³Ø§
##Ø­Ø¨Ø´
##Ø³Ø§Ù…
Ù„ØºÙŠØ±Ùƒ
##Ø­Ø§Ø¬Ø§Øª
Ù‡Ø¨Ù„Øª
ÙˆÙÙ‚
##Ù‚Ø§Ø±
##ÙØ±Ù†Ø³Ø§
ÙŠØ³ØªÙ†
##Ù‚Ø§Ø¬
Ù†Ø±Ø¨Ø­
ØªØ±Ø§Ø³
##ØªØ¨
##Ø£Ø³Ø¦Ù„
ÙØ§Ù‡
Ø¬Ø¨
Ø§Ù„Ù…Ø­Ù„
##Ø¶Ø±
ØªØ¹Ø¨Ø±
Ø¯Ø§Ø¹
Ø§Ø¨Ø¹Ø«
Ø£Ø¬Ù…
ÛŒ
##Ø§Ù„ÙˆØ§Ø¬Ø¨
##Ø§Ù†Ù‡Ø§
Ø¶Ø­
ØªØ¹ÙŠ
Ø§Ù„ØªØ±Ø§Øª
Ø¹Ù‚Ø¨Ø§Ù„
Ø§ÙØ³Ø¯
ÙˆØ­Ù„Ùˆ
Ø¶Ø±ÙˆØ±ÙŠ
Ø§Ù„Ù…Ø­Øª
Ù†ØªÙØ±Ø¬Ùˆ
Ø³ÙƒØª
Ø§Ù„Ø­ÙˆÙ…
Ø¨Ø§ØºÙŠ
ÙØªØ§
Ù‡Ù…Ùƒ
##ÙˆØ²Ù†
Ø£Ø­Ù„Ø§
Ø§Ù„Ø¬Ø±
##Ø§Ø´ØªØ±Ø§Ùƒ
ÙŠÙˆØ¬Ù‡
ÙŠØ¹Ø±ÙÙˆÙ†
##Ø§Ù„Øª
##Ù‚Ù†Ø§
##Ø§Ù„Ø§
Ø®ÙŠØ§Ø±
##Ø§Ø²Ø±Ù‚
Ø³Ø®Ø±
##Ø®ÙŠØ¨
Ø¹Ù„Ù…ÙŠ
ØªØ¶Ø­ÙŠ
Ø§Ù„Ø·Ù„Ø¨
Ø§Ù„Ø°Ù‡Ø¨
Ù…ÙƒØ§Ù
Ù†Ù‚Ø¨Ù„
ÙŠÙ…Ù‡
Ù†Ø¹Ø±
##Ù†Ù‚Ø§Ø·
Ø§Ù„Ø±Ø³Ø§
ÙŠØ¹Ø·ÙŠÙ‡Ø§
##ÙˆÙˆÙˆÙˆÙˆÙˆÙˆÙˆÙˆÙˆ
Ø§Ù„Ø±ÙŠØ³
Ø§Ù„Ø¹Ø¶
Ø§ÙƒÙˆÙ†
ÙŠØ®Ø§ÙÙˆ
Ù„Ø®ÙˆØª
Ø§Ù„Ø§Ùˆ
##Ø­Ø³Ø¨
##Ù…ÙˆØ§Ø¬Ù‡
Ø¨Øµ
ÙŠÙ‚ÙˆÙ„ÙˆÙ„
ØªØªÙØ±Ø¬
Ø§Ù„Ù†Ø¶Ø§Ù„
##Ù‚ÙŠÙ…
##Ù…ÙŠØ¯ÙŠØ§
Ø¬Ø§Ù…Ø¹
##ØªØ¹ÙŠØ´
Ø¨Ù…Ø¹Ù†
Ù‡ÙŠÙƒ
##Ø°Ùˆ
Ø§Ù„Ù…Ø³Ø§
##ÙŠØ®
Ø¯ÙˆÙ…Ø§
Ø§Ù„Ù…Ø¹Ù„Ù…
Ù‚Ù„ØªÙ‡Ø§
Ø§Ù„ÙˆÙ‚
Ø§Ø¬Ù…Ø¹
16
Ø­Ù…Ø§ÙŠ
##Ø¯Ø±ÙŠ
ØªØ³Ùˆ
ÙŠØªØ²ÙˆØ¬
Ø²ÙŠØ¯Ùˆ
ÙƒØ±ÙˆÙŠ
Ø§Ø³Ø§Ù„
ÙŠØªØ¨
Ù…Ø¬Ù„
Ù…ÙˆØ²
ÙŠÙ‚Ù„ÙŠ
##Ø§Ø®
ØªØ³Ù…Ø­
##Ø§Ù„Ù…ÙˆØª
ØªØªÙ…
##Ù‚ÙŠÙ‚Ø©
Ù…ØªÙ†Ø³Ø§
ØªØ®Ù„Øµ
##ÙØ±ÙŠ
Ø°Ù†ÙˆØ¨
Ù…Ø§Ø¹Ù†Ø¯Ùˆ
Ù…ØµØ¯Ù‚
##Ù„Ø®Ø§Ø±Ø¬
##ØªØ±Ø¬ÙŠ
Ù…Ø±ÙƒØ¨
Ù…Ø¬
##Ø¬Ø£
##Ø¬Ø§ØªÙ†ÙŠ
ÙˆØ¹ÙŠØ´
##Ø¹Ø±Ø³ÙŠ
##Ø¶Ù„
##Ù†Ø§Ù‡Ø§
Ø§Ø³ØªØ¹Ù…Ù„
ØªÙ…Ø±Ùˆ
ØªØ¤
Ø®ÙˆÙ†Ø§
Ø§Ù„Ø¹Ø¬Ø¨
ØªØ­Ø´Ùˆ
##ÙÙŠØ§Ù†
Ù†ÙˆÙ…Ø±Ùˆ
Ø§Ù„Ù…Ø¬Ù„
Ø§Ù„Ù‚Ø§Ø¹Ø¯
ÙƒØ±Ù…
##ÙˆØ´Ø§Ù…
ØµØ±Ø§Ù…
Ø´ÙˆÙƒ
Ø¨ÙˆØ²
Ø¨Ø­Ø°Ø§
Ø§Ù„Ø­Ù…Ø§Ù…
Ø§Ù†ØµØ­
##Ù…ÙˆØ³
ØªÙ‚Ù„Ø¨
##Ù‚ÙˆÙ„ÙˆÙ„Ù†Ø§
Ø¨Ø§Ù†Øª
Ø§Ù„Ø±Ø§Ø¦Ø¹
##Ù…ÙˆØ§
##Ø±Ø¬Ø¹
ÙŠØ°ÙƒØ±
##ÙŠÙ‡Ù…ÙƒØ´
ØªØ­ÙˆÙ„
Ù…Ù†ÙŠ
ØµÙ„Ø¨
##Ù…Ø¶ÙŠ
Ø¨Ø²Ø§Ø§Ø§Ø§Ø§Ø§
Ø§Ù„Ø¯ÙŠÙƒØªØ§ØªÙˆØ±ÙŠ
Ø§Ù„Ù…Ø±ÙƒØ§
ÙŠÙ†ØªØ®Ø¨Ùˆ
Ø£Øº
Ø³Ø¹Ø¯Ùƒ
Ø¨Ø§Ø±ÙŠ
##Ù€Ù€Ù€Ù€Ù€
##Ù‚Ø±Ø§Ù†
ÙˆØ§Ø¹
Ø±Ø¬Ù„Ø§
##Ø§ØµÙ„
Ù†ÙŠ
Ø¨Ø¥Ø³
Ù„Ø±Ø¬Ø§Ù„
##Ø¬Ø§ÙˆØ¨ÙˆÙ†ÙŠ
ØªØµÙ†Ø¹
Ø§Ù„ÙØ¦
##Ø·Ù…Ø§Ø·
Ø¹ÙŠØ·
##Ø¸Ø±
Ø§Ù„Ù…Ù†Øµ
##Ù…Ø«Ø§Ù„
ØªÙ…Ø³Ùƒ
Ø¨ÙŠØ¯Ù‡
ÙØªÙ†
ÙˆØ§Ø­ØªØ±Ø§Ù…
##Ø³Ø¨Ø§Ù†
Ø§Ù„ØµØ­ÙŠ
Ø§Ù„ÙÙˆØ¶
##Ø±Ø³Ø§Ù„
Ù…Ø®Ù„Ùˆ
Ø«Ø¨Øª
Ù†Ø­Ø·
ÙˆØ¬Ùˆ
ÙØ§Ø¶ÙŠ
Ø¯Ø®Ù„ØªÙˆ
Ø§Ù„Ù†ÙˆØ±
Ù…ØµØ­
##ØªØ­
Ù…Ø¹ÙŠÙ†
ÙŠÙƒØ¨
ØªØ¶ÙŠØ¹
Ø§Ù„ÙŠÙˆÙ…ÙŠ
##Ù„Ø¨ÙŠØ¨ÙŠ
Ø¹Ø·ÙŠØª
ÙˆÙ‚Ù„
##Ù‚Ø§Øª
Ù†Ù‚Ø±
##Ù‡ÙˆØ¯
Ù†ØªÙ…Ù†Ø§
##Ù‚ÙØµ
Ø§Ù„ØµØºÙŠØ±Ø©
##Ú¨ÙŠ
ØªØ³ÙˆÙŠ
##Ø¹Ù…Ø§Ù„
ÙˆÙ†Ù‡Ø§Ø±
##Ù„ÙØ´Ù„
Ø¨Ø§Ø¹ØªØ¨Ø§Ø±
Ø¨Ù„Ø¯Ø§Ù†
##Ø³ØªÙ‚Ø±Ø§Ø±
Ø§Ù†Ø¬Ù…
##ÙƒØ±Ø§Ù…
##ÙÙƒØ±
##ØºØ±Ø¶
ØªØ­Ø³Ù†
ØºØ±
##Ø²Ù„
Ø®Ù„ÙŠÙ‡
Ø£Ø¯Ø®Ù„
Ø§Ù„ÙØ§Ø±
ÙˆØ­Ø¨
ØµØ¯
##Ù„Ø¬Ù…ÙŠ
ÙŠØ·
Ù…ÙŠØ­Ø¨
##Ù…ÙŠØ±
Ù„Ù„Ø§Ù†
Ù„ÙØ±Ø§Ù†Ø³Ø§
##ÙˆØ²ÙˆÙ†
ÙØ¦
Ø§Ù„ÙƒÙˆÙ†
Ø§Ù†Ø´Ø§Ù„
Ù…Ø¤
Ø§Ø³ØªØ¹Ù…Ø§Ø±
Ø§Ù„ÙŠÙ‡ÙˆØ¯ÙŠ
ØªÙƒÙ„Ù…Ùˆ
Ù†Ù„Ù‚Ø§
ÙˆØ¯ÙŠÙ†
##ÙˆØ§Ø¡
ØµØ­Ø§Ù
Ø§Ù„Ø§Ø³Ø¹Ø§
##ØºØ§Ø±
Ø¯ÙŠØ§Ù„Ùƒ
Ù…Ø¯Ø±
##Ø³Ø­Ø§Ø¨
ÙŠÙ…Ø¯
##ÙŠÙŠÙŠÙŠÙŠÙŠ
Ù†Ø­Ø¨Ù‡
Ø§Ù…Ù„
##Ù…Ø­Ù…ÙˆØ¯
ÙˆØ²Ù†
ÙˆÙ†Ø¹Ø±Ù
ÙŠØ§ÙƒÙ„
##Ù†Ø¨ÙƒÙŠ
Ø§Ù„Ø¨Ø±Ù‡
##Ù…Ø´ØªØ±Ùƒ
Ø¬Ù‡Ø¯
Ø§Ù…Ø±Ù‡
ÙŠØ¹ÙŠØ´Ùƒ
##Ø³Ù„Ù…
Ø§ÙƒØ¯
##Ø®Ø§Ø·Ø±
##Ø°Ø§Øª
ÙŠØ­Ø³Ù†
Ø¨Ø´Ø±Øª
Ø§Ù„Ù…Ù†Ø¸Ù…
##Ø¨Ø³Ø·
Ù„Ø§Ø®Ø±
##Ø¨ÙˆØ§
ØªØ³Ø§Ù†Ø¯
Ø§Ù„Ø¬Ù…
Ù„ÙŠØ§Ù…
##ØªÙˆØ¨
Ø¨Ø¹Ø¶Ùˆ
##Ù„Ø£Ø­Ø¯
##Ø´ÙˆÙŠÙ‡
ØªØªØ±Ø´Ø­
##Ø´Ø±ÙŠÙ†
Ù†Ù„Ù‚Ø§Ù‡
##Ø§Ø©
##Ø¹Ø§Ø¦Ù„Ø§Øª
ÙˆØ§Ù„Ù‚
Ø²Ø¯
ÙƒÙŠÙ…
##Ù†Ù‚Ø§Ø°
##Ø³Ù…Ùˆ
Ø®Ù…Ø¬
Ø§Ù„Ø¯ÙƒØªØ§ØªÙˆØ±
##Ù†Ø¹Ù…
ÙˆØ¹Ø§ÙŠØ´
Ù…Ø²ÙˆØ¬
Ø¹Ø¬
##Ø³Ø±Ø§Ù‚
Ø§Ù„Ù…Øº
Ø§Ù„Ø®Ù„ÙŠØ¬
##Ù„Ø±Ø¬Ø§Ù„
Ø§Ù„Ø´Ùƒ
Ø¬Ù†Ø³ÙŠ
Ù„Ù„ØºØ§
##ÙŠØ¶Ø±Ø¨Ù‡Ø§
Ø§Ù„Ø´ÙƒÙ„
##Ù„Ù„ÙŠ
##Ø­ÙŠÙ…
##Ø´ÙŠØ§Ø¨
Ø¯Ø³ØªÙˆØ±
##Ù„ÙŠØ²
Ù„Ø®
Ù…Ù†Ø¹
##ØµØ±ÙŠØ­
##Ø¹Ùƒ
##Ø­Ø³Ø¯
Ù…Ø¹Ù„ÙˆÙ…
Ù„ÙƒÙ„Ù‡Ø§
Ø¨Ù„ÙŠÙŠÙŠÙŠ
Ø¨Ø´ÙŠ
Ù…Ø«
##ÙÙŠÙ‚
##Ø´Ø­Ù†
Ø±ÙˆØ­Øª
ØªØ³Ù…Ø¹Ùˆ
Ø§Ø¬Ø§
##ÙÙˆØ±
Ù‡Ø¯Ø±
##Ø¨Ø§Ù‚ÙŠ
Ù†ØªØ¨
Ø¨ØªØ±ÙˆÙ„
Ø§Ù„ÙƒÙŠÙ
ØªØ±Ø¬Ø¹Ùˆ
##Ø§Øº
Ø§Ù„ØªØ­Ø¯ÙŠ
ØªØ¨Ø¹Ùˆ
Ø«Ù‚Øª
Ø¬ÙˆØ¬
Ø§Ø®Ø·Ø§Ø¡
Ø§Ù„Ø±Ø§Ø¬
Ù„Ø¯
ØªØ­Ø³Ø¨
ÙˆØ¨Ø§
ÙˆÙŠÙƒÙˆÙ†
Ø¨ØªØ§Ø¹
##ØªÙ†Ø¸ÙŠÙ…
Ø±Ø£Ø³Ù‡
Ø§Ù„Ø§Ù…Ø§Ù†
##Ø¹Ø²ÙŠÙ…Ø©
##ØªÙˆÙ‡Ø§
Ø¯Ø§Ø®Ù„ÙŠÙ†
Ø§Ù„Ù„Ø°ÙŠ
##Ù„Ù‚ÙŠÙ†
##Ø±Ø§Ø«
Ø£ØªÙˆ
Ø§Ù„Ø¹Ù†ØµØ±ÙŠ
##Ø±Ù‡ÙˆØ·
##ØªÙƒÙ„Ù…
##Ù…Ù†Ø§ÙˆÙ„
##Ù†Ø¬Ù…Ø´
##ÙˆØ§Ø¯
Ø­Ù‚ÙŠÙ‚ØªÙƒ
Ù„Ø¨Ù‡Ø§
Ø§Ø±Ø¬ÙˆØ§
##Ù‚Ø¶Ø§ÙŠØ§
Ø§Ù„ØªÙ…
Ø¨ÙŠÙ†Ùƒ
Ø¨Ø§Ù„Ø¥
Ù‡Ø¯Ø¯
##80
ÙŠØ³Ø¨Ùˆ
ÙˆØ­Ù„
Ø§Ù„Ù‚Ø¶Ø§
Ø¨Ø§Ù„Ù†
##Ø­Ø¯Ø«
ÙˆÙƒØ±Ù‡
ÙŠÙ„Ù‚Ùˆ
##ÙŠØ§Ø±ÙŠØª
##ØµÙ…Øª
Ø§Ù„ÙˆÙ‡Ù…
ÙØ§ÙŠØª
ÙŠØ¶Ø­ÙƒÙˆ
Ù†Ø­ÙŠÙˆ
ØµÙ„Ø§
##Ø§Ù‡Ùˆ
##ÙƒØªØ¨
Ø§Ù„Ø·Ù
##Ù‚Ø§Ø¡
##Ø¨ØºØ¯Ø§Ø¯
Ø§Ù„Ø§Ù†ØªØ®Ø¨
##ÙƒØ²
##ÙØ§Ù
##Ù„ØªØ§Ù„ÙŠ
ØªÙƒÙˆÙ†Ùˆ
##ØªÙ†
ÙˆØ®Ø¯Ù…
Ù…ÙƒØ§Ù†Ù‡
ÙˆÙ†ÙØ³
##Ù†ØªØ®Ø¨
Ø¨Ø¯Ù„Øª
##Ù„ÙˆÙƒ
##Ù‡Ø¯Ø§Ù
Ø¯Ø®ÙˆÙ„
##Ø®ØªÙŠ
##Ø­Ù…Ø±
##Ù†Øº
Ù„Ø§Ø­Ù‚
Ù„Ø®Ø±ÙŠ
##Ù…Ø¨ÙˆØ±Øº
ØªØ¬Ø¹Ù„
Ø§Ù‚ÙˆØ§
Ù…Ø¨Ù†ÙŠ
ÙŠÙˆØªÙˆØ¨
Ø§Ù„Ø¯Ø¹Ùˆ
Ù„Ù‚Ù†Ø§
ÙŠÙ‚Ø·Ø¹
ØªØ±Ø­Ù…
ØªØ³ØªØ·ÙŠØ¹Ùˆ
##Ø·Ø±Ø­
Ø§Ù„Ø¹ØµØ§
Ù‡Ø¯Ùˆ
Ø§Ù„Ø­Ù„Ø§
##ØªØ¹Ø¯ÙŠÙ„
Ø¨ÙÙ‡Ù…
Ù…Ù†ØªØ®Ø¨
Ø¯ÙŠÙ†Ø§
##Ø§Ù…Ù„
ØªØ¨Ø¯
Ø§Ù„ÙÙ„
##Ø§Ù‡Ù„ÙŠ
Ø¬Ø¨ØªÙˆÙ‡
##Ø§Ù‡ØªÙ…Ø§Ù…
Ø§Ø®ØªØ§Ø±
Ø¹Ø¨Ø§
##Ø§Ø®Ø±Ø§Ø¬
Ø±Ø¤Ø³
##Ù„ÙŠÙ‡Ø§
ØªØ­ÙƒÙŠÙˆ
Ø§Ù„Ø¥Ù†ØªØ®Ø§Ø¨ÙŠ
ÙŠØ¹Ù…
Ø§ØºØ¨
Ù„Ø§Ø¨Ø³Ø§
##Ø¯ÙˆÙ†Ø§Ù
ÙÙƒØ§
Ø§Ù„ÙÙˆØª
Ø§Ù‚ØªØ±Ø§Ø­
##Ù„ØªØ­Ù‚ÙŠÙ‚
Ù…Ø²Ø§Ù„Ùˆ
##ÙƒØ§Ù†Øª
##Ø±Ø¶Ø§
Ø¶Ø±ÙˆØ±
##Ø¦Ø±
ØªØ³ÙŠ
##ØªÙØ§Ø¹Ù„
##Ù„Ø¯Ùƒ
ÙˆÙØ¯
Ø¶Ø®
Ù‚Ø¹Ø¯Ùˆ
Ù†Ø¸Ø±Ø§
Ù†Ø®Ø¯Ù…
Ø³ÙŠØªÙ…
ÙˆÙŠØ¨Ø¹Ø¯
##58
##Ø¦Ø³
Ù„Ø³ÙŠØ¯
Ø£Ø±Ø¨Ø¹
ØªØ¹Ø±ÙÙ‡Ø§
Ø¥Ù†Ø¬Ø§Ø²
Ø§Ù„ØºØ¯
##ØªÙ†Ø§Ø²Ù„
Ù‡Ø§Ø§Ø§
Ø¨Ø±Ø§ÙÙˆÙˆÙˆÙˆ
Ø§ÙƒØª
Ø¨ÙˆÙ‡Ø§
##ÙÙˆÙŠØª
Ø¨ÙˆØµ
##ÙØ¶Ø§ÙŠØ­
##Ù‚Ø³Ù…
ÙˆØ§Ù„Ù„
Ø¹Ù‚
Ø§Ù„Ù…Ø­Ø¬Ø¨
##Ø³Ù…ÙŠØ±
Ø¨Ø£ÙŠ
ØªØ¨Ø­Ø«
Ù…Ø¬Ø±
##ÙØ¶
##ÙÙŠØ±
Ø¨ÙÙÙÙÙ
Ø¨ÙÙÙÙ
Ø§Ù„Ø§Ù
##ÙƒØ±Ù‡
Ù…Ø¯Ø§Ø®ÙŠÙ„
Ø§Ù„ØªØ³Ø¹ÙŠÙ†
Ù…ÙØ¨Ø±Ùƒ
##ÙˆØ¨ÙŠØ§
Ù…Ø¤Ø§Ù…Ø±
##Ù†Ø´
Ø¹ØµÙÙˆØ±
Ù‚ÙˆØ§Øª
Ù…ÙØ§Ø¬Ø£
ÙŠÙ…ÙˆØªÙˆ
Ø®Ø§Ø·Ø¦
##ØªØ­ÙˆÙ„
Ø³ØªØµØ¨Ø­
##Ù…Ø³ØªØ¹Ù…Ø±
Ù†Ø®Ù…Ù…
Ø§Ù„Ø¨Ø±Ø¬ÙˆØ§Ø²ÙŠ
ØªÙ‚Ø¨Ø¶
##Ø¯Ù…Ø§Ø¡
Ø§Ù„Ø¨Ø³ÙŠØ·
Ø§Ù„ØªØ¯Ø±ÙŠØ¨
Ø£Ø¨Ù†Ø§Ø¦
Ù†Ø³ØªØ¹Ù…Ù„Ùˆ
ÙˆØ¨Ù„Ø§
ÙŠØªØ­Ø§Ø³Ø¨
ÙƒÙ…ÙˆØ§Ø·Ù†
Ø£Ø´Ø±Ù
##Ù‚Ø¨ÙˆÙ„
Ø±Ø§ÙØ¶
Ø§Ù„Ø§Ù†Ø«
Ù…Ø¬Ø±ÙˆØ­
Ø§Ù„ØªØ¹ÙŠØ³
Ø¨ÙƒØ§Øª
Ù†Ø§Ø®Ø°Ùˆ
##Ø±Ø¨ÙŠØ©
ØªØªÙ…ÙƒÙ†
ØªÙ…Ù†Ø­
ØªØ³ØªØ«Ù…Ø±
Ø§Ø±Ø§Ø¶ÙŠ
Ù…Ø´ØªØ§Ù‚
Ø§Ù„Ø¨ÙŠØ¦
Ø§Ù„Ù…ÙˆØ¨Ù†
Ø¯ØºÙ
##Ù†ØªØ¯Ø¨
Ø¶Ù…Ø§Ù†
Ø§Ù„Ø­Ø§Ø¶Ø±
ÙŠØ¹ØªØ±Ù
Ù…Ø®Ù†Ø«
ÙŠØªØ¹Ø±Ø¶
##ÙˆØ±Ø§Øª
Ù…Ø±ÙÙˆØ¹
##Ù‚ØªØ±Ø­
ÙŠØªØ±Ø¬Ù…
Ø§Ù„Ø´ÙŠØ§Ø·
Ø¥Ø®Ùˆ
Ø§Ù„Ù…Ø¹Ø²
Ø§Ø³ØªØ¨Ù„Ø§Ù‡
ÙŠØ­Ø·Ùˆ
Ø´Ø¹Ù†Ø¯
Ø±Ø¬Ù„ÙŠÙ‡
Ù†Ø®ØªØ§Ø±
Ø¨Ø±Ø§Ø¡
Ø§Ù„Ø¬Ù‡Ø§
Ù…ÙˆÙ‡Ø±
Ù†Ø¬ÙˆÙ…
Ù†Ù‚ØµÙˆ
Ø§ÙØ±Ø§Ø¯
ÙˆØ§Ù„Ø¹Ø§ÙÙŠ
Ø¶Ø§ÙŠØ¹
ÙÙŠØ¯ÙˆØ§Øª
Ù‚Ø´Ø¹Ø±
ÙØ±Ø®
Ù‡Ø§Ø²
Ø§Ù„Ù…Ø­Ø§ÙØ¸
Ø§Ù„Ù…Ø®Ù„Øµ
##Ù„Ø®Øµ
Ø§Ù„Ù…Ø§Ø³ÙˆÙ†
Ø§Ù„Ø¨Ø¯ÙŠÙ„
Ø§ØªØ­Ø¨
Ø§Ù„Ù…ØªØ¨Ø±Ø¬
##Ø´Ø§Ø±
Ø¬Ø±Øª
Ø¯Ù‡
ØªØ¹ØªØ°Ø±
ØªØ·Ø§Ù„Ø¨
ÙƒØ§Ø²Ùˆ
Ù…Ø±Ø´Ø­
ÙØ®
ÙˆØ¹Ù…Ø±
ÙŠØ§ØºØ§Ù„ÙŠ
ØªÙ‚ÙŠÙŠÙ…
ÙŠØ®Ù…Ù…
##Ø¹Ø·Ø´
Ø¨ÙˆÙ„ÙŠØ³
##Ø±ØµÙŠØ¯
Ø§Ù„Ù†Ø§Ø¦Ø¨
Ø§Ù„ØªØ¬Ø±Ø¨
Ø®Ù„ÙÙŠ
##Ø²ÙŠØ±
##Ù‚Ø§ÙˆØ±ÙŠ
ÙƒÙ„ÙˆØ´Ø§Ø±
Ù…Ù…Ù†
ÙŠØ³Ø·Ø±
Ø§Ù„ÙØ§Ø±Ø·
##ÙŠØ§Ø±
ÙŠØªØ§Ø¨Ø¹
Ù„Ø±Ø¨
ØªÙˆÙÙŠØ±
ÙŠØ´Ø§ÙÙŠ
Ø§Ù„Ø¹Ø±ÙŠØ¶
ØµØ¨Øº
Ø§Ù„ÙˆØ§Ø¶Ø­
##Ø­ØµÙ„Øª
##Ø³Ø¯
Ù…Ø·Ù„Ù‚
##Ø¬Ø²Ø¡
Ø¥Ø³Øª
Ø¹Ø´Øª
Ø§Ù„ØªØ¬Ù…ÙŠÙ„
ÙØ§Ø¬Ø±
ØªØ£Ù…ÙŠ
ÙŠØ´Ø±Ø¨
Ø£ÙØ±Ø§Ø¯
Ù…Ù‚Ø±Ù
Ø§Ù„Ø²ÙˆØ¬
ÙˆÙŠØ·ÙˆÙ„
Ø§Ù„Ù…ÙŠØ³Ø§Ø¬
Ù…ÙÙƒØ±
ÙØ±Ù†Ø³
ÙˆØ§Ø«Ù‚
ØªØ·Ø¨Ù‚
Ù…Ø®Ù„ÙˆÙ‚
ØªØ¹Ø±Ø³
Ø£Ø³Ø§Ù„Ùƒ
ÙŠØ¯Ø¹ÙŠ
ÙŠØ®ÙˆÙ
Ù…Ø±Ù‡ÙˆÙ†
Ø§Ù„Ø¥Ø·Ø§Ø±
Ø§Ù„Ø¨Ùˆ
Ø§Ø´Ø¨
ØªØªÙ‚Ø¯Ù…
Ø¨Ø§Ù„Ù‚
Ù…Ø¯Ø±ÙˆØ³
Ø­Ø§ÙƒÙ…
Ø§Ù„ÙƒØ°Ø§Ø¨
ÙˆØ£Ø®Ù„Ø§Ù‚
Ø§Ù„ÙŠØ§Ø¨Ø§Ù†
Ø§Ø®ØªØ±Øª
##ÙŠÙ„ÙŠÙ‚
Ù†ØªØ¹Ù„Ù…
Ø£Ø³Ù„ÙˆØ¨
Ø£Ù‚Ø±
ÙŠØ±Ø§Ùˆ
ØªØ´Ù…Ù„
Ù„Ø§Ø­Ø¸
ÙŠÙˆØ¬Ø¹
ØªÙ‡Ø¯ÙŠØ¯
Ø¨ØºÙŠ
Ù‚ÙŠØ§Ø¯Ø§Øª
ÙŠØ³ØªØ¹Ù…Ù„
ÙˆÙŠÙ†Ù‡
Ø­Ø°Ø§Ø±
Ø§Ù„Ù†Ø¸ÙŠÙ
Ø§Ù„ØªØ¹
ØµØ¯Ù
ØµØ§Ø¨
ØºØ¨Ø±
ØªØ³ØªÙ‡Ù„
Ø§Ù„Ø±Ø­ÙŠ
##ÙØ§Øª
ØªØ¬Ù…ÙŠÙ„
ÙƒÙ†Ø²
##ÙŠØ¹Ø§ÙˆØ¯
ØªØ±ÙˆØ¬
##Ø³Ø¹
ØªØ³Ù‚Ø·
##ÙŠØ¦
##Ø±Ø§Ø´Ø¯
##ØªØ¯Ø§ÙˆÙ„
ØªÙÙˆÙˆÙˆÙˆÙˆÙˆ
ÙŠÙ‡Ù„ÙƒÙƒ
Ø´Ù„Ø§ÙŠÙƒ
Ø¬Ù†
Ø§Ù‡Ù„Ù‡
Ø§Ù„Ø³ÙÙŠ
Ø§Ù„Ù‚Ø·Ø±ÙŠ
Ø§Ù„ØµÙ‡Ø§ÙŠÙ†
ÙˆÙ‡Ù†Ø§
Ø§Ù‚ØªØ±Ø§Ø­Ø§Øª
Ø¬ÙˆØ²
##Ø­Ù…
Ø®Ø¯
Ø­Ù…ÙŠØ¯
Ø±Ø²ÙŠÙ†
Ø§Ù„Ù†Ù‚Ø·
##ÙŠØ§ØªÙŠ
ÙˆÙŠÙ‚ÙˆÙ„Ùˆ
Ø¯Ø±Ø§Ù…Ø§
Ú¨Ø§Ø¹
Ø§Ù„Ø¥Ù†
##Ø«ÙŠØ±
Ø¬Ù†ÙˆÙ†
Ø°Ø±ÙŠ
Ø¨Ø§Ù„ØºØ§Ù„ÙŠ
Ø±ÙˆØ¹
ÙŠØ¶Ø¹
ØªÙˆØ§ÙÙ‚
Ø§Ù„Ø¶Ù„Ù…
Ù…Ø¶Ù…ÙˆÙ†
ÙˆØ¬Ø¯Øª
Ù„Ø§Ø³Ø·
Ù…ØªÙƒÙ„Ù…
Ø«Ù‚ÙŠÙ„
ØªØ­Ø´Ù…Ø´
Ù…ØªÙƒØ¨Ø±
Ø¹Ø§ÙˆÙ†Øª
Ø±Ø¨Ø­
Ù…Ù‚Ø§Ø·Ø¹
Ø§ØµØ§Ø¨
Ø§Ù„Ù‚Ù
Ø³Ù…Ù†Øª
Ù…Ù‚Ø±ÙˆÙ†
##Ø¯ÙŠÙˆÙ†
Ø§Ø³ØªØ¹Ù…Ø§Ù„
Ø¹Ø§Ø·ÙŠ
Ø³Ø§ÙØ±
Ø¥Ù‚ØªØµØ§Ø¯ÙŠ
ÙˆÙ„Ø¯Øª
##99
##ÙˆØ¬Ù‡
Ø¬Ù‡Ø§Ø²
##Ø±ÙˆØ¹Ø©
##Ø¨Ø§Ù†Ø¯ÙŠØ©
Ù„Ø¬ÙŠÙ†
Ù†Ù‚Ø¹Ø¯Ùˆ
Ø§Ù„Ù‚Ø§Ø¶ÙŠ
Ø§Ù„Ø§Ø®
ÙŠØ±Ø¬
Ø³Ø¹
Ø§Ù„Ù…Ø¹Ø±ÙˆÙ
Ø¹ÙŠÙˆØ¨
Ù…Ù‚ÙŠÙ…
Ø§Ù„Ø³ÙˆØ¯Ø§Ù†
##Ø«ÙŠÙ‚
ÙÙ„Ø³Ù
Ø§Ù„Ù†Ø§Ø¯
ØªÙƒØ³Ø±
Ø§ÙƒØªØ´ÙØª
ÙˆÙ„ÙŠØ¨ÙŠØ§
Ø¹Ø§Ø´Ùˆ
ÙˆÙ‚ÙØª
##Ø¬ØªÙ‡Ø¯
Ø§Ù„Ø®Ù„Ø§Ù
##Ù„Ø¨Ø§Ø³
##ØºÙ„Ù‚
##Ù‡Ø°
Ù†Ù„Ù‚Ø§Ùˆ
Ø¥Ø±
Ø¹Ø§Ø±ÙŠ
ÙˆØ±Ø³ÙˆÙ„
ÙƒØ±Ù‡Ù†Ø§
Ù…ØªØ¨
Ø§Ù„Ø³ÙˆÙ‚
Ø¯ÙŠØ§Ø±
##Ø¹ØªØ±Ù
ØªÙ‚ØµØ¯
Ø§Ù„Ù…ØªØ­Ø¯
Ø®Ø®Ø®Ø®
##Ø±Ø³ÙŠ
ØªØ¯Ø¹Ùˆ
##ØªÙ„ÙÙˆÙ†
ÙˆØ±Ø§Ø¦Ù‡
Ø­Ø´ÙˆÙ…
Ø§Ù„Ø¨Ø­
##Ø¹Ø¯Ø§Ù…
ÙŠÙ‚Ù„Ø¯
Ø¨Ø±Ø§Ø§Ø§ÙÙˆ
Ø°Ùˆ
Ù…Ø³Ø£Ù„
##Ù‡Ø§Ù†ÙŠ
ØºØ§ÙŠ
Ù…Ù‚Ø§ÙˆÙ…
Ø§Ù„ÙÙˆÙ‚
Ø§Ù„ØºÙ†Ø§ÙŠ
##Ù…Ù†ÙŠ
Ø§Ù„Ø²Ø§Ø¦
##ÙˆØ­
Ù„Ø¹Ù„
Ø§Ù„Ù‚ØµØ±
Ù„Ù…ÙˆØ¶ÙˆØ¹
ÙŠØ·Ù„Ø¨
##Ø¬Ù‡Ø²
Ø§Ù„Ø¹Ø¶Ù…
Ø§Ù…ØªØ¹
Ù†Ø±Ø§Ùˆ
Ø¹Ø§Ø±ÙÙŠÙ†
Ø§Ù„Ø¨ÙŠØ±Ùˆ
##Ø§Ø·Ø±Ø§Ù
Ù…Ø®ØªØµ
##Ø·Ø¨Ø®
##ÙÙŠØ´
Ø§Ù„Ø´Ù‡ÙŠØ±
ÙƒØ§Ù…ÙŠØ±Ø§
ÙŠÙØ¹Ù„
Ø³ØªØ§Ø±
Ù†ØªÙÙƒØ±
Ù„Ø§ØªÙ†Ø³
Ø¹Ø´Ù†Ø§
Ø±Ù‚ÙŠØ¨
##Ø¹Ø¬Ø²
##Ø¹Ø§Ø´
Ù‚Ù„ØªÙŠ
Ø¨ØµØ¯Ù‚
Ù…Ø±ØªØ¹
Ù„ØµØ§Ù„Ø­
Ø­Ù„ÙŠÙ„
Ù†ÙˆØ§Ø±
##Ø§Ø±ÙŠØ®
##ÙØ³Ø®
Ø§Ù„Ø¨Ø§Ø·Ù†
Ø±Ø¬Ø§Ø¡Ø§
Ø¹Ø±Ø§Ù‚ÙŠ
##Ù‡ÙˆØ§Ø¡
Ø§ÙƒØ§Ùƒ
Ø¨Ù†Ø¯
Ù…Ø°Ù…
Ø§Ù…Ø§Ø²ÙŠØº
Ø§Ù„Ø®ÙÙŠ
##Ø§Ø²Ù„
Ø·ÙŠØ±
Ø¹Ø§Ù‚Ù„
##Ù…ØªØ£Ø®Ø±
Ø¨ÙŠØ§Ù†Ø§Øª
Ù…ØªÙˆØ§Ø¶Ø¹
##Ù†Ø¯Ùˆ
Ø£Ø³ÙˆØ¯
Ù…ÙˆÙ‚ÙÙƒ
Ø§Ù„Ø£Ø²Ù…
ÙŠØ¨Ù†ÙŠ
ÙˆØ§Ø¹Ù„Ù…
ÙˆÙ‡Ø±Ø§Ù†
ÙˆÙŠØªØ±Ø¨
##Ø¬Ù…Ø¹ÙŠ
ÙˆÙƒØ§Ù
Ø§Ù„Ù…Ø­Ø¬Ø¨Ø©
ØºØ§ÙÙ„
Ø§Ù„Ø¬Ø¨Ø§Ø±
##Ø­Ù…Ù„
Ù…Ø§ØªØ´Ùˆ
Ø£Ø´ÙƒØ§Ù„
ØªÙƒÙÙŠ
Ù†Ø¸
ÙˆÙ†Ø´Ø§Ù„Ù„
Ø¥Ø­Ø¯
Ø·Ø§ÙŠØ±
ÙŠØ§ÙˆÙ„Ø¯
##Ù‚Ø§ÙˆÙ…
Ø¶Ùˆ
Ø®ÙŠØ¨
Ø²Ø­
##Ø³Ø¨Ù‚
Ø§Ù„Ø´ÙŠØ¨
ÙˆÙ…Ù†Ø§Ø´
Ø±Ù‡ÙˆØ·
##Ù…Ø¯Ø¨
ØªØ·ÙˆØ±
Ù„Ù„Ø´
Ø¨Ø¬Ù†Ø¨
##Ø³ØªØ¬Ø§Ø¨
##Ø¹Ø§ÙŠØ´ÙŠÙ†
Ø¨Ø±ÙŠÙƒ
##Ø«Ø§Ø±
Ù‡ÙƒØ±
ØºØ¯Ø§Ø±
##ÙƒÙ…Ù„
ÙŠØ§Ø³Ù„ÙˆÙ…
Ø£Ù†Ø³Ø§
Ø§Ø¬ÙŠ
Ø§Ù„Ù…Ø³Ù„
Ù„Ù„Ø¯
Ø§Ù„Ù„Ø¨Ø³
ØµÙŠÙ
ÙˆØ¯ÙŠÙ…
Ø®Ù…
##Ø±ÙˆØ¨
Ø§Ù„Ø­Ù‚ÙŠÙ‚
##ØªØ­ØµÙ„
Ù„ÙˆØ§Ø­Ø¯
Ù†Ø­Ù„Ù…Ùˆ
Ù…Ø§Ø¯
ÙŠØ§ØªÙˆÙ†Ø³
Ø®Ø¯Ù…ØªÙˆ
ÙØ³Ø®
Ø§Ù„Ø¬Ø¨Ù„
Ø³ÙˆØ§Ø¨
Ø´Ø§Ù…Ù„
Ø¨ÙŠÙˆØ¹
##Ø¦Ù†Ø§
##Ø³ØªÙ…Ø±
Ù…Ø§Ø¶ÙŠ
Ø³Ù„Ø¹
Ø¨Ø§Ù„Ø¬Ù…Ù„
ÙƒØ±Ø²
ØµÙ†Ù
Ø§Ù„Ù…Ø­Ø·
Ø§Ù„Ø·Ø¨ÙŠØ¨
Ø§Ù„Ø³Ù†Ø§
##ÙƒÙˆØ±
ÙŠÙ‡Ù…Ù„
ÙØ¶Ø­ØªÙˆ
##Ø¨ÙŠÙ„
Ø§Ù„ÙƒØ§Ù…Ù„
Ù‚Ø¯Ø±Øª
##ØºÙŠ
Ø¨Ø§Ø®ØªØµ
Ù†Ù‚Ø´
##Ø³Ø®
##Ø­Ø°Ø±
##ÙƒØ­Ù„
Ø·Ù„Ø¹Ùˆ
##Ø·ÙˆØ·
##Ø¨ØºÙŠØ¶
Ø§Ù„Ø¨Ù‚Ø±
Ø·ÙˆÙ„Øª
Ø§Ù„Ù…Ø«Ø§Ù„
##ØªØ³Ø§Ù…Ø­
##Ø°ÙƒØ±
ØªØµÙÙŠ
##Ø¹Ù‡Ø§
Ø§Ù„Ø§Ø¯Ø§Ø±ÙŠ
Ù…Ù†Ø¶Ø±
ÙŠØªØ¹Ù„Ù…Ùˆ
Ø±ÙØ¹Øª
Ø¯Ù…Ø±
Ù„ÙˆÙƒ
##Ù…ØµØ±
ØªØ­Ø·ÙŠÙ…
Ø¹Ù…Ø§
##ÙƒØ±Ø§Ù…ØªÙ‡
ÙˆØ§ÙˆÙ„Ø§Ø¯
Ù…Ø§ØºÙŠØ±
Ø­Ø«Ø§Ù„
Ø±Ø§Ù…ÙŠ
##Ù„Ù…Ø±Ø£
Ø§Ù„Ù‡ÙˆØ§
ØªØµØ±ÙŠØ­Ø§Øª
##Ø§Ø¹Ø¨ÙŠÙ†
Ø§Ù„ÙˆØ±
##Ø·Ø±Ø§Ù
ÙˆØªÙ‚Ø¯ÙŠØ±
ØªØ³Ø¨Ø¨
ÙŠØ¹ÙŠØ¯
##ØµÙŠ
ØªÙˆÙ‚Ù
ÙÙ‡
Ù…Ø´ØªØ±ÙƒÙŠÙ†
Ø¹Ù†ÙŠÙ
Ù„Ø¨Ù„Ø§
Ø¶Ø±Ø¨Øª
Ø§Ù„Ø§Ù…Ùˆ
Ù…Ø¬Ø±Ù…
ØªØ­Ù
ØªÙ…ÙˆØªÙˆ
Ù†Ø³ØªÙ†Ùˆ
Ø­Ø³Ø§Ø¨Ø§Øª
Ø®Ø±Ù
Ø·Ø±ÙŠ
ÙŠÙÙ‡Ù…Ù†
ÙˆØ§Ø¹Ù…Ù„
##Ø¹Ù†Ø¯Ùˆ
Ù„ÙˆØ¬Ù‡
ØªØªØ­
##Ø§Ù„Ø§Ø³Ø¨ÙˆØ¹
ØªØ³Ø±Ù‚Ùˆ
##ÙˆØ¨ÙƒØ±
ØªØ¹Ø§Ù„ÙŠ
ÙˆØ¨Ø±Ùƒ
##Ø±ÙƒØ§Øª
Ø§ØªØ¨Ø¹
Ø¯ÙŠÙˆ
##ØªØ±Ø¬Ù…
ØªÙ„Ø§Ø¹Ø¨
Ø§Ù„Ù‚Ù„Ø¹
##Ù†Ø§Ù‡
ØªØ£Øª
Ø¨Ø§ÙƒÙŠ
ÙŠØ­Ù…Ù„
##Ø£Ø³ÙˆØ¯
##Ø«Ø¨Ø§Øª
Ø³Ø¹Ø§Ø¯
Ù…Ù‚Ø±
##Ø¹Ù„Ø§Ù‚Ø§Øª
Ø²Ø¹
##Ø§Ø±Ù‚
##Ø·Ø§Øª
Ø§Ù„Ù†ÙŠÙ
##Ø±Ù‚ÙŠ
ÙˆØ§Ù„Ø¨
##Ø³Ø±Ø§Ø±
Ø§Ù„Ù…Ù„
##ÙˆÙˆÙˆÙˆÙˆÙˆÙˆÙˆ
Ø§Ù„Ø·Ø±Ù
Ø§Ù„Ø£Ø³
Ù†ÙØ³Ø§Ù†ÙŠ
Ø§Ù„Ù…Ù‚Ø¯Ø³
ØªØ­Ø§Ø³Ø¨
Ø´Ø±Ù‚
Ø¥Ø¨
Ø§Ø­Ù…ÙŠ
##Ø£Ø­Ø³Ù†
Ù„Ù‚ÙŠØªÙˆ
Ø§Ù„Ø¬Ø±ÙŠ
Ø¨ØºÙŠØ±
ØªØªÙ†Ø­
##Ù…ÙˆÙ‡Ø§
Ø¹Ø§Ø¦Ù„ØªÙ‡
##Ø·Ù‡
##Ù„Ø­Ù‚ÙŠÙ‚Ø©
##ØªØµÙ†Ø¹
Ø§Ù„ØªØ¬Ø§Ø±
Ø­Ù…Ø§Ø±
##Ø®ÙˆØ§ØªÙŠ
##ÙˆÙƒØ§
Ø¹Ø³ÙˆÙ„
Ø§ÙŠÙ…Ø§Ù†
##Ø¨Ù‚Ø§Ø¡
Ø¯ÙˆØ§
Ù†ØªØ¨Ø¹Ùˆ
Ù‚Ø·Ø¹Øª
##Ø·Ù„Ø§Ù‚
Ø¹Ø·Ø§Ù‡
ÙˆÙ‡Ø¯Ø§
ØºØ§ÙŠØª
Ø§Ù„Ø¹Ù…ÙˆÙ…
##Ø¹Ø§Ù
##Ø­Ø±Ø§Ù…
Ø£Ø±Ù‚
Ø§Ù„Ø£Ø®ÙŠØ±Ø©
ÙŠØ³ØªØºÙ„
##ÙÙŠÙƒ
ÙŠÙ†ÙˆØ±
##Ø°Ø¨
##Ø³ØªØ¹Ø±Ù
Ø¨Ø§Ù‡Øª
##Ø®ØµÙˆØµ
Ø§Ù„ØªØ§Ù†ÙŠ
Ø§Ù„Ø¹Ø¸Ù…
Ø­ÙƒØ§ÙŠØª
Ø§Ù„Ø§Ø®Ù„Ø§Ù‚ÙŠ
Ù†Ù‚Ø·Ø¹
Ø§Ù„Ø´Ø¨
Ø§Ù„Ù†ÙØ³ÙŠ
Ù…Ø­Ø¨ÙˆØ¨
##Ù…ÙŠÙ„
Ù…ØªØ­
##ÙˆÙÙŠÙ‚
Ø§Ù„Ø²Ùˆ
Ù„Ù„Ù‚ØµØ±
Ø°Ù†Ø¨
Ø§Ù„Ù…Ù‚Ø§
Ù„Ø­Ø§Ù„
##Ù…Ù†Ø²Ù„
Ø¨Ø§Ù„Ù„
Ø§Ù†Ø²Ù„
ÙŠØ¹Ù†
ØºÙ†Ø§ÙŠØ§Øª
Ø£Ù‡Ù„Ù‡
Ù„Ø¹Ø¯
Ø¨Ø¬Ø¯ÙŠ
##Ù…Ø®ØªÙ„Ù
##ÙŠÙŠÙŠÙŠÙŠÙŠÙŠÙŠÙŠ
##Ø§Ø±Ø¨
ÙŠØ·ÙŠØ­Ùˆ
Ø¨Ø§Ù„Ø¬
##Ø­ØªØ±Ù…
##ÙˆÙ‚Ø¹
##ÙŠÙŠÙŠÙŠÙŠÙŠÙŠ
##Ø·Ø§
Ø¬ÙˆØ§Ø¹
Ø§Ù„Ø£Ø®Ù„Ø§Ù‚ÙŠ
ØªÙ…ÙˆÙŠÙ„Ø§Øª
##Ø¬Ù†Ø©
Ø§Ø¹ØªØ¨Ø±
Ø§Ù„Ø«Ù†ÙŠ
ÙŠØªÙ…Ù†
##Ø§Ù„Ø³ÙŠÙ
Ù†Ø³Ø£Ù„Ùƒ
##ØªØ­Ø¯ÙŠØ¯
Ø§Ù„Ù…Ø¹Ø±
##Ø¯Ø±Ø§Øª
##Ø¹Ø¯Ø¯
##ØµÙŠÙ†
Ø§Ù„Ø­Ù‚ÙˆÙ‚
Ù…Ø¹Ù†Ø¯Ù‡Ù…
Ø´ÙˆÙ‡Øª
ØªØªØ¹Ø¨
Ø³ÙˆØ§
ÙˆØªÙ‚ÙˆÙ„Ùˆ
Ø¬Ù†Ø§Ø­
Ø±ÙØ¶
ÙˆÙ†ÙØ§Ù‚
ÙˆØ§Ù„Ø¨Ù‚
Ø§Ù„ØªØ¬Ù…Ø¹ÙŠ
##Ø§Ø®Ø°
Ù†ØµØ¨
Ø³Ù†Ùˆ
Ø­Ø§ÙˆÙ„Øª
ØªÙˆÙ„Ø¯
##Ø§Ù„ÙÙŠØ¯ÙŠÙˆ
ÙØ§Ø³Ù‚
Ø¨Ø­Ø¬
Ù†ÙÙ‡Ù…Ùˆ
ÙŠØ­Ø³Ø¨
##Ø¬Ù†
##Ù‚Ù„Ùˆ
##Ù„ÙŠÙ‚
Ø¥Ø¶Ø§Ù
##Ù…ÙˆØ¶ÙˆØ¹
##Ù†Ø®Ø±Ø·
##Ø¨Ù†Ùƒ
Ù…Ø¶Ù…
Ø³ÙŠØ§Ø³ÙŠÙŠÙ†
Ù…ØªØ§Ø¨Ø¹ÙŠÙ†
Ù„Ø¹Ø§Ù…
Ø§Ù„Ø­Ù…Ø±
Ù†ÙƒØ±
Ù…ÙˆÙ‡Ø¨
Ù…ØªÙ†Ø¬Ù…
##Ø®Ø±Ø¬
ØªÙ‚ÙˆØ¯
Ø¯Ø±Ùƒ
ÙˆÙ‡ÙƒØ§
ÙˆØ§Ø­Ø¨
ÙˆØ§ÙŠÙ†
ÙˆÙ‚Ù„Øª
##Ø´ÙŠØ¦
Ø¸Ø­Ùƒ
##Ø§Ø·Ø±ÙŠ
##Ø§Ù„ÙŠÙˆØªÙŠÙˆØ¨
##Ù„Ø¨Ù†Ø²Ø±Øª
Ù„Ø§Ø¹Ø¨ÙŠ
##Ù†Ø­Ø·Ø§Ø·
##Ù…Ù†Ø¸ÙˆÙ…
##ÙŠÙ†Ùƒ
Ø«ÙˆØ±
##Ù€Ù€Ù€Ù€Ù€Ù€Ù€Ù€Ù€Ù€Ù€Ù€Ù€Ù€Ù€Ù€
ÙˆØ¹ÙˆØ¯Ùƒ
Ù…Ù„Ø§ÙŠ
##Ù‡ÙƒØ±
##ÙƒØ±Ù‡Øª
##Ø¨Ø±Ø²
ÙƒÙØ§Ø¡
Ø§Ù†Ø«
##Ø±ÙˆÙŠØ¬
##Ø³ØªÙØ§Ø¯
##Ø¦ÙŠ
ØºÙ†Ø§ÙŠ
Ø£Ù…Ø«Ø§Ù„Ùƒ
##ÙˆØ§Ø³Ø·
##ÙƒÙ„Ø§Ù…Ùƒ
Ø§Ù„Ø±Ø§Ø¨Ø¹
ÙˆØ§Ù„Ø­Ø±ÙŠ
Ø¬Ù†Ø¯
ÙˆØ§Ù…Ø§
Ù„Ù…Ø¯
Ø¨Ø·Ø¨ÙŠØ¹
ÙƒØ§ØªØ¨
Ù…ÙŠØ´
Ø§Ù‚Øµ
ÙƒÙ„Ù…Ø§
Ø§Ù„Ù…Ø³Ø§Ø¬
##Ø±ÙŠØ¨
##Ø¸Ù„
##Ù„Ø´ÙŠØ®
ÙƒÙ…ÙˆÙ†
##Ø·Ù„
ÙƒØªØ¨Ù‡
ÙƒÙ„Ù…ØªÙˆ
##Ù‚Ø¯Ø§Ù…
##Ø¹Ø§Ø·Ù
Ù…Ø­Ø¨ÙŠ
ØªØªÙ‚
Ø¹Ø¸Ù…
Ø·Ø±Ø·Ùˆ
Ø£Ù†ØµØ­
Ø°ÙƒØ±Øª
Ø§Ø¶Ø§Ù
##Ø¬Ø³Ù…
Ù…Ø¹Ù„
##ÙØ¯Ù„Ùƒ
ÙƒÙˆÙ„ÙŠ
##Ø¯Ø±Ø¨
Ø¹Ø±Ù‚
Ù†Ù…ÙˆØªÙˆ
ÙˆØ§ÙŠ
##Ø¬Ù…Ø¹
Ø¥ÙŠØ¬Ø§
ÙŠÙ‚Ù
##Ø¸Ø±Ø¨
Ø¨Ø°Ø§Øª
Ø§Ù„Ø³ÙŠØ§
Ø®ÙŠØ±Ø§Øª
Ø®Ø°
##ØªÙˆØ§Ø¬Ø¯
##Ø§Ø®Ùˆ
ÙŠØ³Ù…ÙˆÙ‡
Ø§Ù„Ø¹Ù
##ØªØ­Øª
##ØªØ§Ø¹ÙƒÙ…
##Ø¬Ø²Ø§Ø¦Ø±ÙŠ
##Ø§Ù‚Ø±Ø¨
ØªÙ†ÙÙŠØ°
##Ø§ÙØ±ÙŠÙ‚ÙŠ
ØªÙˆÙØ±
##ÙŠØ­ÙƒÙŠ
Ø¨Ø±Ø¦
Ø§Ù„Ø³Ù…Ù†
Ù…ØµØ§
##Ù„Ø¹Ø²ÙˆØ²
##Ø´Ø±Ø·
##ØºÙ†ÙŠÙ‡
Ù†Ø¹Ù†
ÙØ±Ø­Ù†ÙŠ
ÙÙ„Ø§Ø­
##Ø­ÙˆØª
Ø§Ø¬Ø±
##Ø¹Ù…ÙŠÙ„
##ÙˆÙ…ÙŠ
ØµØ¨
##Ù„Ø§Ù‡
Ø³Ù„Ù…Øª
Ø£ØµÙ„ÙŠ
##ØªØ¸Ù„
Ø§Ù„Ø§Ø­
Ù‡Ø§Ù…
Ø§Ù„Ø¯ÙˆØ§
ÙˆØ®Ù„
Ù…ØªØ­Ø¨
ÙˆØ§Ù„Ø´
Ø¨Ø§Ø¹Øª
Ø§Ù„Ø¨Ø³
Ø§Ù„Ù…ÙŠØ¯Ø§
Ø§Ù„Ø¨Ø§Ø±
ÙˆØ§Ø®Ø±
Ø§Ù„Ø¶Ø§Ù„
##Ø±Ø­Ù„
##ØªØ±Ø¯Ø¯
##Ø²ÙŠÙ†Ø§
Ø§Ù„Ø¬ÙŠÙ„Ø§
##Ø§Ø±Ø³
Ø±ÙƒØ¨
##Ø§Ù„Ù‚Ù‡Ø±
Ø§Ù„Ø¨Ø§Ø±Ùƒ
##Ù†Ø¬Ù…Ùˆ
ÙŠÙ„Ù‚Ø§
##Ø§Ù„Ø¨Ø§Ù‚ÙŠ
Ù…ØªØ³
##Ø£Ù…ÙŠÙ†
##ÙŠØ±Ø§Ù†
Ù†ÙØ¯ÙŠ
Ø¯ÙƒØªØ§ØªÙˆØ±
ÙØµØ§
##Ù‡Ù‡Ù‡Ù‡Ù‡Ù‡Ù‡Ù‡Ù‡Ù‡Ù‡
ØªØ¬Ø±Ø¨Øª
##Ø§Ù„Ù†Ù‡Ø¶Ø©
ØªØ­Ø¯
Ø§ÙØªÙ‡Ù…
##Ù„ØªÙØª
##Ø±ÙŠÙ†Ø§
Ø®Ø°ÙŠØª
ØªØ±Ø­ÙŠ
Ù„Ø¯ÙŠ
##Ø¹Ù‰
Ø§Ù„Ù…Ù‡Ù…Ø´
Ø§Ù„ÙØª
ØºÙ„Ù‚
Ù‡Ù„ÙƒØª
ÙˆØ§Ø§Ø§Ø§Ø§Ø§
ØªØ³Ø¨Ùˆ
##Ø§Ø§Ø§Ø§Ø§Ø§Ø§Ø§Ø§Ø§Ø§Ø§Ø§Ø§Ø§
Ù…Ø±Ø§Ø¯
ÙƒÙˆÙƒ
ÙŠÙ„Ø¨Ø³
##Ø­Ù†
##86
##ÙƒØ³Ø¨
##Ù‚Ø§Ø¦Ø¯
##ÙØ§ØµÙ„
ÙŠØ¯Ø¹Ùˆ
Ø§Ù†ØªÙˆ
Ø±Ù‚Ø¨Øª
##Ø±ÙˆØ­Ùˆ
Ø±ÙØ¶Ù‡
Ù„ÙˆØ­
##ØªØ¹Ø±Ø¶
29
##ÙØ³
Ø´Ø¯ÙŠØ¯
##Ø¨Ù†Ø¯ÙŠØ±
ØªÙ†Ø¨
##Ø´Ø±ÙƒØ§Øª
Ù†ØµÙ„Ø­
ÙˆÙƒÙˆÙ†
Ø¹ÙÙˆ
Ø®Ù„Ø§Ù
Ù‚Ø§Ø±ÙŠ
ÙÙŠØ¯ÙŠÙˆØ§ØªÙƒ
ÙˆØ§Ù„ÙØª
##Ø²ÙˆØ¬
Ø®Ø±Ø¬Ùˆ
Ø§Ù„Ù†Øµ
ÛŒØ§
Ø­ÙŠØ±
ÙˆØ¨Ø³
Ù†Ø¨ØºÙŠ
##Ù†ÙŠØ§
Ø±ÙˆØ§
##Ø§ÙŠÙ„
##Ø§Ø¬ÙˆØ±
ÙˆØ¹Ù„ÙŠÙ‡
##ØºÙ†ÙˆØ´
Ù…ØµÙ„Ø­ØªÙƒ
##Ø¯Ù†
ØªØ·Ø±Ø­
##ÙˆØ§Ø¹ÙŠ
##Ø¨ÙŠÙ†ÙŠ
Ø¥Ø­
Ø§Ù„Ø´Ø§Ù†
Ø§Ù„Ø³Ù…Ø§
Ø±Ø£ÙŠÙƒ
##Ù…Ø¸Ø§Ù‡Ø±
Ù‡ÙŠØ´
Ø±Ø¢
##Ø¯Ø±Ùƒ
Ù†Ù‡
Ø²Ø§Ø²
Ø§Ù„Ø§Ø¹
##Ù†Ø§Ù‚Ø¶
##Ø§Ø±Ø¯
ÙŠØ¬Ø¹Ù„Ùˆ
Ø§Ø³Ùˆ
ØªÙ‚Ùˆ
ØªØ³Ø¹
##Ù…ØªÙŠÙ†
##Ø³ØªÙƒ
Ù‚Ø§ÙŠÙ…
##Ø§Ù„Ø­Ù‚ÙŠÙ‚Ø©
##Ù‚Ù‡
ÙŠØªØ±ÙƒÙˆ
Ù…Ø³ØªÙˆØ±
Ù…Ø²Ù„
Ø¥Ø³Ù…Ù‡
Ø§Ù„Ù…Ø¯Ù†
Ø­Ù†Ø§Ù†
Ø­ÙØ¸
##Ø´Ø¬Ø¹
Ø¨Ø¹Øª
ÙˆØ´Ø®ØµÙŠ
Ø§ØºÙ„Ø¨ÙŠ
##Ø´ÙŠØ®
##Ø§Ø¶Ø±Ø§Ø¨
Ø±Ù‚Ø¹
Ù‚Ø±Ø¯Ø§
##Ø§Ù„ÙƒØ°Ø¨
Ø§Ù„Ù…Ø¶
##Ø¬Ø¹
Ù†Ø³Ø§
##ØªØµÙˆØ±
##Ø²Ø¹Ø§Ù…
ÙŠØ³Ø¹Ø¯Ùƒ
ÙˆØ¹Ù„
##Ø²Ø²
##Ø¨ØªÙ‡Ø§
##Ø¨Ø§ÙƒÙˆ
Ø§Ù„Ø¹Ø§ÙŠÙ„
Ø¥Ù†Ùƒ
ÙØ±ÙŠÙ‚ÙŠ
ÙˆÙŠØ²ÙŠ
Ø·Ø­Ø§Ù†Ø§
##Ø¨ÙˆØ·
##Ù…Ù†ÙŠÙ†
Ù…Ø«Ù„Ù‡
##Ù…ØªØ¹
ÙŠØ¯ÙŠØ±Ùˆ
Ø¹ØµØ±
##Ø²Ø§Ù„Øª
ÙˆÙŠØ¹Ø±Ù
##ÙŠÙŠ
##ÙˆØ±Ø§Ù‚
Ù†Ø´ÙˆÙÙˆÙƒ
Ø¬Ø±Ø§
Ø®Ù„Ù‚Øª
##ØªØ¹Ø§Ù…Ù„
ØªÙ‚ÙˆÙ…ÙŠ
Ø§Ù„Ø­Ø±Ùƒ
Ù„ÙØ±Ù†Ø³
##ÙØ­Ù„
Ù…ÙˆÙ„Ø§Øª
Ù„Ø­Ù…Ø§ÙŠ
##Ø¹ØµØ§Ø¨
ÙˆØ¬ÙŠØ¨
##Ø¨Ø±Ø§ÙÙˆ
ÙØ¶ÙŠ
##ØªÙ„Ù‡Ø§
##ÙØ¶Ø­
##ØªÙØ¶Ù„
Ø­Ø´Ø§Ùƒ
##Ø§ØµØ¯Ù‚Ø§Ø¦
##Ø¯ÙˆÙ†ÙŠ
Ø­ÙÙ„
##Ø¨Ø¹Ù„
Ø¬Ø§Ù„
ØªÙƒÙˆÙ†ÙŠ
##Ø·ÙŠØ´
##Ø¹Ø³Ù„
##Ø§Ø³ØªØ§
##ØªØ®Ø°
Ù…Ø¢
##Ø¯Ø¹
Ù†Ø±Ù…Ø§
##ÙØ¹
ØªÙˆÙØ§
ØªÙƒØª
##Ø§Ø­Ù„ÙŠ
##ØµØ¨Ø±ÙŠ
##ÙˆÙ„Ø§Ø¡
Ø­Ø¨ÙŠØªÙƒ
Ø­Ø¯ÙˆØ¯Ù‡
Ù…Ø¹Ø±ÙØª
##Ù…Ø§ØªØ´
Ø´Ø¹Ø¨ÙˆÙŠ
ÙŠØ±ÙƒØ¨
ÙˆØ·Ù†Ù‡
##ÙŠÙ†Ù‡
##Ø®Ù„Ø·
ÙŠØ­Ø´ÙŠ
##Ø±Ù…Ø¶Ø§Ù†
ÙŠØ­Ùƒ
Ø§ÙˆÙˆÙˆÙˆÙˆÙˆÙˆ
ÙˆÙŠØ¹Ù…Ù„
ÙˆØºØ¯
##Ù‡Ù†Ø¯Ø³
Ù†Ø¬Ø§Ø­Ùƒ
ØªØ¹Ø§Ù†
Ù‚Ø¯Ø±Ùˆ
Ø§Ù„Ø¹ØµØ§Ø¨
##ÙƒÙØ§Ø¡
##53
Ø·ÙŠØ­Ùˆ
Ø¨Ø¹Ù…Ù„
##11
Ø­Ø§Ø¬Ø§
Ø§Ø¹Ø·ÙˆÙ†
##Ø£ÙÙƒØ§Ø±
Ø¬ÙˆØ§Ø±
##Ø£ØºØ¨ÙŠ
ØªØ­Ø±Ø´
##Ø§Ø²ÙŠ
ÙˆØ·
##Ø¶ÙŠÙˆÙ
Ø§Ø´Ø¨ÙŠÙ‡
##ØªØ¬Ø§Ù‡
Ù…Ù…Ø«Ù„ÙŠ
Ù‚Ø¹
Ø£ÙƒØ§
ÙŠÙ‚ÙˆÙŠ
##ØºØ§Ù†
ÙŠØªÙˆØ¨
Ø§ÙƒØ§
Ù†Ø±Ø¬Ø¹
##Ø®Ø§Øµ
ÙˆÙØ§Ù‚
##ÙÙŠØ³Ø¨ÙˆÙƒ
Ø­Ø¨Ù‡Ø§
##Ø³Ø±Ø·Ø§Ù†
##ÙƒÙˆØ¨
##Ø±ÙŠØ§Øª
##Ø®Ø·Ø¦
Ø§Ù…ÙˆØ±Ùƒ
ÙˆØªØ­
##Ù„Ù…Ø©
##Ù†Ø´Ø§Ø·
##Ù…Ø®Ø§Ø¨Ø±Ø§Øª
Ø¨Ø°
##45
ØªÙ„ÙˆØ¬
Ù…Ø§Ø¹Ø¯
ÙŠØªØ¹Ù„Ù…
Ø§Ø³ØªØ«Ù…Ø§Ø±
##Ø´Ø³Ù…Ùˆ
Ø¨Ø®ÙŠ
Ø§Ù„Ø¹Ø¯Ø§
##ÙŠØ³Øª
##ÙˆØ§Ù‡Ø±
##Ø§Ù„Ù†Ø§
ØºØ§Ø±
Ø·Ù„Ø¹ØªÙˆ
Ø¨Ø¨
##ØµØ®Ø±
Ø¨Ø§Ù„Ø¯ÙŠÙ†
ØºØ¯Ø±
Ù„Ø§Ù‡Ù„
Ø§Ù„Ø´Ø¹
Ù„ØºÙ†Ø§ÙŠ
Ù„Ø³Ø¹
##ÙƒØ±Ùˆ
Ø§Ù†Ù
Ù†ØªÙƒ
ÙŠÙ…ÙŠÙ†
Ù†Ø³Ù…Ø­
Ø¶Ø¹
##Ø§Ù„ØªÙ„Ø­ÙŠØ³
Ø¯ÙˆÙƒ
Ø¨Ø§Ù†Ùˆ
ÙØ§Ù„Ù‚
ÙˆØ§Ù„Ø³
Ù‚Ø§Ø±
##Ø­Ø²Ù†
Ø§Ù„Ù‚Ø±Ø§
ÙŠØ¹Ø¬Ø¨Ùˆ
ÙˆØªØ³Øª
##Ø¹ÙŠØ´Ø©
ÙˆØ§Ù„Ø¢
##Ø§Ù„Ù…Ù„Ø§Ø¹Ø¨ÙŠØ©
##Ø¶Ø§Ù…Ù†
Ø¹Ø±ÙŠ
Ù‚Ø±ÙŠ
##Ø¨Ø§Ù‡ÙŠ
ÙØµÙ„
##Ù‡ÙƒØ°Ø§
##Ø±Ø³ÙˆÙ„Ù‡
ÙŠØ¶
Ø§Ø¹Ø·
Ø¨Ø±Ø´Ø§Ø§Ø§Ø§Ø§
##Ø·Ø§Ù‚Ø©
##Ù…ÙˆØ§Ù‡Ø¨
##Ø¤Ø³Ø³
ÙˆÙƒÙŠÙØ§
Ù†Ù†ØªØ®Ø¨
ÙˆÙ…Ø§Ø´
Ø³Ù…ÙŠ
Ø£Ø­Ø³
Ù…Ø´Ø±ÙˆØ¹Ùƒ
ØªÙÙˆÙˆÙˆÙˆÙˆ
##Ø³ØªØ§Ø¯
Ø§Ù„ÙƒØ±Ùˆ
Ø²Ø§Ø¦
Ø¨Ù†ÙØ³Ù‡
Ø­Ø¨Ø±
Ø­Ø¶
ÙˆØ®ÙŠØ±
Ø±ÙŠÙ†Ø§
Ø¨Ø±Ø§Ø§ÙÙˆ
##Ù‚Ø§Ù†
ÙŠØªØ®Ù„
##ÛŒÙ‡
##Ø§ÙŠØ§
Ø¤
Ø§Ù„Ø¨Øµ
ÙŠÙ„ÙˆØ¬
Ø§Ù„Ø¬Ù…ÙŠ
ÙŠÙ…Ø§
Ø¹Ù„Ù…Øª
Ø¥Ù„ÙŠÙƒ
##ØªØ®Ù„ÙŠ
Ø­ÙØ¸Ùƒ
ÙŠØ¹Ø¯ÙŠ
##Ø±ÙÙŠØ¹
##Ø²ÙŠØ§Ø±Ø©
Ø§Ù„Ø£Ø´
Ù‚Ø¶ÙŠØª
ØªØ¶Ø¹
ÙˆØ«Ù‚
##Ø£Ø´ÙƒØ§Ù„
##Ø­Ø¶ÙˆØ±
##Ù„Ù†Ù‡Ø¶Ø©
ÙŠØ¹Øª
##ÙØ¬ÙˆØ±
Ø¨Ø­ÙŠØ§
##ÙŠÙ„Ù†Ø§
##Ø§Ù„Ù…Ø³ØªÙˆ
ÙƒØ§Ù…
Ø¹Ùˆ
##Ù„Ø·
##01
##Ø¬Ø±Ù…
ÙˆØ§Ù„Ù…Ø­
ÙŠØ¹Ø±Ø¶
Ø§Ù„Ù…Ø§
##ÙˆÙ‡Ø§Ù…
ÙƒØ³
ØºØ§Ø¶
##Ø¬ÙŠØ±Ø§Ù†
ÙŠØ­Øª
ÙŠÙ‡Ù…Ù‡
ÙˆØ²Ø§Ø¯
Ù…Ø¨Ø±ÙˆÙˆÙˆÙˆ
ØµÙ†Ø¹Øª
Ù†Ø¨Ù†ÙŠ
Ø§Ø­Ù„Ø§Ùƒ
##Ù…Ø³Ø­
##ÙˆØ¶Ø­
##ØªØ·Ù„Ø¹Ø§Øª
##Ù„Ø³ÙŠØ§Ø³
##Ø³ÙƒØ±Ùˆ
Ø§Ø³Ù…Ø­
Ø§Ù„Ø§Ù†Ù
Ù†Ù„Ø¹Ø¨
ØªØ³Ø§Ø¹Ø¯
Ø§Ù„Ø´Ù‡Ø±ÙŠ
Ø£Ø¯Ø±
Ø§Ù…Ù„Ø§
ÙØ¥
##Ù‡Ø§Ù†
##Ø­ÙŠØ«
##Ø§ÙÙƒØ§Ø±
##Ø²Ù†
##ÙŠØµ
##Ù…ÙˆØ±ÙŠØªØ§Ù†ÙŠ
##ØªØ¹
Ø§Ù†ØªØ®Ø§Ø¨
Ø§Ù„Ø®Ø¶Ø±Ø§
##Ø·ÙŠØ¨
ÙŠØ¬Ù†Ù†
Ù†ÙˆØµÙ„Ùˆ
Ø£Ø¶
##Ù„ØµÙ‚
Ø§Ù„Ø­Ø¬Ø§Ù…
##Ø´ÙˆÙÙ‡Ø§
Ø¬Ø§ÙˆØ¨
ÙˆÙˆÙˆÙˆÙˆ
Ø´Ø§Ù‡ÙŠ
ÙŠØµÙ„
ÙˆØªÙ‚ÙˆÙ…
Ø£Ø¨Ø¯
##ØµØ­Ø­
Ø²Ø¨Ù„
##Ù„Ø¹Ø§Ø¨
Ø£Ù…Ø«Ø§Ù„
Ù‚Ø¨
##ÙØ§Ù‡Ù…ÙŠÙ†
Ù…Ù†Ø­
##Ù…Ø´Ù‡Ø¯
##Ù„Ø¯Ù†ÙŠØ§
ÙŠÙ†ØªÙ‚
##Ø§Ù„Ù„ÙŠ
##Ø§Ø²Ø¯Ù‡Ø§Ø±
##ÙŠØ±ÙŠ
Ø£Ù„Ø§ÙƒØ³ÙŠ
Ù‡Ø¬ÙˆÙ…
##Ø¹Ø°Ø§Ø¨
Ø¯Ù„Ø§Ù„
ØªÙˆÙ„Ùˆ
Ù…Ø§ÙŠØ­Ø¨
Ø¶Ø­ÙŠ
##Ø±Ø¬Ø§Ø¹
600
ÙˆØ§Ø³Øª
##Ù…ÙƒØªÙˆØ¨
Ù…Ø¹Ø¶Ù…
##ØµØ¨Ø§ÙŠØ­ÙŠ
Ø§Ù„Ù…Ø±Ø³
Ø§Ù„Ø¥Ø³ØªØ¹Ù…Ø§Ø±
Ø§Ù„Ø³Ø·Ø§ÙŠÙÙŠ
Ø¶Ù‡ÙˆØ±
Ø§Ù„Ù…Ø¤Ø§Ù…Ø±
##ØªØ¨Ù„Ø¹ÙŠØ·
Ø§Ù„ØªØ±Ø¨ÙˆÙŠ
Ø¬Ø¦Øª
Ø±Ù‚Ø¯Øª
##Ø£Øª
Ø§Ù„Ù…Ø·Ø±ÙˆØ­
Ù…Ø±Ø¨ÙˆØ·
Ø§Ù„Ø¯Ø¬Ø§Ù„
ØªØ¹Ø¬Ø¨ÙŠÙ†ÙŠ
ÙÙˆÙˆÙˆØ±
##Ø¶ÙØ§Ø¶
Ø§Ù„Ù…Ø²Ø¹ÙˆÙ…
ÙŠØ£Ø«Ø±
ÙŠÙ†Ù‚Ø°
ÙˆØ¬ÙŠØ²
##Ù„Ø¢Ø®Ø±
Ù†Ù†ØªØ­Ø±
ÙˆØ§Ù„Ø§Ù†ØªÙ‡Ø§Ø²ÙŠ
Ø¬Ø°Ø±ÙŠ
Ù‚Ù†Ø§Ø¹
Ø§ÙˆÙ„Ù…Ø¨ÙŠ
Ø§Ù„Ø®Ø§ØªÙ…
Ù†Ø¬Ø§ÙˆØ¨
Ø§Ù„Ø¬Ø¨Ø§
Ø£Ø¨Ø¯Ø¹Øª
Ø§Ù„Ø§Ø®ØªÙ„Ø§Ù
ÙŠØ¤Ù…Ù†
Ø§Ù„Ø§Ø­ØªØ±Ø§Ù
Ø¨ÙÙÙ
##Ø¨ÙŠÙ‡
Ø§ØªØ¨Ø§Ø¹
Ù…ØªÙ…ÙŠØ²
Ø¨Ø±ÙŠØ¦
##Ø¹ØªÙˆÙ‚Ø©
Ù†ÙØ¯Ù„Ùƒ
Ù…ØºÙŠØ§Ø±
Ø­Ù‚Ù‚
Ø§Ù„Ø®Ù†Ø²ÙŠØ±
##Ù‚ÙŠØ³
Ø§Ù„Ù…Ù„Ø¹ÙˆÙ†
Ø§Ù„Ø´Ø§Ø°
##Ø²Ø±Ø¹
Ù…Ø³ØªØ´Ø§Ø±
ÙŠØ­Ø²Ù†
##ØµØ§Ø¯Ù‚
Ø§Ù„Ø¨ÙˆÙ„ÙŠØ³
ØªØ¯Ù„
Ø§Ù„Ø¹Ù„
##ØªÙˆÙ„ÙŠ
Ù…Ø±ÙŠÙ‚Ù„
Ù…ØªØ·Ø±Ù
Ø§Ù„Ù†Ø§ÙØ¹
Ø§Ù„Ù…ØªÙˆØ³Ø·
ÙŠØ¶ÙŠØ¹
Ø¨Ø§Ù„Ø¯ÙŠÙ…Ù‚Ø±Ø§Ø·ÙŠ
Ø§Ù„Ù…Ø§Ù†ÙŠØ§
##Ù…Ø¨Ø§Ø¯Ø¦
Ø§Ù„Ù…ØµØ§Ø¯Ø±
ÙƒÙ„ÙˆØ¨ÙŠØ³Øª
Ø§Ù„Ù…Ø¹Ø·Ù„
ÙŠÙ…Ø±
ÙŠØ´Ø­Ù†
Ø§Ù„Ø®Ø§Ø³Ø±
Ø§Ù„Ù…Ù‚ÙŠØª
Ø§Ù…Ù†ÙŠ
ØªØ®Ù…
Ø§Ù„Ù…Ø´Ø±Ù
Ø£Ù†ÙˆØ§Ø¹
ØªØ«ÙŠØ±
Ø§Ù„Ù‚ÙˆÙŠ
##Ø·Ù‡Ø±
Ø§Ù„Ø±Ù‚
Ø³ÙˆÙŠØ³Ø±
##Ø­ÙˆØ§Ø¬Ø¨
Ø§Ù„Ù…Ø­Ø³Ù†ÙŠ
ÙˆØ®Ù„Ø§
Ø§Ù„Ù…Ù†Ø¬ÙŠ
##ØªÙ‚Ø¯ÙŠÙ…
ØªØ¹Ù„ÙŠÙ‚Ø§Øª
Ù…Ø³ØªØ­Ù‚
Ø±Ù‡ÙŠØ¨
Ø§Ù„Ø§Ø¬Ø±Ø§Ø¡
Ù…Ø³Ø§Ø¬
Ù…ØªØ¯Ù†ÙŠ
Ø£Ø®Ø·Ø£
Ø§Ù„Ù…ØªØ±Ø´Ø­
Ù†Ø³ØªØ±Ø¬Ø¹
ÙŠØªØ¨Ø¯Ù„
Ù…Ø¬Ù‡ÙˆØ¯
##Ø²ÙˆØ§
Ø±ÙˆÙˆÙˆÙˆØ¹
Ø§Ø®Ù„Ø§Ù‚ÙŠ
ØµØ§Ù…Ø·
Ø¨Ø§Ù„Ø·Ø¨ÙŠØ¹
Ø§Ø±Ù‚Ø¯
Ø§Ø³ØªØ´Ø§Ø±
Ø¬Ø±ÙŠ
Ø§Ù„ÙØ§Ø¦Ø²
Ø¯Ø¨Ù„ÙˆÙ…Ø§Ø³ÙŠ
Ø¥Ù†ØªØ®Ø¨Ùˆ
Ù…Ù‚ØªØ±Ø­
Ø£Ø¸Ù†
Ø¥Ù†ØªØ¯Ø§Ø¨
Ø³ÙˆÙ„ÙƒÙŠÙ†
##Ù„ÙŠÙ…
Ø·Ø­Ø§Ø­
Ù†Ø¬Ø¯
Ø®Ø±ÙŠØ¬
##Ø¨ÙˆÙ‡
Ù…Ø§Ø®Ù„Ù‚
Ù…ØªÙØ§Ø¦Ù„
Ù†Ø³Ø§Ù‡Ù…
Ø´Ù‡Ø¯Ø§Ø¦
Ø±Ø¤
Ø§Ù„Ø¬Ø²Ø§Ù‰Ø±
ØªØªØµØ±Ù
ÙˆØªØ¨Ø¹
Ù…ØªØªØ¨Ø¹
Ø£Ù‡Ùˆ
ØªØºØ±
Ø§Ø±ØªØ§Ø­
Ø§Ø¨ØªØ¹Ø¯
Ù†Ø·ÙˆØ±
Ø£Ø°ÙƒØ±
Ù„Ø¹Ø¬ÙˆØ²
Ø¨Ù„ÙˆØº
ÙˆÙŠØµÙ„Ø­
ÙØ±Ø§Ù†Ø³Ø§ÙˆÙŠ
Ø¬Ø§Ù‡
Ù†Ù…Ù„Ùƒ
ÙˆØ§Ù„Ø¬Ø²Ø§Ø¦Ø±ÙŠ
Ø§Ù„ØªØµØ¯ÙŠ
Ø±Ø¯ÙŠ
Ø®ØµÙˆØµÙŠØ§Øª
ÙŠØ¬Ø±
ÙŠØ§Ø­Ø³Ø±
Ø§Ù„Ø¹Ø±ÙŠØ§Ù†
Ø§Ù„ØªØ·ÙˆØ±
Ø¥Ø¬Ø±Ø§Ø¡
Ø¹Ø·Ø§
Ø£Ø¨ÙˆØ§Ø¨
Ø´Ø§Ø·Ø±
Ø§Ù„Ù†Ø®Ø¨
Ø§Ù„Ø­Ø§Ø¯Ø«
Ø¨Ø§Ù„Ø°Ø±ÙŠ
##ØªØ±ÙƒÙŠØ²
ØªØ±Ø¨
##Ø³ØªØ§
Ø¥Ø®Ø¯Ù…
ÙƒÙ†Ø³
##Ù…ÙŠØ³
Ø·Ø§ÙŠØ­
ÙØ­ÙŠØ§Øª
##Ø­Ø§Ù„
Ø°ÙˆÙ‚
Ø£Ø·
ØªØ¶Ù‡Ø±
Ù…Ø®Ù„Øµ
Ø§Ù„Ø³ÙØ§Ø­
Ø§Ø¹ØµØ§Ø¨
Ø§Ù„Ù…Ù…ÙˆÙ„
ÙˆØ§Ù„Ù…Ø´ÙƒÙ„
ØªØ§ÙƒØ³ÙŠ
Ø§Ù„ØµÙŠØ¯
Ø¬Ø¯Ø§Ø§Ø§Ø§
Ø§ØµØ±Ù
Ø§Ù„ÙØ§ØªØ­
Ù…Ø§Ø±ÙŠÙ†Ø§
Ù†ØºÙ†ÙŠ
Ø§Ù„ÙƒÙˆØ§Ø±Ø«
Ø§Ù„Ø§ØºÙ„Ø¨
##Ø§Ø¨Ø¹
Ø§Ù„Ø£Ù…Ø±ÙŠÙƒÙŠ
Ø§Ù„Ø±Ø§Ø­Ù…ÙŠ
Ø§Ø´Ø¨Ø§Ù‡
##ÙƒØ±Ø§
Ø§Ù„Ø¥Ù†ØªØ¯Ø§Ø¨
##ÙˆÙØ±
Ø§Ù„Ø¬Ù„Ø§Ù„
ÙˆØ§Ù„Ø£Ù…Ù†
Ø±ÙŠØ­Øª
Ø´Ø±ÙŠØª
##ØºÙŠØ§Ø¨
Ù‚ÙŠÙ„
##ÙˆØ±ÙŠØ§
Ø§Ø¬Ø§Ø¨
##ÙˆÙˆÙˆÙ‡
Ø±Ø´ÙŠØ¯
ØªÙØ§ØµÙŠÙ„
ØµØ¨Ø¹
Ø«Ù…Ù†
ØªØ¯ÙˆÙŠÙ†
ØªÙˆØ¸ÙŠÙ
Ø¨Ø±Ù‡Ø§Ù†
Ø¨Ù‚ÙŠØ§Ø¯
##ÙŠÙØ±Ø¬
Ù…Ø§Ù‡
##ØªØ´ÙƒÙŠÙƒ
Ø¨ÙˆØ¹ÙˆØ¯Ù‡
ÙˆØªØ¹Ø·ÙŠ
##Ù‚Ø§Ø±Ùˆ
Ø²ÙˆØ§ÙˆÙ„
ØªØ®ÙŠØ¨
ÙˆØ§Ù…Ø«Ø§Ù„Ùƒ
ÙŠÙˆÙ‚Ù
##Ù…Ø¬Ø¯
Ø§ÙˆØ±ÙŠØ¯
##Ø­Ù…Ø¯ÙŠ
##Ø¹Ù†Ø§
Ø§Ù„Ù…ÙŠØ²Ø§Ù†
ØªØ¨Ø±Ùƒ
Ø§Ø¨Ø³Ø·
##Ø±ÙŠØ®
Ù„Ø¨Ø±Ø§
Ù‡Ø¬
Ø±Ø§ØªØ¨
Ù„Ù‚Ø¯ÙŠÙ…
##ØªØ¨Ù‚Ø§Ùˆ
ØªØ­ÙÙˆÙ†
Ø¨Ù„Ø§Ø·Ùˆ
Ù†ÙØ³Ùˆ
Ø§Ù„Ù…Ø®Ø²
Ø§Ù„Ø±Ø£Ø³
Ø±Ø®
ØªØ­ØµÙ„Øª
ÙŠÙ†ÙƒØ±
Ù‡Ø²ÙŠØª
ØªØ­ÙØ¸
##Ù„Ø¨Ù„Ø¯Ø§Ù†
Ø§Ù„Ø¸Ø±Ù
Ø¨Ù†Ø´Ø±
ØªØªØ­Ù…Ù„
##Ù…ÙˆØ¶
##ÙØ§Ø³Ù‚
ÙŠØ³Ù„Ùƒ
Ø§Ù„Ø¬Ø¨Ù†
Ø§ØºØªØµØ§Ø¨
Ø¨ÙŠØ±Ù…
ØªØ¶Ø±
Ø§Ø®Ù„Øµ
##Ø¹Ø·ÙŠÙƒ
ØªØ§Ù…
Ù†Ø¯Ø§ÙØ¹
Ø§Ù„Ø´Ø±ÙŠØ¹
Ù…ÙƒØ¨
Ù‚ÙˆÙ„Ù‡
ÙˆÙƒÙ„Ø´
Ø¨Ø§Ù„Ø³ÙŠØ§Ø³
Ø§Ù„Ù…Ø®Ø¯
ÙŠØ·Ø§Ù„Ø¨
ÙŠØ­Ø§Ø±Ø¨ÙˆÙ†
Ø§Ù„Ø±Ø¬
Ø±Ø¬ÙŠÙ…
Ø§Ù„ÙƒÙ„ÙˆØ¨
##Ø¯Ù„
Ø±Ø§ÙŠØ¶
ÙŠØ¹Ø´Ù‚
##10
ÙŠØµÙŠØ¨
##ØµØ§Ø¨
Ø¨Ø±Ø­Ù…Øª
Ø§Ù„Ø¸Ø§Ù‡Ø±
##ÙˆÙ†Ù‡
##Ø¬Ù‡Ø§
##Ø¯ÙˆÙ‚
Ø§Ù†ØªØµØ§Ø±
##Ø­Ø§Ù„Ø§Øª
Ù‚Ù‡Ø±
ÙˆØ­Ø²Ø¨
Ù…Ø³Ø¬Ø¯
Ù…ØªØ±Ø´Ø­
Ø®Ø°ÙŠØªÙˆ
##Ø¨Ø§Ø±Ø§Øª
##Ø§Ø®Ø¶Ø±
ØªØ­ØµÙ„
Ø³Ø£Ù„Øª
Ù†ÙØ¹Ù„
Ø§Ù„Ø±Ø­Ù…Ø§
ÙˆØ§Ù„Ø®ÙˆÙ†
ØªØµ
Ø§Ø¬Ø¯
Ø§Ù„Ù…ÙˆÙ‚Ø¹
##Ù†ÙØ°
##Ø­Ø±ÙƒØ§Øª
##Ø§Ø¹Ø¯Ø§Ù…
##Ù†ØªØµØ§Ø±
Ù…Ø³Ø¬Ù„
##ØªØ²ÙˆÙŠØ±
##Ø³Ø§Ù„ÙŠØ¨
188
ØºØ·Ø§Ø¡
Ù„Ø£Ù‡Ù„
Ù‡Ù†ÙŠØ¦Ø§
ÙØ±Ø§
Ø¨Ø·Ø§Ù‚
ÙŠÙ„ÙˆØ¬Ùˆ
Ø§Ù„ØªØ­Ù‚ÙŠÙ‚
Ø§Ù„Ø¨ÙˆØª
##Ø¨Øº
##ØªÙƒØ±Ø§Ø±
Ù…Ø±Ø§Ø¬Ø¹
Ø¨ÙˆÙ„Ø¯
Ø§Ù„Ø­ÙƒÙˆÙ…ÙŠØ©
ÙˆÙ†Ø§Ù‚Øµ
##Ù‡Ù†Ø¦
Ø¹Ù…Ù„Ø§Ù‚
Ø§Ù†Ù‚Ø§Ø°
Ø³Ù„Ø§Ø­
Ø§Ù„ÙƒØ¹Ø¨
Ø§Ù„Ø±Ø®ÙŠØµ
ÙˆØ¨Ø¹ÙŠØ¯
Ø¯ÙØ¹
##Ø¯Ù‚
Ù‚Ø¶Ø§Ø¦ÙŠ
##43
##Ø¹Ù„ÙˆÙ…
ÙÙ„Øª
Ø§Ø³Ù„ÙˆØ¨
Ø¨Ø§Ø±Ø¯
##ØµØ¨
Ø«Ù†Ø§Ø¦ÙŠ
ÙˆØ­Ø±Ø¨
Ø±Ù…ÙˆØ´
Ø§Ù„Ø³Ø¹Ø§Ø¯
Ø§Ù„Ø·Ø§Ø¦Ø±
Ù„ÙƒØ³Ø¨
ØªØµØ¨Ùˆ
ÙˆØ§Ø®Ù„Ø§Ù‚
##ØªØ§Ø¨Ø¹ÙŠÙ†
Ø§Ù†Ø³ØªØ§
##ÙˆÙƒØ´
Ø¨Ø§Ù„Ù…Ù„Ø§
##Ø³Ø¨Ø­
##Ù†ØªØ¶Ø±
##Ø·Ø±Ù‚
Ø§Ø±ÙØ¹
ÙˆØ³ÙˆØ±ÙŠ
##Ø¶ÙŠØ¹
ØµÙˆØ±ØªÙˆ
ÙˆÙ†Ø³ÙŠØª
Ø§Ø±Ù‚Ø§Ù…
Ø§Ù„Ù…Ù‚Ø¯
##Ø§Ø³ØªØ«Ù…Ø§Ø±Ø§Øª
Ù…Ù‚Ø§
Ù…Ø­Ø±Ø²
ÙˆØ§Ù‚ØªØµØ§Ø¯
ÙƒØ¨Ùˆ
Ù…Ø³ØªÙÙŠØ¯
##ÙŠØ²ÙŠÙ†Ø§
Ù…Ø¹Ø²
##Ø±ÙˆØ¬
Ø´ÙŠÙ…
ØªØ¹ÙŠØ·
Ø§Ù†ØªØ®Ø¨Øª
Ø³ÙŠØ§Ø¯
Ù„Ù„Ø­Ù…Ù„
Ø¨Ø§Ù„Ø£Ø­
Ù…Ø­Ø§ÙØ¸
##ÙŠÙƒØ§
##6
##Ø¹Ù‚Ø§Ø¨
Ø¨ÙŠØªÙƒ
##Ø³ØªØ´Ù‡Ø¯
ÙˆØªØ±
##Ø®Ù‡
Ù†Ø®Ø³Ø±Ùˆ
##Ø±ÙŠØ­
Ø§Ù„Ø¥Ù†ØªÙ‚Ø§
##Ø¯Ø§Ø®Ù„
##Ø³Ø§Ø­Ù„ÙŠ
##Ø§Ø­ÙŠ
ØªØ±ÙƒØ¨
Ø¹Ø¶Ù…
##Ø±ÙƒØ¨
ØªØ±Ù‡
ÙŠÙØªÙ‚
##Ø¥Ù…Ø¶Ø§Ø¡
Ø§Ù„Ù„Ø³Ø§Ù†
Ù…Ø§Ù„Ø³ÙŠØ§Ø³
Ù„ÙˆØ¶Ø¹
Ø§Ù†ØªÙ‚Ø¯
##ÙˆØªÙÙ„
ÙˆÙÙ„ÙˆØ³
Ù…ØªÙ…Ù†ÙŠ
ÙˆÙˆØ·Ù†ÙŠ
ØªÙ„Ù‚Ø§Ùˆ
Ø§Ù„Ù†ÙØ·ÙŠ
ØªÙÙ„Ù…
ÙˆØ´ÙØª
ÙŠØ±Ø­
ÙˆÙŠØ³Ø±
Ù…ÙƒØ±Ù…
ØªÙ…ÙˆÙ„
Ù…ÙˆØ§Ù‡Ø¨
##Ø³Ø¹ÙŠØ¯
Ø§Ù…Ø±ÙŠÙƒÙŠ
##ØªØ¹Ø§Ù‚Ø¨
##Ø³ØªÙˆØ±ÙŠ
Ø§Ù„Ø³Ø¹ÙŠØ¯
##Ù‡Ø§ÙˆÙŠ
Ø¯Ø§Ø¹ÙŠ
Ø¨Ø¹Ø´Ø±
##ØµØ­Ù‡
Ø¨Ø­Ø¯
##Ø¨Ø§Ù„Ù†Ø³Ø¨
Ù†ØªÙ…Ù†Ø§Ùˆ
Ø§Ù„ÙØ¶ÙŠ
Ø¥Ø®ÙˆØ§Ù†
Ø·ÙˆÙˆÙˆ
Ø¨Ø³ÙŠØªÙˆ
ØªØ¬ÙŠÙƒ
ÙˆØ§Ù„Ù‚Ù„Ø¨
Ø§Ø±Ø¯Ùˆ
Ø±Ø´Ùˆ
Ø¥Ø¹Ø§
Ù‚Ø§Ø¯Ù…
Ù…ØªØ®Ø¨ÙŠ
Ø¹Ø«Ù…Ø§Ù†
ÙØ¶Ø­Øª
Ù…Ø§ÙƒÙ†Øª
##Ø²ÙˆØ¬Ø©
Ø³Ø¹ÙˆØ¯
ØªÙ„Ø¹Ø¨Ùˆ
ØªÙ„Ù‚Ø§Ø´
Ø§Ù†Ø¸Ø±
ÙˆØ§Ù„Ø¬
Ø¥Ù…ÙƒØ§Ù†ÙŠØ§Øª
Ø¹Ø§Ø¬Ø¨Ùƒ
##Ø±Ø§Ù†Ø§
##Ù…ØªÙˆØ§Ø¶Ø¹
##ÙƒÙŠÙ„Ùˆ
Ù…Ø·
##Ù…Ø¤ÙƒØ¯
Ø£Ø®Ø·
Ø¶Ù‡Ø±
ÙØ§Ø±
Ø³Ø­Ø§Ø¨
Ø§Ù„Ø¶ÙŠÙ‚
ØªÙ†Ø§Ø¯ÙŠ
Ù‚Ø§Ø±Ù†Ùˆ
Ø§Ù†Ø³Ø§Ù†ÙŠ
Ø§Ù„ÙÙ„Ø§Ø­
ÙˆØªÙ‚Ø¨Ù„
Ø§Ù„Ø²Ø¨Ù„
Ø§Ù‚Ø¯Ø±
##ÙŠØªÙƒ
ÙˆÙ…Ø­Ù…Ø¯
Ø¨Ø¨Ø¹Ø¶
Ø¬Ø¹Ø¨
ØªØªØ­Ø§Ø³Ø¨Ùˆ
Ø±ØµÙŠØ¯
Ø§ÙŠØ§Ù…Ø§Øª
##Ø³Ø§Ø¹Ø¯ÙˆÙ†
##Ù‡Ù‡Ù‡Ù‡
ØªØ¬Ù…Ø¹ÙŠ
Ø§Ù„ÙƒØ§ÙÙŠ
##ØªØ³ÙƒÙ†
Ø¨Ø¨Ø³Ø§
##Ø§Ù†ØªØ¨Ø§Ù‡
Ø¨Ù„Ø¯Ùƒ
Ø®Ø³Ø§Ø±ØªÙƒ
ÙˆØ·Ø±ÙŠÙ‚
Ù…Ø­ÙŠØ±
##Ø¯Ø±Ø§Ø¨Ùˆ
Ø¯Ø±ØªÙŠ
##Ù†Ø³Ù…Ø¹
Ù‡Ø¹
Ø§Ù„ØºÙ„Ø·
ØªÙ„Ù‡Ø§
##ÙØ¸Ù„
##Ø¤Ùˆ
Ø§Ù„Ø²Ø¬
Ø§Ø¹Ù„Ø§Ù†
Ù‚ÙˆØ¨
Ø±Ø¹Ø¨
Ø§Ù„Ø§Ø«
##Ù†Ø§ÙÙ‚
##Ø®ØµØµ
Ø§Ù„Ù‚ÙˆÙ…ÙŠ
Ø§Ù„Ø§Ø´
##ÙˆÙŠØ³ÙŠ
##Ø±Ø§Ø¬
ÙŠÙ†Ù‡Ø¨Ùˆ
Ø±ØºØ¯
Ø§Ù„ØªØ´ÙˆÙŠÙ‡
Ø§Ù„ØºØ§Ù„ÙŠØ§
ÙˆÙ†ÙØ±Ø­
Ø§Ù„Ø§Ø±Ø¨Ø¹
##Ø£ÙØ¶Ù„
Ø²Ø¨Ø§Ù„
##Ø§ÙØ±
Ø§Ù„Ø§Ø³ØªÙ‡
##ÙˆØ³Ø¹
##Ø¥Ø´ØªØ±Ø§Ùƒ
Ø°ÙˆÙŠ
##Ø·ÙŠÙ†
Ø¯ÙØ¹Øª
ØªÙ‚Ù†Ø¹
ÙˆÙ…ØªØ±Ø¨ÙŠ
Ø´Ù…Ø¯Ø®Ù„
Ù†Ø¶
Ø£ÙƒØ¯
ØªØµÙˆÙŠØª
Ù…Ù„Ø§Ø¨Ø³
Ù…Ø§Ù„Ùˆ
Ø§Ù„Ù‡Ø¬Ø±
Ø­Ø§Ø´ÙŠ
##Ø§Ù„Ù…Ø±Ø£
Ø¨Ø¹Ø²Ùƒ
Ø§Ù„Ø®Ù„Ø§Øµ
Ø´Ø±ÙŠ
Ù†Ø¯
Ù†Ù†ØªØ®Ø¨ÙˆÙƒ
##ÙˆØ´ÙŠ
Ø§Ù„Ø­Ø´
Ù…Ù„Ø­Ø¯
Ø§Ø°Ùƒ
##ÙÙŠÙØ§
Ø³Ø§Ù‚ÙŠÙƒ
Ø§Ù„ØªÙ‚Ø±ÙŠ
Ù…Ø¹Ø¬Ø¨Ù†ÙŠ
##Ø§Ù„Ø·Ø±ÙŠÙ‚
Ø¥ÙŠÙ‡
##Ù…Ø·
Ø§Ù„Ø¸Ù„
ÙˆØ£Ù‡Ù„
##ØªÙÙˆÙ‡
ØªØ­Ø¶Ø±
##ØªØ´Ø§Ø±ÙƒÙˆ
Ø¨Ø·Ù†
ÙŠÙ…Ù†Ø¹Ùˆ
Ø´Ù‡ÙŠØª
Ø§Ù„Ø¹Ù„ÙˆÙŠÙ†
##Ø£Ù…Ø³Ø·
ÙŠÙ„Ø¹Ù†Ùƒ
##Ø¸Ù…
ÙŠØ±ÙƒØ¨Ùˆ
Ø§Ø­ÙŠÙŠÙƒ
ÙŠØ·ÙŠØ±
##ØªÙ‚Ø§Ù„ÙŠØ¯
Ø¨Ø§Ù„Ù…Ø±
Ù„ÙˆØ­Ø¯Ù‡
Ø§Ù„Ø¹Ù„Ø§
##ØªÙˆÙ‚Ø¹
ØªØ±Ø§Ø¬Ø¹
ÙƒØ°Ø§Ù„
##ÙˆÙ„ÙˆØ¬ÙŠ
Ù…Ø¹ØªÙ…Ø¯ÙŠ
##Ù†ØµØ¨
##Ø§Ø­Ù…Ø±
##ÙŠØ´Ø¨Ø¹
##ÙƒØ§Ø´
ÙˆÙŠØ­Ù…ÙŠÙ‡
##Ù…Ø²Ø­
Ø£ØºØ§Ù†ÙŠ
ÙÙˆ
Ø§Ù…ÙˆÙ„
ÙƒØ±Ù‡Ùˆ
Ø­Ø¶Ø§Ø±ÙŠ
ØªÙˆÙ‚ÙŠØ¹
##Ø¹Ø³ÙˆÙ„
Ù†ØµØ§Ø¦Ø­
Ù…ØµØ¯Ø§Ù‚ÙŠØ©
Ø¨Ø§Ù„Ù…ØºØ±Ø¨
ÙƒØ«ÙŠÙŠÙŠ
ØªØ¬Ù…
Ù‚Ø­Ø§Ø¨
##Ø§Ù„Ø®ÙŠØ±
Ø¯ÙŠÙˆØ«
ØªØ¬Ø§Ù‡Ù„
Ù„Ø¹Ø¨Ø¯
Ù‚Ø·Ø§Ø¹
Ù…Ù‚Ø¯Ø³
Ù†Ø·Ù„Ù‚
Ø¯Ù‚
##ØªØµØ±Ù
ØªØ¹Ø±ÙÙˆØ´
##ÙŠØ§Ø¨
ØªØ®Ø´
##Ù…Ø±ØªØ²Ù‚
##Ù†Ù‡Ø¬
Ø¨Ø§Ù„Ù‚Ùˆ
##Ø­Ø¯ÙŠØ¯
Ø§Ù„Ø¹Ø¨Ùˆ
Ø§Ø§
Ø§Ù„Ø´Ø§ÙˆÙŠ
Ø­ÙƒÙŠ
Ø±Ù‚ÙŠÙ‚
ÙØ³
Ø¯Ø¹ÙˆØ§Øª
Ù…Ø³Ø§Ø±
Ø§Ù„Ø­Ø¯ÙŠ
Ø§Ù„ÙˆÙÙŠ
##Ø¨Ø¯ÙŠÙ†
##Ø±Ø§Ø­Øª
##Ø§Ø±ÙŠØ§
ÙŠØµÙ„ÙŠ
ÙˆØ¬Ù…Ø§Ø¹
Ø§Ù„Ù…Ù†Ø²
##ØµØ§Ø¨Ø±
ÙˆØªØ­ÙŠ
ÙˆØ¹Ù…Ù„
##Ø·Ø§Ù‚Ù…
##Ù„ÙØ§Ø²
ØªØ²Ù‡
##Ø®ØªØµØ±
ÙˆÙ…Ø³ØªÙ‚Ø¨Ù„
Ø§Ù„Ù‡Ø¯
##ÙƒÙ„Ø§ÙŠ
ØªÙ…ÙƒÙ†
##Ø¹Ø±Ø§Ø¶
Ø¨ÙˆØ´
Ø§Ù„Ø­Ù„Ù…
##Ø£Ù‡Ù„
##Ø­Ø§
ÙŠØ§Ø¨Ù†Øª
ÙˆÙØ±ÙŠÙ‚
ØªØ­ÙƒÙ…Ùˆ
##ØªÙ†Ø§Ù‚Ø¶
Ø§Ù„Ù…Ø³ÙŠØ±
Ø²Ø±Øª
Ø§Ù„Ø³Ø§Ø³
Ø§Ù„Ø¬Ø¨Ø§Ù†
ØªÙ‚Ø±
Ø§Ù„ØµÙØ­
ÙƒØ±ÙŠ
Ø§Ù„ØªÙ‚
Ø´Ø¹Ù…Ù„
##Ù„Ø§ÙŠØµ
ÙˆÙ‡Ø§Ø°
Ø§ÙØ¹Ø§Ù„
ÙˆØ¶Ø±Ø¨
ØªÙÙƒÙŠØ±Ùƒ
Ø§Ø¯Ø¹Ù…
Ø¹Ø±Ø´
Ù†Ø§Ø¯Ù…
Ø§Ù„Ø§Ø¨
Ø§Ø´ÙƒØ§Ù„
##Ø§Ù„Ø§Ø´ØªØ±Ø§Ùƒ
Ø²Ø±Ø¹
##Ø³Ø¯Ø¯
Ø¶Ø¯Ù‡
##Ù‚Ø§Ù„Ùˆ
##ØªØ¨Ø¯Ù„
Ù‚Øª
Ù…Ù…Ù„
Ø§Ù„Ø®ÙŠØ§Ù„
##Ø®Ø±Ø§
Ø¨Ø­ÙƒÙ…
ÙˆÙˆÙˆÙˆ
##Ø§Ø¦Ùƒ
Ø¶Ø±ÙŠ
Ø­Ù…Ù„ØªÙ‡
Ø§Ù„ØªÙ„ÙŠÙÙˆÙ†
ÙˆØ´Ø¨ÙŠÙƒ
Ù„Ø£Øº
Ø¬Ù…Ø§Ø¹Øª
ÙŠØ´ÙƒØ±
Ù…Ù‚Ù„
Ù†ØµØ¯Ù‚Ùƒ
##ØªÙ„Ø®Øµ
##Ø­Ù„ÙŠ
##Ù„Ø¨Ø§Ø±Ø­
ØªØ±Ø¨Ùˆ
ÙˆØ§Ù„Ù…ØºØ±Ø¨ÙŠ
ÙŠØºÙŠØ±Ùˆ
ÙŠØ³ÙƒØª
ÙŠÙƒØªØ¨Ùˆ
##ØªØ´ÙˆÙ
ÙŠØ±Ø¶
ØªØ³ØªÙ†Ø§
ÙˆØ±Ø§Ø¬Ù„
ØªÙ‡Ù…ÙŠØ´
Ù…ØªØ¬ÙŠ
Ù†Ø·Ù„Ø¹
Ù„Ø±Ø¬Ù„
##Ø·ÙˆÙŠÙ„
##Ù„Ù…ØºØ±Ø¨
##Ø¹Ø§Ù†
##ØµØ­Ø§Ø­
ØªØ¹ÙˆÙ…
##Ù†Ù‚
Ø³Ù…Ø§
Ø¬Ø±Ø¯
ØªØ³Ù…ÙŠ
ÙØ§Ù‚Ùˆ
##Ø³ÙˆØ³
ÙˆØ±Ø­
##Ø®Ù
ÙŠØ¹Ø§Ø¯ÙŠ
Ù„Ø­ÙŠ
Ø¨Ø§Ù„Ø¨
ØªÙÙƒÙŠØ±
Ù†Ù‚ØµÙŠ
Ù‚Ø³
Ø§Ù„Ø¬Ù†Ø³
ÙˆØ§Ù„Ø¨Ù†
ÙˆØ­Ø¨ÙŠØª
Ø£ØºÙ„
Ø§Ù„Ù…Ùƒ
Ø§Ù„Ø§Ù†ØªØµØ§Ø±
Ø£Ø¹ÙˆØ§
ØªØ£ÙƒØ¯
Ø§Ù„Ù‚Ø§Øµ
Ø¹Ø·Ø§Ù‡Ø§
##Ù€Ù€Ù€Ù€Ù€Ù€Ù€Ù€Ù€Ù€
##Ø¶Ø¯
##Ø¨Ø·Ø§Ù‚Ø©
Ø¹Ù‚Ùˆ
ØªØ¹Ø´Ù‚
Ø§Ù„Ø¯ÙƒØªØ§ØªÙˆØ±ÙŠ
Ù„Ù„Øº
##Ø£Ø±Ø¬Ùˆ
##Ø´Ø§Ø´
Ø¨Ù†ÙŠÙ†
Ø±ÙˆÙ…
Ø§Ù„Ø¨Ù„Ø§ÙŠ
##Ø¹Ø¨Ø±
##ØºÙˆÙ„
Ø§Ù„ÙƒØ±Ø§Ù‡
Ø®Ø¯Ø¹
Ù…Ø¯ÙˆØ±
Ø³Ø±Ø§
ÙˆÙŠØ¬Ø¹Ù„Ù‡
Ø§Ø±Ø¯
Ø§Ù†ØµØ±
Ø¥Ø¨Ù†
Ø§Ù„Ù…Ù†Ù‚
Ø¨Ø§ØµÙŠ
ÙÙˆØ²
ØµØ±Ø§
##ÙˆØ§Ù„Ø¯ÙŠÙ†
##ÙƒØ§ØªØ¨
Ù„Ù‚Ø§Ùˆ
##Ø¹Ù…Ù„Ù†Ø§
Ø§Ù„Ø³Ù‡Ù„
##Ø±Ø±Ø±Ø±Ø±
##Ø±ØªÙŠ
Ø¥ÙŠ
##Ø£Ø¨Ù†Ø§Ø¡
Ø£Ø®Ø±ÙŠ
Ø§Ù„ØµÙÙ‚
Ø¨Ù†Ø¬Ø§Ø­
##ØµØºÙŠØ±
Ø¹Ø·Ø§Ùƒ
Ø£Ø­Ø¯Ø§
##ÙŠÙ‚Ø±Ø£
ØµØ¯Ù‚Ù†Ø§
##ÙÙˆÙ†
ÙˆØ§Ø±Ø¬Ùˆ
##Ø§Ø§Ø§Ù‡
Ø¨Ù„Ø§Ø³Øª
Ù…ØªØ¹Ø±Ù
ÙˆØ±Ø«
##ÙˆØ§Ù„ÙŠ
Ø³Ø·Ø­ÙŠ
Ø¶Ø§Ø±
Ø§Ù„Ù…Ø±ÙƒØ²ÙŠ
Ø§Ù†ØµØ­Ùƒ
##ÙˆØµÙ
ØªØªØ±Ø´Ø­Ùˆ
Ø­Ø§Ø¯
##Ø£ØºØ§Ù†ÙŠ
Ø­Ù‚Ø§Ø¦
##Ø§Ø³Ù„ÙˆØ¨
Ù„Ù„Ø¹Ù„Ù…
##ÙˆÙ†ÙŠØ´
Ø§Ø®Ø·Ø§Ùƒ
ÙŠØ¹Ø±ÙÙ‡
ØªØ®Ù„ÙŠÙƒ
Ø§Ù„Ø£Ù…Ø§
Ø¨Ø·Ø¨ÙŠØ¹ØªÙ‡
Ø§Ù…Ù†ÙŠØª
##Ø°ÙŠÙƒ
Ù…Ø§Ø¯Ø§Ù…Ùƒ
##Ù„ØºØ±Ø¨
ØªÙƒØ«Ø±
##Ù†ÙˆÙ†
##Ù„Ù…ÙŠÙ†
ÙØªØ­Øª
Ø¬Ø±Ø¨Ùˆ
Ø´ÙØ§ÙŠÙ
Ù†Ù†Ø³Ø§
ÙŠÙ†Ùƒ
##Ù‚Ø§Ø¨
Ø§Ù„Ø³Ø§
Ø´ÙƒØ§ÙŠ
Ø¯Ø±Ø§Ø³
ØªÙ†Ø§Ùƒ
##Ø§Ù„Ù…ÙˆØ§Ø·Ù†
Ø¬ÙŠØ§
Ù„Ù
ÙŠØ¹ÙŠ
##Ø§Ù„ÙƒØ±Ø§Ø³ÙŠ
Ø±ÙƒØ²
Ø§Ù„Ø­Ø¶Ø§Ø±
Ø§Ù„Ø§Ù‡Ù…
Ø²Ø±Ù‚
##Ø¨Ø§Ù„ÙƒÙ…
ØªØ²ÙˆØ¬Øª
##ÙŠÙØ±Ø­Ùƒ
ÙˆØ§Ø³Ø¹
##Ù„ÙŠÙ‡
Ù†Ø³Ù…
Ø«ÙˆØ±Øª
Ø³Ø·ÙŠ
Ø®Ø³Ø±ØªÙˆ
Ø¹Ø§Øµ
Ù…ÙƒØ§Ù†Ùƒ
ÙˆÙ„ÙŠØ¯Ø§Øª
##Ø¨Ø´Ø¹
ØªÙƒØªØ¨Ùˆ
Ø¨Ø±ÙˆØ§Ø­
Ø­ÙƒÙŠÙ…
##Ø¸Ù†
ÙŠÙˆØ¬
ÙŠØ±ÙØ¹
##ØªÙ
Ø¥Ø¬ØªÙ…Ø§Ø¹
##Ø§Ø°Ø§
ÙƒØ±Ùˆ
Ù„Ø¬
Ù†Ø¶Ø±Ø¨Ùˆ
Ù†ÙˆØ±Ø¯
Ø³Ù„Ù
##Ø¥Ù„ÙŠ
ÙŠØº
ÙƒØ§ÙÙˆ
Ù„Ù„Ù‚Ù†Ø§
Ø´Ø¯Ùˆ
Ù†Ù‡Ø²
Ù„Ø³Ø±Ù‚
ÙŠØºÙ†Ùˆ
##Ø¶Ø±ÙŠØ¨
##ÙŠÙ†Ù‡Ù…
ÙŠÙ‚ÙŠÙ†
##Ø°Ø§Ù†
Ø­ÙƒØ§ÙŠØªÙƒ
ÙˆØ£Ø¨
Ù…Ù†Ø·Ù‚ÙŠ
Ø³Ø·
ÙƒÙ„Ø§
##ÙÙ‡Ù…Ø´
##ØªØ´Ø¨Ù‡
##ÙÙˆÙ‚
ÙŠØªÙ‚
##ÙˆØµÙØ§Øª
##Ø¨Ø¯Ø§Ùˆ
Ø§Ù„Ø«ÙˆØ±ÙŠ
Ø§Ø³Ù
##Ø³Ø§Ø³
##Ø¶Ù†
##Ù‚Ù†
Ø¨ØºØ§
Ù„Ù‚Ø§Ø¡
##Ø±Ø§Ù…Ø¨
##Ù†ÙˆØ±
Ø³ÙŠØ¨ÙˆÙ‡
##Ù„ÙƒØ¨Ø§Ø±
Ø§Ø´Ø®Ø§Øµ
##Ø·Ù‚
##Ø®Ù„ÙŠØ·
Ø­Ù‚Ù‚Øª
ØªØ°ÙƒØ±Ù†
ÙŠØ¯ÙˆØ±Ùˆ
##Ø­Ù„Ø©
Ø®Ù†Øª
Ø§Ù„Ø­Ù…Ø§
##ÙˆØ­Ø´
Ø±Ø¨Ø­ØªÙˆ
##Ù†Ø§Ù‚
Ø¨ÙˆØ¬ÙˆØ¯
ÙˆØ§Ø§Ø§Ø§
Ø¯ÙˆØ±Ùˆ
Ø¬ÙˆÙƒ
Ù…Ø¯ÙŠ
Ø®Ù„Ø§Ù‡
##Ø¯Ø´
ÙŠØªØ¹
ØªØ¬Ø§ÙˆØ¨
##ÙÙŠØ¯
##Ù„Ø§ØªÙŠ
##Ø£Ø´Ù‡Ø¯
##Ø§Ù†ØªÙŠ
##Ø§Ø§Ø§Ø§Ø§Ø§Ø§Ø§Ø§
ØªÙ‚Ø§Ù„
##Ø§Ø¦Ù…
Ø§Ù„ÙÙ†Ø§Ù†ÙŠ
Ø§Ù„Ù…Ø«Ù„ÙŠ
##Ø¬Ø§Ù…Ù„
Ø§Ù„Ø°Ø§Øª
ÙˆØ§Ù„Ø§Ø³Ù„Ø§Ù…ÙŠ
##ØªØ±ÙˆÙ„
Ù…Ø°Ø§
Ø®Ø²ÙŠ
Ø¨Ø§Ù„ÙØ³Ø§Ø¯
Ø£Ø¬
##Ù…Ø³ØªØ§
ÙˆØ°Ù†
##Ø·Ù
##Ø§ÙŠÙ…Ø§Ù†
##ÙˆØ§ÙÙ‚
ÙƒÙ„Ø§Ø³
Ù…ÙˆØ±
Ù„Ù‡Ù†Ø§
Ù‚Ø§Ù„Ù‡
ØªØ¨Ø¹Ø«
Ø£ÙˆØ±ÙˆØ¨
ÙƒØ«Ø±ØªÙˆ
##Ø°Ù‡Ø¨
##Ù‚Ù„Ø¯
##Ø·Ù…Ø¹
ÙŠØ­Ø¨Ù‡
Ø§Ù„Ø¨ÙŠØ§Ù†
##ÙŠØ¸
ÙŠØªØ¹Ø¯Ø§
Ù†Ø¶Ø¹
##ÙŠØ¯ÙŠÙˆ
Ù„Ø§Ù‡
Ø¹Ù„Ù…Ø§
Ø£Ù†Ù
##Ø¬Ø³Ø¯
##Ø¬Ù…ÙŠÙ„
Ø¨Ø­Ø²Ø¨
Ø§Ù„Ù‚Ø§Ø¨
Ø´Ù‚
Ø­ÙˆÙ…Øª
##Ø§Ù†Ø·Ù„Ø§Ù‚
##ÙŠØ¯ÙˆÙ…
Ø¹Ø±ÙØªÙ‡
Ø¨Ø¯Ø¹Ùˆ
##Ù‚ÙˆØ§Øª
Ø¢Ùƒ
Ø§Ø¹Ø¯
Ø®Ù„Ø§Ùˆ
##Ø¶Ù…
Ø¨Ù„ÙŠØ¯
Ù‚Ù„ØªÙ„Ù‡
##Ø­Ø±Ùƒ
Ø§Ù„ÙˆØ³
##Ù†Ø²
Ø§Ù„Ø¯Ø®Ù„
Ù†Ø´ØªØ±
Ø­ÙˆÙ„Ù‡
Ù…ØµØ§Ø±
ÙŠÙ‡Ø²Ùˆ
ØªØªÙƒÙ„Ù…Ùˆ
ÙØ¨Ø±Ùƒ
ÙˆÙ„Øª
ØµÙˆÙ…
##Ø£Ù‚Ù„
Ø§Ù„ØªØ­ÙŠ
ØªØµØ¯Ù‚
Ø¹Ø°Ø±
ÙˆÙ…Ø§Ø²Ø§Ù„
##Ø§Ø·Ù„Ø§Ù‚
##Ø±ØªÙ‚ÙŠ
Ø¥Ø´
Ù„Ù„Ø¨
##Ù‡Ù‡Ù‡Ù‡Ù‡Ù‡Ù‡Ù‡Ù‡
ØªØ³ØªØºÙ„Ùˆ
Ø·Ø§Ø¦
ÙˆØªØªØ¨
ÙŠØªØ¨Ø¹Ùˆ
##Ø²Ø§Ù…
ØªØ±Ù…Øª
Ù…Ø§ÙÙ‡Ù…
Ù‡Ø§Ø°Ø§Ùƒ
Ø§Ù„Ø§Ø³Ø§Ø³ÙŠ
ÙˆØªÙ‚
##Ø¹ÙØ³
##Ø±Ù‚Øµ
##ÙƒØ§Øª
Ø³Ø§Ù‚
##Ù…Ø¬
ÙÙˆØª
Ø§Ù†ØªØ®Ø¨
ÙˆØ§Ø°Ø§
Ù„Ø¹Ø¨Ùˆ
ØªØ­Ø´Ù…Ùˆ
ØªØµÙˆ
Ø¬Ø§Ø¨ÙˆÙ‡
ÙŠØ³ØªØ¹Ù…Ù„Ùˆ
Ø§Ù„Ù‚Ø­
Ø§Ù„Ø±Ø¤
ØªØ±ÙˆÙ†
Ø£Ù…Ùˆ
##Ø²Ø§Ø¯
##Ø­Ù
##Ø¯Ù…Ùˆ
Ø§Ù„Ù…Ù„Ù
Ù…ÙØ¹ÙˆÙ„
Ø±Ø¤ÙŠ
ØªØ³Ø§Ù„
##ØºØªØµØ¨
Ø¹Ø±Ø³Ùˆ
##Ø·Ø¨Ø¹
ØªØ¬Ø¯
##Ù‚Ø§Ù†ÙˆÙ†
Ø¨ÙƒØ«Ø±
Ø¯Ø³
##Ø³Ø§Ø¹
##Ø§Ø¹ÙŠ
Ø¯Ù†Ø¯Ùˆ
##Ø§Ø±ÙŠØ¯
Ø¯ÙˆÙ†ÙŠ
ØªØ¹Ù…
##ÙØ§Ø®
ÙˆØ§Ø§Ø§
ØµØ¯Ù‚Ùˆ
Ø§ÙŠØ¯Ùƒ
Ø­Ù…Ø§Ø³
Ø£Ù‚Øµ
Ø§Ù„Ø¨Ù†Ø²
##Ù‡ÙˆÙ†
ÙˆØ¢
Ø§ÙƒØ±Ù‡
Ø§Ù„ØªØ­
##Ø·Ø§ÙŠØ±
ØªØªØ­Ù„
ØªØ¯ÙØ¹
Ø§Ù„Ù…Øµ
##ØµÙØ§Øª
Ø§Ù„Ø¹Ø§Ù„
##ÙˆØ­ÙŠ
ÙŠØ®Ø·
##ÙƒØ±ØªÙ†Ø§
Ù†Ù‡Ø§
##Ø·Ø­
Ù…Ø¹Ù†Ø¯ÙŠ
Ø¨ÙˆÙ…Ø¨Ø§
Ù…ØªØ¹ÙˆØ¯
##Ù„ÙŠØ²ÙŠ
ÙƒØ¨Ø¯
##Ø¬Ø§ÙˆØ¨Ù†ÙŠ
Ø³ÙˆØ¯
ØªÙ„ÙˆÙ…
Ù‡Ø¯ÙÙ‡
Ø§Ù„Ø¥Ù†Ø³Ø§Ù†ÙŠ
##Ø­ÙØ¶
Ù„ÙˆØ¨ÙŠ
Ø§Ù„ÙØ±Ø¬
ÙŠØ¹Ø·
Ø§ÙØ±Ø­
Ù†Ù‡Ø²Ùˆ
Ø¥Ø¬Ø§Ø¨
ÙˆØ§Ù„Ø¹Ø±Ø¨
##Ø®Ù„Ù
ÙŠØ´ÙˆÙ‡
##Ù…Ù„ÙŠ
##Ø¨ÙˆØª
##Ø±Ù‡Ø§Ø¨
##Ø²Ù„Øª
Ø§Ù„Ù‚Ø§
##ÙƒØ³ÙƒØ³
Ù…Ø±ØªÙŠ
##ØªÙØ±Ø¬Ùˆ
Ø¥Ø³Ù„Ø§Ù…
##ÙˆÙ†Ø¯
##ØªØ¹Ø¨
Ù…Ø­Ø§
ÙˆØ¹Ø§Ø´
Ø§Ù„Ø®Ù„Ø§
ÙŠØ§Ø³ÙŠØ¯
ÙŠØ¨Ø¯Ù„
##Ù†ÙˆØ³
ÙŠØ¬Ø¹Ù„Ùƒ
Ø­Ù„ÙŠ
##ØºØ±
Ø§Ù„Ø¹ÙŠØ´Ø©
##Ø³ÙˆØ§Ù‚
ÙÙƒØ±ØªÙ†
##Ø¹Ù„ÙŠÙ‡
Ø§Ø­Ø¨Ùˆ
Ø¨Ø§Øµ
Ø­Ø±Ø¬
ÙŠØ®Ø¯Ù…ÙˆØ§
##Ø§Ù„Ø­Ø±Ø§Ù…
##Ù„Ø¯ÙƒØªÙˆØ±
Ø­Ø§Ø³Ù‡
##ØªÙ…Ø³Ø­
##Ø³ÙŠØ©
Ø§Ù„Ù‚Ø§Ù†ÙˆÙ†ÙŠ
Ø¯Ø§Ø±Ù‡
##ÙŠØ´Ø©
ØªØªØ±
##Ø¨ÙˆÙ„
##ØµØ§Ø­Ø¨
Ø§ØµØ¨Ø±
Ø¨Ø§Ù„Øµ
ÙŠØ³Ø¹Ø¯
Ù…Ø³Ù„
##Ø´Ø¯
ÙÙ‡Ù…Ù†Ø§
##Ø±Ø§Ù†
Ø¬ÙŠØ¨Ù„
##Ø§Ù„Ø¨Ø§Ù‡ÙŠ
Ù†Ø§Ùƒ
Ø§ØªØµÙ„
Ø§Ø­ØªÙ„
Ø¯Ø¬
Ø§Ù„Ù…Ø±ÙƒØ²
##Ø®Ø³Ø±
Ø§Ù†ØªØ¸Ø±
Ø«Ø¹
Ø¹Ø¬Ø¨ØªÙˆ
##Ø¬Ø§Ø¨
##Ø¨Ù‡Ù…
##Ø³Ø·Ø±
Ø¹Ø·Ø§ÙˆÙ‡
##Ø®Ø¨Ø±
Ù‡Ù„ÙƒÙˆ
ÙˆØ§Ù„Ø®
##Ù†Ø¯ÙŠ
Ø±Ø§ÙŠØ­
ØªØ¨Ø¯ÙŠ
Ù„Ù„Ø­Ù‚
Ø¨Ø§Ù„Ø³Ù„Ø·
ÙƒÙŠÙÙ…Ø§
##Ø¬Ø¨Øª
##Ø·Ù‡Ø§
##Ø§Ù„Ø¬Ù…Ù‡ÙˆØ±
ÙˆÙŠÙØ±Ø­
ÙˆØºÙ„
Ø§Ù„Ø¹Ø§Ø¨
##Ø¤Ø³
Ø¹Ø³Ù„Ø§
Ù„ØªÙˆØ§
##ÙƒÙƒÙƒÙƒ
Ø£Ø³ÙŠØ§Ø¯
##ØªØ§Ø¬
Ø³ØªØ§Øª
ÙŠØªØ§Ø¬Ø±Ùˆ
##ÛŒÙ‚Ùˆ
##Ø®ÙˆØªÙŠ
ØªÙˆÙƒÙ„
##Ø³Ù…Ø¹
##Ø§Ù„Ø­ÙˆØ§Ø±
Ø­Ø¨ÙŠÙ†Ø§
##Ù…Ø±Ø¶
ÙˆØ³Ø¹
##Ø§Ù„ÙˆØ¹ÙˆØ¯
ØªÙØ¯
Ø§Ù„Ø²Ø¨ÙŠ
Ø§Ù„ØªØ±Ø¬
Ù„ÙƒØ¨ÙŠØ±
ÙŠØ­Ø³Ùˆ
Ù†Ø­Ø§ÙˆÙ„
ÙŠØ³ØªÙ†Ø§
##Ù„Ø­Ø¯ÙŠØ«
##Ø¹Ù†ÙŠ
##ØµÙ„ÙŠ
Ø¶Ø¨Ø·
Ø§Ù„ØµÙ†Ø§Ø¹
ÙƒÙ…Ù„Øª
Ø±Ø¶ÙŠ
Ø§Ù„Ø¹Øª
Ø³Ù‡Ø±
##Ø¬Ø§Ø¡
Ù„Ù‡Ø¬ØªÙ‡
Ø¨Ø´ÙˆÙŠ
Ø¨Ù„Ø§ØµØªÙ‡
Ø¬ÙˆÙ†
Ø±Ø§Ø¬
ØºÙ†Ø§Ùƒ
##Ø¶Ù‡Ø±
##Ø±ØªØ§Ø­
##06
##ÙŠÙ‚Ø¸
##Ø³Ø§Ù†
##Ø¯ÙØ§Ø¹
##Ø¹Ø¨Ø§Ø³
ÙˆØ´Ø¨Ø§Ø¨
Ø²Ù…Ø±
Ø³ÙƒØ§Ù†
ÙˆÙŠØ­Ù…ÙŠ
##ÙŠÙˆÙ†
##Ø±Ø§Ø¶
Ù…Ø§Ù„Ù‚ÙŠØª
##ÙˆØ­Ø¯
##Ø¨Ù„Ø§Ø¯Ù†Ø§
Ø¨ÙŠÙˆ
Ø¨Ø±Ù‡
Ù…ÙƒØªØ¨
Ø¨Ù„ÙŠÙŠØ²
##Ø¬Ù‡ÙˆÙŠØ§Øª
##Ø±ÙˆÙ‚
ØªØ³ØªØ­ÙŠ
Ù„Ù„Ø³ÙŠØ§
##Ø´Ø¹
##ÙˆÙˆÙˆÙˆÙˆÙˆÙˆÙˆÙˆÙˆÙˆÙˆÙˆ
##ÙŠØ°
##Ù…Ø¬Ø§Ù‡Ø¯
Ø§Ù„Ø¶Ø­
ÙƒØ¯Ø§
Ù†Ø¯ÙŠ
ÙˆØ³ÙŠÙ„
##ÙŠØ¹Ù…Ù„
##Ù…ÙˆÙ†
##Ø°Ø§Ùƒ
##Ø¨Ø¨
##Ø§ÙÙŠ
##Ø§Ø§Ø§Ø§Ø§Ù
Ø¹Ø§Ù‰
Ø¨Ø§Ø³Ùƒ
##ÙˆÙ†Ù‡Ø§
Ù…Ø³ØªÙˆØ§
Ø§Ù„Ø¬Ø§Ù…
Ø¹Ø§Ø¦
##Ø¹Ù†Ø¯Ù‡Ù…
Ù…Ø³ØªØ´Ù
##Ø®ÙŠØ±Ø§
ÙŠØªÙØ±Ø¬Ùˆ
##Ø¶ÙŠØ©
Ø§Ù„ÙØ¶Ù„
##Ø¨Ø³ÙŠÙƒÙˆ
Ø´Ø§ÙŠ
Ù„Ù„Ø¹Ø±Ø¨
ØªÙ‡Ø²Ùˆ
Ø¥Ø±Øª
##Ø§Ø¯Ù‚
Ø§Ù„Ù…Ø­Ø§
##Ø­Ø²Ø¨
Ø§Ù„Ø£ØµÙ„ÙŠ
##Ù‚Ø¶ÙŠ
Ø§Ù„Ø¥Ù
ØªÙƒØ³Ø¨
##Ø³ØªØ¨Ø¯Ø§Ø¯
##Ø³Ø§Ø¦Ø±
Ø¹ÙŠÙ†Ù‡
Ù…Ø§ÙŠØ¹Ø±Ù
Ø§Ù‚Ø¹Ø¯
##ÙØ±Ù‚
Ù…Ø§Ù†ÙŠ
##ØªØ¹Ø§Ø±ÙƒÙˆ
##Ù‚Ø´
##38
ØªÙØ§Ù‡
##Ø³Ù„Ù…ÙŠ
Ø³ÙŠØ±Øª
##Ø¬ÙŠØ±ÙŠÙ†Ùˆ
##Ù†Ø¬Ø³
##Ø³Ø§Ù†Ø¯
Ù…Ø§Ù†Ø­Ø¨Ùˆ
Ø¨Ù‚Ù„Ø¨
ØªØ¶Ø­ÙƒÙˆ
##ÙˆÙ„Ø§ÙŠØ§Øª
Ø§Ù„ÙØ±ÙŠ
ÙƒØ°
##Ø§Ø§Ø§Ø§Ø§Ø§Ø§Ø§Ø§Ø§Ø§Ø§Ø§Ø§
Ø´ÙÙ†Ø§
Ø§Ø´Ø±Ø¨
##Ø±Ø±Ø±Ø±Ø±Ø±
Ù„Ù„Ù‚
Ø§Ø®ØªÙˆ
Ø¨Ø§Ù„Ø¸
ØªØ´ÙˆÙ‡
##Ø·Ø§Ø¡
##ÙØ¸
##Ø­Ø§Ø³Ø¨
Ø¹Ø²Ø§
ÙŠÙ‚Ø¹Ø¯Ùˆ
Ù†ÙˆØª
ÙŠÙˆÙ„Ø¯
Ù„Ø§Ù…Ø«Ø§Ù„
Ø¨Ø­Øª
##Ø§ÙŠØ¨ÙŠ
##Ø®Ø§Ù
Ø£Ø¬Ø±
ÙˆÙ…Ø§ÙŠ
Ø§Ù„ØªÙˆØ¨
Ø£Ù…Ù‡Ø§
##Ø¨ÙŠØª
##Ø§Ø´ÙƒØ§Ù„
ÙŠØµÙ„Ø­Ùˆ
Ù…Ù…Øª
Ø§Ù‡Ø§Ù†
Ù…ÙˆØ¸Ù
Ø§Ù„Ø¨ÙŠØ¶Ø§
##Ù‚Ø±Ø§
##Ù†Ø²Ùˆ
##Ø±Ø§Ù‡Ù†
Ù†Ù‡Ø¨Ùˆ
Ø­Ø±Ø§Ø³
Ù‰
Ù„Ù…Ù‡Ù…
##Ø§Ù„ÙˆØ«ÙŠÙ‚
Ù‡Ø§Ø°ÙˆÙ…
ÙˆØªØª
ÙˆØ§Ù„ÙÙƒØ±
##Ø§Ø¬Ù„
Ø§ÙˆØ±ÙˆØ¨
Ø¹Ø¬Ø¨Øª
Ø§Ø´Ø¨ÙŠÙƒ
Ù…Ø±ØªØ¨
Ø®Ø±Ø·
ÙŠØªØ­Ø±Ø´
Ù…Ø²ÙŠÙ†
##ØªØ°ÙƒØ±
Ø§Ù„Ø¯Ø±Ø¨
##Ø§Ù„Ø§Ù
ØµÙ„Ø§Ø­ÙŠØ§Øª
##ÙƒØ¨
##Ù…Ø¨Ø±ÙˆÙƒ
##Ø§Ù„Ø®ØµÙˆØµ
##Ø§Ø§Ø§Ø§Ø§Ø§Ø§Ø§Ø§Ø§Ø§Ø§Ø§
##Ø¨Ù„ÙŠ
Ù†Ø®Ø±Ø¬Ùˆ
Ø¨Ù‚Ø¹
ØªÙ‚Ù„Ø¯
Ø´Ù…Ù„
Ø£Ø¶Ø¹
##Ù†ØªØ´Ø±Ù
ÙŠØ¶Ø±Ø¨Ùˆ
##ÙŠÙŠÙŠÙŠØ±
Ø¨Ø§Ù„Ø§Ø­
##Ø¯ÙˆÙ„Ù‡
##Ø³ØªÙ‚ÙŠÙ„
Ù…Ù‡Ù…Ø´
##Ø¨Ø±ÙƒØ§Øª
##ØºØ§Ù†ÙŠ
##Ù†ØªØ¯Ø§Ø¨
Ù…Ø¹Ø¬Ø¨
Ø§Ù„ÙØ§ÙŠØ³
Ø£Ù‡
ÙŠÙØ³Ø¯
ØºØ§Ø²
##Ù‚ÙˆÙ„Ù‡
Ù…ØªÙ„
Ø£Ø«Ø±
##ØµÙ„ÙˆØ§
ÙŠÙØª
ÙˆØ§Ù„Ù…ÙƒØ´
##Ø±Ù†ÙŠ
Ø¯Ù…Ù‡
##Ø¶Ø­Øª
##ØºÙ„ÙŠ
##Ø°Ù‡
Ø¨Ù‚Ø¶ÙŠ
##Ù„ÙˆØ¯Ø§Ø¯
Ø­Ø§Ø±Ø¨
Ù…Ù‚Ø§Ù„
ØºÙ†Ø§ÙŠØ§
##Ù‡Ù‡Ù‡
##ÙˆØ²ÙŠØ±
##Ø²Ù…
##Ø³Ù…Ø³Ø§Ø±
Ø¨Ø¯Ø§ÙŠØªÙ‡
28
##ÙÙŠØ¯ÙŠÙˆ
Ù†Ø¯ÙˆØ±
Ù„ÙØ±
##Ø¬ÙˆØ¯
##Ù…Ù‚Ø§Ø¨Ù„
Ø§Ù„Ø¥Ø¹
##Ø§Ù„ÙƒÙ„Ø¨
##ØªØ¹Ù„Ù…Øª
##ØªÙ„ÙŠÙ‚
##Ø³ÙŠØ¨
Ù…Ø±Ù…
ØªØ¯Ø±
##Ø­ÙŠØ§
##ÙƒØªØ¦
##Ø¨ÙˆØ³
Ø§Ù„Ø¨Øª
##Ø§Ù†Ø³Ø©
Ø§Ù„Ø¹Ù‚
ÙˆØªØ¹
ÙˆÙŠØ®Ø±Ø¬
##100
##Ø«Ø§Ù†ÙŠ
Ø§Ù„Ø¥Ø³Øª
Ø¹ÙˆÙ†
ÙŠÙƒÙ„
##Ø¬Ø²Ø§Ø¦Ø±
Ø¨ØµÙŠØ±
##Ù‡Ø§Ù‡Ø§Ù‡Ø§Ù‡Ø§Ù‡Ø§Ù‡Ø§Ù‡Ø§Ù‡Ø§
##Ù†Ø¬
ÙŠØ±Ø§Ù‡
Ù„Ù„Ù†
Ø­Ù‚Ø¯
##ØªØ´Ø¯
##Ù‡Ø±Ù…ÙˆÙ†Ø§Øª
##Ø¥Ù…ÙƒØ§Ù†ÙŠØ§Øª
Ø´Ø­Ø§
##Ø¸Ù‡ÙˆØ±
##ØªØ­Ø·ÙŠÙ…
##ÙˆØ¹Ø¯
##Ø£ÙÙˆØ§Ù‡
##Ù†Ø¸ÙŠÙ
Ø¬Ù†ÙŠ
Ø­Ø¨ÙˆØ¨
##Ù‚ÙˆÙ…
ÙˆÙØ§Øª
##Ù‚Ù†Ø§Ù‡
##ÙƒØ§Ù…ÙŠØ±Ø§
ÙˆØ¨ÙŠØ¹
##ØªØ­Ø¯ÙŠØ§Øª
##Ù†ØªØ§Ø¦Ø¬
##Ù…ÙˆÙ†ØªØ§Ø¬
##ÙÙ†Ø§Ù†
##Ù„Ø¹Ø§Ø¦Ù„Ø§Øª
Ù…Ø®Ø²
Ù†Ø­Ù„Ù…
##Ø£Ù…Ø§Ù†
Ø¨Ø§Ù„Ø­Ø¬
##Ø­ÙˆØ§ÙŠØ¬
ÙˆØªØ¹Ø±Ù
Ù…Ø´Ùƒ
##Ù…Ù†Ù‡Ù…
48
##ÙŠØ³Ø±
##ÙˆØ§Ø¬Ø¨
##ØªÙ‡Ø¬Ù…
##ÙƒØ¯Ù‡
##Ø´Ù„ÙˆÙ†
##Ù„ÙŠÙ‡ÙˆØ¯
ØªØ¨Ø¹Ø«Ù„
Ø¨ÙŠÙˆØª
ÙŠØ§Ø·Ø­Ø§Ù†
Ø´Ø¬Ø§Ø¹
Ø¨Ø¹Ø¯Ù‡
##ØµØ¹ÙˆØ¯
Ø¥Ø­ØªØ±Ø§Ù…
Ø¨Ø§Ù„Øº
Ù…Ø§Ù†Ù…
Ù…Ø´ÙƒÙ„ØªÙƒ
ÙˆÙ‚ØªÙ„
Ø§Ù„Ø­Ø²Ø¨ÙŠ
##ØªÙ‚Ø¨Ù„
Ù…Ø¯Ø§Ù…Ùƒ
Ù„Ù‡Ø§Ø°
##Ø²Ø§Ù†
Ù†ÙØ¹
Ø§Ù„Ø±Ø³Ùˆ
ÙˆØ´Ùƒ
Ø¹Ø§Ø¬Ø¨Ù‡
ØªØ±ÙƒØª
##Ø¶Ø®Ù…
Ø§Ø±Ø¬Ø¹Ùˆ
##Ø¹Ù…Ø±
Ø§Ø¯Ù…
##Ø¬Ø§Ø¦Ø²
##Ù…ÙØªÙˆØ­
##Ø®Ù„
ÙØµØ­
Ù…Ø§Ù†Ø¹Ø±Ù
##ØµØ¯Ù‚
ØªØ­Ø´Ø§Ù„
ÙØªÙˆØ­Ø§
Ù„Ø³ØªÙ…
Ù…Ù†ÙˆØ±Ù‡
##Ø±ÙÙˆ
ÙˆÙ†Ø³Ø§Ø¡
##ØªÙ…Ø´ÙŠ
##Ù…Ø¹Ø§Ø±Ù
##Ù‡Ø§Ø°Ø§
##Ø±Ø±Ø±Ø±Ø±Ø±Ø±
##Ø´Ø¬Ø§Ø¹Ø©
##ÙØ§Ù‚
##ÙŠÙƒØ©
##ØªØ±Ù‚Ø¨
Ø§Ù„Ù…Ø¯Ø¹Ùˆ
Ø³ÙƒÙˆ
Ø§Ø¹Ø§Ù†
Ù„Ø§Ø²Ø§Ù„
##Ø¯Ù…Øª
ÙŠØ·Ø±Ø¯
ÙˆØ¬Ø¯Ùˆ
Ø±Ø­Øª
Ù„Ø­Ù‚ÙŠÙ‚
ØªÙˆÙˆÙˆÙˆÙˆ
##Ø±ÙˆØ­ÙŠ
Ø²Ù†
ØªÙ†Ø³Ø§
Ø§Ù„Ø¬Ø§Ù…Ø¹ÙŠ
Ù…Ø³Ø·
Ú¨Ø§
Ø§Ù„Ù…Ø´
Ø§Ù„Ù…Ù‚ÙˆÙ„
Ù…ÙƒØ¨Ùˆ
##ØºØ§Ù„
ÙˆØ§Ù„Ùƒ
##ØµÙˆ
Ù†Ù‚Ø¹Ø¯
ÙŠØ§Ø¨
Ø§Ø¹Ù…
##Ù‚Ø¯Ø³
Ø§ÙˆÙ
Ù†Ù†ØµØ­
ØºÙ†Ø§Øª
ÙˆØ§Ù„Ø³ÙŠØ§Ø³ÙŠ
ÙˆØ´Ø¨ÙŠÙ‡
Ù…Ø§ÙƒÙ…
ÙˆØ¹Ø±ÙØª
##Ù„Ø§Ø¨
ÙŠØµØ¯
ØµÙŠØ¯
##25
##Ø¥Ù†Ø´Ø§Ø¡
Ø§ØµÙˆØ§ØªÙ‡
##Ù„ÙÙ‚Ø±
##Ø³ÙƒÙˆ
##888888888888888
##ØªÙ…Ù†ÙŠØ§Øª
Ù…Ù…
Ø­Ù„ÙˆÙˆ
ÙØ­Øª
##Ø²Ø±
Ø³Ù…Ø¹ØªÙƒ
##Ø¹Ù„ÙŠÙ†Ø§
Ø§Ù„Ù‚Ù„
##Ø¶Ø­
ØªØ·Ø§Ùˆ
Ø¨Ø¹ÙŠ
ÙˆØ§Ù†Ø´Ø§
Ø§Ù„Ù…ØªÙ…Ø¹Ø´ÙŠ
##Ø£Ø®Ø¯Ù…
Ø¬Ù…Ø¹ÙŠØªÙƒ
##Ù…Ø´Ù‰
ØªØ­Ø·Ù…
##Ø±ØªÙƒ
##Ù†Ø´Ø§Ø¡
Ù†Ø³Ùˆ
Ù†Ø¹Ø·ÙŠÙ‡
##Ø·Ø§Ø¨
Ø­Ø´Ø§
ØµØ¯Ø§
##ØªØ·Ù„Ø¨
##200
ØµØ¨Ø­
##Ø¨Ø§Ù„ØªØ§Ù„ÙŠ
Ø¬Ø§ØªÙƒ
##ØµÙ‡Ø§ÙŠÙ†
Ø§Ø¬Ø¹Ù„
##ÙŠÙ†ØµØ±Ùƒ
##Ù†ØªØ§Ø¬
##Ø¹Ø¹Ø¹
Ø£Ø·ÙŠ
Ø³Ø§Ù…
Ø£ÙˆÙ
Ù„Ù‚Ø±Ø§
ØªØ¬Ùˆ
Ù„Ø²ÙˆØ¬
##Ø³Ù†ÙŠ
ØªØ¨ÙŠÙ†
##Ù†ÙˆÙ…
ÙŠÙ‚Ùˆ
##ÙƒÙˆØ§Ø±Ø«
##Ù„ÙŠÙ„ÙŠ
Ø§Ù„Ø¹Øµ
##ÙŠØ¨Ø§Ø±ÙƒÙ„Ùƒ
##ØªÙŠØ±
##Ù†ÙƒØ±Ù‡Ø§
##Ø¥ÙŠÙ…Ø§Ù†
Ù…ÙˆØ§ÙÙ‚Ø§
##Ø±Ù…ÙˆØ´
Ø±Ø¨Ø·
##Ø¨Ù„ÙŠØ¯
Ø¨ØµÙŠ
Ø§Ù„Ø®Øµ
Ù…Ø³ØªÙˆÙŠ
Ø±ÙŠÙ‚
##Ù„Ù…ØªÙŠÙ†
##Ù†ØªÙˆÙ‚Ø¹
Ø§Ø®ÙˆØª
ÙŠØ¹Ø§ÙˆÙ†Ùƒ
##Ø£Ø­Ù†Ø§
##Ù†Ù‚Ø¹
##Ù…Ø§Ø³
##ÙŠØ±Ù‡
##Ù‚Ø¶Ø§Ø¦ÙŠ
##Ø£Ø®ØªÙƒ
##ÙˆÙˆØ±
##ØªØµØ±ÙŠØ­Ø§Øª
Ù…Ø´Ø§ÙƒÙ„Ù‡
Ù…Ø£
ØºØ§Ù„
ÙØ±Ø´
Ø¨Ø§Ù„Ø°
ØªØ´Ø±
ÙŠØ­Ù„Ùˆ
##Ù„Ù…Ø³ØªÙ‚Ø¨Ù„
Ø§Ù„Ø§Ø¬Ø±
##ØªØ®Ø¯Ù…
Ø¨Ø±Ø§ÙÙˆÙˆÙˆÙˆÙˆ
##Ø§Ù„Ù†ÙŠÙ
##ÙØ±ÙˆØ®
##ÙˆÙ„Ø§Ø¯Ù‡
ÙƒÙˆÙ„Ùˆ
Ù…Ø§Ù†Ø³Ù…Ø¹
##Ù„Ø·Ø©
Ø§Ù„ÙƒØ±Ø§
Ø´ÙƒÙ„Ù‡
##Ù‚Ø§Ø¦
Ù„Ø¹Ù‚Ù„
##Ø§Ø¨Ù„
ØµØ±Ø§Ø¹
##Ø²Ù„Ø§Ù…
##Ù„ÙˆØ«
ÙŠØªØ³
Ø§Ù„Ø­Ø³Ù†
##ÙÙƒØ±Ù‡
##Ù„Ù…Ùˆ
##ØªØ­Ø±ÙŠØ±
##ÙƒÙŠÙ†
Ø®ÙŠØ±Ø§
##Ø¨ÙˆÙ‡Ø§
Ø£Ø³Ùˆ
##Ù„Ø§Ø¯
ÙŠØ­Ø´Ù…Ùˆ
##Ù†Ø¬Ø§Ø­
Ø¨Ù†Ø§Ø¯
Ø§Ù‚Ø±
ÙŠØ³ØªØ¨Ù„Ù‡Ùˆ
Ø§Ù„Ø£Ù†Ø¯Ù„Ø³
ÙˆØ§ØªØ¨Ø§Ø¹Ù‡
##Ù…Ø¨Ø±Ø§Ø·ÙˆØ±
Ù‚ÙŠØµØ±ÙŠ
ØªØ³ØªØ¨Ù„Ù‡
Ø§Ù„Ø§ØªÙØ§Ù‚
Ù…Ø¶Ù„ÙˆÙ…
Ø¹Ø§Ù„Ø®
Ø§Ù„Ø§Ù†Ø¯Ù„Ø³
##ÙŠØ³Ù…Ø¹Ùˆ
Ø§Ù„Ø·Ù„ÙŠØ§Ù†
Ø§Ù„ÙˆØ§Ø±Ø«
05
##Ø¶Ø§Ø±
##Ø¸ØºØ·
Ø§Ù„Ù…Ø³ØªØ«Ù…Ø±
Ø§Ù„Ø¶Ø±ÙˆØ±ÙŠ
Ù…Ø­ØªØ´Ù…
ØµÙŠØº
Ù…Ø®Ø§Ù„Ù
Ø§Ù„Ù…Ø­Ø¯ÙˆØ¯
##Ø§Ø­Ø¨Ø§Ø¡
##444
Ø§Ù„Ø£Ø«Ø±ÙŠ
ØªÙÙŠÙ‡
Ø§Ù„ÙÙˆØ¶ÙˆÙŠ
Ø®Ø¯ÙŠ
Ù„Ù„Ø´Ø¹
Ù…ØªÙƒØ§Ù…Ù„
Ù…Ù„Ù‚ÙŠØª
ÙŠÙ‚ÙˆØ¯
##ÙƒØ§ÙØ¦
ÙŠØºØ¯Ø±
Ø§Ù„ØªØ¹Ø§Ø³Ø©
##ÙŠÙŠÙƒ
Ø§Ù„Ø¬Ø²Ø¦Ø±
Ø§Ù„Ø«Ø§Ù…Ù†
Ø§Ù„Ù†Ø¨ÙˆÙŠ
Ù…Ø¤Ø®Ø±
Ù„ÙŠØ²ÙˆÙ…
ØºÙŠØ¨ÙˆØ¨
Ù…Ø³ØªØ§Ù†Ø³
ÙˆØ§Ù„ÙÙ‚ÙŠØ±
ÙƒØ§Ø¨ÙˆØ³
ÙˆÙ„ÙƒÙ…
Ø§Ù„Ø´ÙŠÙˆØ®
ØµØ§Ø±ÙÙŠÙ†
Ø§Ø§ÙƒÙˆØ±
Ø§Ù„Ø¯Ù†Ø¬Ø±
Ø§Ù„Ø³ÙˆØ§Ø­Ù„ÙŠ
Ù„Ø£Ø¬Ù„
Ø§Ù„Ø¨ÙˆØ¹Ø²ÙŠØ²
ØªÙ†Ù‡Ø¶
Ù…Ø§Ø­Ù„Ø§Ùƒ
Ø§Ù„Ø´ØªÙˆÙŠ
##Ø§Ù„Ø¹Ø±Ù‚
ØºØ±ÙØª
ÙŠØªÙ‚Ø§Ø¶
ÙˆÙ…Ø«Ù‚Ù
Ø´Ø¬Ø¹
Ø§Ø­Ø¨Ø¬
ÙŠØ®Ø§Ù„Ù
Ø§Ù„Ù…ÙˆØ³
##Ø§Ø³ØªØ¹Ù…Ø§Ù„
ØªÙ…Ø§Ø±Ø³
Ù…ØºØ§Ù…Ø±
Ø£Ø·Ù„Ù‚
Ù„Ù„Ø¨Ø´Ø±
Ø§Ù„ÙƒÙˆØ±ÙØ§
Ù†ØªØ§ÙƒØ¯
ÙˆØ§Ù„Ù…Ø³Ø§Ùƒ
Ø§Ù„Ù…Ù†Ø´ÙˆØ±
Ù†Ù†ØªØµØ±
ÙˆÙ‡Ø°ÙŠ
Ø¨Ø¹Ø±Ù‚
##Ø®Ù†Ø«
ÙˆØ§Ù„Ø¯ÙŠÙ†Ø§
Ù…ØµØ¯ÙˆÙ…
ÙŠØºÙØ±
ØªØ¬Ø±Ø­
ÙˆØ§ØªØ¨Ø¹
ØªÙ‚Ù‡Ø±
ØªØ£Ø´ÙŠ
Ø¨Ø§Ù„Ø°ÙƒØ±
ØªØ¨Ù†Ø¯Ø±
Ø§Ù„Ø£Ù…Ø§Ø²ÙŠØº
Ù‡Ø±Ø¯Øª
Ø§Ø¹Ø¬Ø§Ø¨
Ø­Ù„ÙˆØ§
Ø§Ù„ÙƒÙŠØ§Ø³
Ø§Ù„Ù…Ø®Ù†Ø«
Ø¨Ø§Ù„Ù†Ø¬Ø§Ø­
Ø¯Ø¬Ø§Ø¬
Ø§Ù„Ù…ØªØ¹Ø§Ø·Ù
##ØªØºØ·ÙŠ
ØªÙØ³Ø±
ØªØ¨Ù„Ø¹
##Ø·Ù„Ø§Ø¹
Ø§Ù„ØªØµØ­Ø§Ø­
Ù…Ø·Ø¨Ø®
ØªÙˆØ¶Ø­
Ø¹Ø§Ø¬Ø²
ÙŠØ¹Ø±Ù‚Ù„
ØªØ®Øµ
##Ø²ÙŠØª
ÙŠØ­ÙˆØ³
Ø£ØµØ¯Ù‚Ø§Ø¡
Ø´ÙŠÙˆØ®
Ø¨Ø«Ù„Ø§Ø«
ØªÙ†Ù‡Ø´
Ø§Ù„ØªØ­Ø¶ÙŠØ±
Ø§Ù„ØªØ±ÙƒÙŠ
Ø§Ù„Ù…Ø±Ø´Ø­
Ù…ÙØ¶ÙˆØ­
Ø§Ù„Ù…ØªØ¹Ù„Ù‚
Ø¬Ø°Ø§Ø¨
ÙØ§Ø¶Ù„
Ù„Ù„ÙÙ†Ø§Ù†
ÙˆØ­Ø¨Ø§Ø¨
ÙŠØªÙÙƒØ±
##ÙˆØ±ÙŠÙ†
ÙƒÙˆØ¨Ù„
ØªØªØ±Ø§Ø¬Ø¹
ÙŠØ±ØªØ­
ØªØ¸Ø±Ø¨
ÙŠØ¯Ø¨Ø±
##ØªØ§Ù„ÙŠÙÙˆÙ†Ø§Øª
Ù†Ø§Ø¹Ù…
Ø§Ù„Ø§Ø¶Ø§Ù
Ø§Ù„Ø³Ø§Ø¯Ø³
Ø§Ù„Ù‡Ø§ØªÙ
Ø²ÙŠØªÙˆÙ†
ÙˆØµØ¯Ù‚
Ù„Ø£ÙˆÙ„
ÙˆØ§Ù„Ù…Ø¬Ø±Ù…
##ÙˆØ¬Ù‡Ùƒ
ÙŠØªÙŠÙˆØ¨Ø±
ØªÙ‚Ø§Ø±Ù†
Ø¨Ø±Ø§ÙƒØ§Ø¬
Ù†ØªÙˆØ§ØµÙ„
Ø£Ù‡Ø§Ù„ÙŠ
ØªØ¯Ø¨ÙŠØ±
Ù…Ø§Ø³ÙˆÙ†ÙŠ
Ø§Ù„ÙØ±Ø§Øº
ØªÙ†Ø¸Ù…
Ø¨Ù‚Ø§ÙŠØ§
ØªØ¹ÙˆÙŠØ¶
##Ù†Ø¹
Ø¢Ø¢
Ø§Ø²Ù„Ø§Ù…
Ø§Ø³ØªÙ‡Ø²
Ø£Ø±ÙØ¹
Ø´Ø±Ø¨
Ø§Ù„Ù†ØµÙŠØ­
Ù…Ù„Ø§Ø¦Ùƒ
ØªÙØ³ÙŠØ±
Ù‚ÙØ§Ù
Ù…Ù‡ØªÙ…
Ø£Ø³ØªØºÙØ±
##Ø¨ÙØ¶Ù„
Ø«ÙˆØ§Ø¨
ÙØ¶Ø§Ø¦
##ÙŠØ²ÙŠÙƒ
Ø§Ù„ÙˆÙ‡Ø§Ø¨
Ù†Ø³Ø®
Ø§Ù„Ø£Ø¬Ø¯
Ø®Ø®Ø®Ø®Ø®Ø®
ÙŠÙ‚Ø³Ù…
Ù„Ù„Ø¨Ù„Ø¯
Ø¨Ø§Ù„Ø§Ø®
ØªÙŠØª
Ø®ÙˆØ§Ù
##Ù…ØµÙ„Ø­
Ø§Ù„Ø±Ø´ÙŠØ¯
Ø§ØªØµØ§Ù„
ØªØ¬Ù„Ø·
Ø¹ÙŠÙŠØª
ÙˆØ§ØªØ±Ùƒ
ÙŠØ´Ø¬Ø¹
Ø§Ø±Ø¬Ø§Ø¹
##Ù‚Ø§Ø·Ø¹
##Ø£Ø®Ø·Ø§Ø¡
Ø§Ù„Ù…ØªÙØ±Ø¬
ØªØ­Ø±Ù…
Ø§ÙŠØ·Ø§Ù„ÙŠ
Ø´Ø§ÙŠÙÙ‡
Ø­Ø±ÙŠØµ
ÙŠØ¯ÙŠÙ†
Ù„Ù„Ø´ÙŠØ®
Ø§Ù†Ø¬Ø§Ø²
Ø£ØµØ¯Ù‚Ø§Ø¦
##Ù†Ø¶ÙŠÙ
Ø¯Ø§Ù
ØµØ§Ù„ÙˆÙ†
Ø§Ù†ÙØ®
ØªØ±Ø£Ø³
Ø§Ù‚Ø§Ø±
Ù…ÙŠØ¹Ø±Ù
Ø§Ù„Ø¬Ø±Ø°
Ø£Ø¬Ù†Ø¯
Ø¨ÙˆÙ…
##ØªØ¨ÙŠØ¹
Ø§Ù„ØªÙˆØ§ÙÙ‚
##Ù„Ø­Ù†
##ÙˆØµÙˆÙ„
ÙŠÙ†ØªÙ‡
Ù…Ù„ØªØ²Ù…
ÙŠØªØ¹Ø§Ù…Ù„
##Ø¬Ù‡Ù†
ÙˆÙ…ØªØ­ÙŠÙ„
##Ø¥Ø¬Ø§Ø¨Ø§Øª
ÙŠÙ‚Ø¯Ù…Ùˆ
Ù…Ù‡Ø¨Ø·ÙŠ
Ø§Ù„Ø¥Ø¯Ø§Ø±ÙŠ
Ø§Ø³ØªÙ…Ø±Ø§Ø±
Ø±Ø§Ù‚Øµ
Ø§ÙƒØ¨Ø³
Ù…Ø¨Ø§Ù„Øº
##Ø§Ù†Ù‡Ù…
ÙˆØªØ­Ù…ÙŠ
41
##Ù„Ø­ÙƒÙ…
Ù†Ø­ØªØ§Ø¬
Ø§Ù„Ø¨Ø§Ø¦Ø¯
ÙŠÙƒÙ„Ù…Ùˆ
ÙŠØ±Ø«
ÙŠØ·Ø±Ø­
##Ø®Ù„ÙˆÙ†ÙŠ
Ø§Ù„Ø±Ù…Ø§Ø¯
Ù„Ø§Ø³Øª
Ù…Ø§Ø¹Ø±ÙØª
##ØªÙØªØ­
Ø§Ø¹Ù„Ù†
ØªØµØ­Ø­
ØªÙˆØµÙ„ÙˆÙ†ÙŠ
Ù…ØªÙˆÙÙŠ
##Ø®Ø¯ÙˆØ¯
ÙØ®Ø§Ù…
ÙˆÙƒØªØ¨Øª
##Ø¶Ø§Ù
Ø§Ù„Ù…Ù‚ØµÙˆØ¯
ÙˆÙ†ØµÙŠØ­
ÙˆØ§Ù„ØªØ¹Ù„ÙŠÙ…
ØµÙØ­Ø§Øª
Ø¨Ù„ÙˆØ·
Ø§Ø´Ø­Ù†
ÙŠØ£Ø®Ø°
Ù…Ù‚ØµÙˆØ¯
ØªÙˆÙ‚Ø¹Øª
ÙŠÙˆØ§ØªÙŠ
ÙŠØ¸Ù„Ù…
Ø§Ù„Ø²Ù†Ø§Ø·ÙŠ
Ø§Ù„Ù…Ø±ÙˆØ±
Ù…ÙƒØ³Ø¨
##Ø£ØªÙ…Ù†
Ù‚ÙŠÙ…ØªÙ‡
Ø§Ù„Ø«Ù…Ù†
Ø¨Ø¨Ù„Ø§Ø¯
Ø®ØµÙˆÙ…Ù‡
Ø¨Ø®ØµÙˆØµ
##Ø§Ù†Ø³ØªØºØ±Ø§Ù…
Ø§Ø­Ù…
ÙƒÙ…Ù†ØªØ§Ø±
Ø³Ù„ÙŠÙ…Ø§Ù†
ÙˆØ§Ù„Ø¨Ø·Ø§Ù„
ØªØ³ØªÙÙŠØ¯
Ø§Ù„Ø­Ø³Ø§Ø¯
Ù„Ø­Ø¨ÙŠØ¨
Ø§Ø«Ø±Øª
##ØªÛŒ
Ø§Ù„Ù†ÙÙŠØ³
ÙˆÙ„Ø¹Ù‚ÙˆØ¨
ÙˆØ§Ù„ØµØ±Ø§Ø­
Ù†Ø¨Ø§Ø­
Ù…Ù‚Ù„Ù‚
ÙŠØ¹ØµÙŠ
Ø§Ø³Ø§Ù†Ø¯
ØµØ¯ÙˆØ±
Ø§Ù„Ù…ÙØ³Ø¯
Ø¯Ø¹ÙŠÙˆ
Ø§Ù„Ø¹Ø¬Ø²
ØªÙ†Ø²Ù„
ØªØªÙˆÙŠØ¬
Ù…ÙˆØ§Ø²ÙŠ
##ØµÙˆÙŠØª
##Ø­Ø³Ø§Ø¨
Ø£Ø®Ø°
##Ø³ØªØ±Ùˆ
##Ø£Ù…Ù†
Ø§Ù„Ø¥ØµÙ„Ø§Ø­
Ø±Ù‚
##Ù‚Ø§Ø¡Ù…Ø©
ØªØªÙˆØ§ØµÙ„
Ù…ÙØªÙˆØ­Ø©
Ø¨ØºÙŠÙ†Ø§
ØªØ®Ø±ÙŠØ¨
Ø§Ù„Ù…Ø³Øª
Ù„Ù„Ù…ØºØ±Ø¨
ÙØ§Ù†Ø§
ØµÙØ­Øª
Ù†Ù†ØªØ®Ø¨Ùˆ
ÙŠØ¨Ø­Ø«
ØµÙŠØ§Ù…
Ø¨Ø¬Ù…Ù‡ÙˆØ±
Ø¨Ø­Ø¬Ø±
##ØªØ¹Ø±ÙŠÙ
Ù„Ù„Ø£ØºÙ†
Ù…Ø­Ø²Ù†
Ø¹Ø¯Ø§
##ÙØ±Ø­
ØªØ±ÙŠÙƒÙˆ
Ø§Ù„Ø¬Ù…Ø§Ø¹ÙŠ
ÙˆØ§Ù„Ù…Ù†Ø§Ø¸Ø±
ØªÙ…ÙŠÙ„
Ø§Ù„Ø£Ø¹Ù…Ù‰
##ØªØ¬ÙŠØ¨
Ù…Ø¨Ø§Ø±
ÙˆØ­Ù…ÙˆØ¯
Ø®Ø§Ù„Ø·
ÙŠÙÙƒØ±
ØªØ£Ø³ÙŠØ³
Ø¨ØµÙ…Øª
Ù„Ø¯ÙˆÙ„
##Ø³Ù‚Ø·
##ÙƒØ§Ø¦Ù†
Ø¬ÙŠÙˆØ¨
Ø¨ÙˆØ§Ø¬Ø¨
Ø§Ù„Ù‚ØµÙŠØ±
##ØªØ­Ø§Ù„Ù
Ø§Ø·Ø§Ù„Ø¨
##ÙŠÙˆØ³Ù
Ø§Ù„Ù…ÙˆØ§ÙÙ‚
Ø¨Ø§Ù„Ø¹Ø§Ù„Ù…
##Ù‚Ø·Ø±
Ù…ÙŠÙ„Ø§Ù†
ÙŠØ¨ØºÙˆ
Ù†ÙˆÙ‚ÙÙˆ
Ø¯Ù
Ø´Ø¯ÙŠØª
Ù…Ø®Ù„Ø·
Ø§Ù„ØºÙ†Ø§
Ø¨Ø²Ø§
Ø§Ù†ØªØ­Ø§Ø±
Ø§Ù„Ù…Ø±Ø§Ù‡Ù‚
ÙˆØ§Ù„ÙŠÙ‡ÙˆØ¯
Ø§Ø´ÙƒØ±
Ø§Ø«Ù†Ø§Ø¡
Ù„Ø®Ø¶Ø±
##ÙˆÙˆÙˆÙˆÙ‡
##Ø±Ø°ÙŠÙ„
##Ø­ÙŠØ­
Ø§Ù„Ø§Ù†ØªØ±Ù†
##ØµØ§Ø¯Ø±
Ø§ØµØ­
ÙˆÙˆÙˆÙˆÙˆÙˆÙˆÙˆÙˆ
ØªØ³Ø§Ø¹Ø¯ÙˆÙ†
Ø±Ø§ÙØ¹
##Ø²Ù‚
##Ù‚ÙˆÙŠ
Ù…Ø´Ø±Ù
Ø§Ù„Ø±Ù‚Øµ
Ø´Ù„ÙƒØª
Ù†Ø¹Ø¨Ùˆ
Ø¨Ø­Ù…Ù„
ÙˆØ²Ø§Ø¯Ùˆ
ØµÙ†Ø§Ø¯ÙŠ
Ø¥Ø¹Ù„Ø§Ù†
Ø¨Ø¹Ø´Ù‚
ØªØªÙ…Ù†Ø§Ù‡
ÙˆØ­Ù†ÙŠÙ†
##Ø®Ø°
Ø§Ø­ÙˆØ§Ù„
Ø´ÙØ§Ù
Ø§Ù„ÙØ­Ø´
Ø§Ø³ØªØ¹Ø±Ù
ÙƒÙˆØ¬ÙŠÙ†Øª
Ø§Ù„Ù…ØµÙŠØ±
Ø¯Ù…Ø¹Øª
ÙŠØ­Ø±Ù…
##Ø¨Ù„Ø§Ø´
Ø§Ù„Ù…Ù…Ø±Ù†
Ø§ØªØ¬Ø§Ù‡
##Ø²Ù…Ø²Ù…
ÙˆØ§Ø®Ø±Ø¬
Ø±Ø§Ø¦
ÙƒØ¨Ø´Øª
ØªØªØ¯Ø®Ù„Ùˆ
Ù†Ù‚ÙˆØ´
Ø±ÙØ§Ù‡
Ù„Ù…Ø´Ø§Ù‡Ø¯
Ø§Ù„ÙØ¶Ø­
##Ø³ÙŠÙˆÙ†
Ù†ØªØ°ÙƒØ±
Ø£Ù„Ø§Ù
ØªØ´Ø¹Ø±
Ù†Ù‡Ø±
Ø§Ù‚ØµØ§Ø¡
Ù…Ø¹Ù…ÙˆÙ„
Ù‚Ø§ØªÙ„Ù‡
Ø¬Ø§ÙˆØ¨Øª
ÙŠÙØ¶Ø­Ùƒ
Ø¶ÙŠÙ
Ù‚ÙˆØ§Ø¹Ø¯
Ø¨Ø§Ù„Ø§ÙˆØ±Ùˆ
Ù…Ø§Ø²Ù†
ØªÙÙƒ
Ø§Ù„Ù…Ø²ÙŠØ§Ù†
Ø¨Ø²ÙˆØ¬
Ø«ÙŠÙ‚Øª
Ø³Ø±Ù‚ÙˆÙ‡Ø§
ØªØ±Ù‡Ù„
Ù…Ø¬Ù‡ÙˆØ¯Ø§Øª
Ø¨Ø§Ù„Ø¥Ù†
Ù…Ø­Ø¯Ø«
##Ø³ØªÙƒØ±Ø´
Ø´Ø¹ÙˆØ±
Ø§Ù„Ø¬ÙŠ
ÙˆØ§Ù„ØºØ§Ù„ÙŠ
##Ø£Ø¹Ø±Ø§Ø¶
ØªØ­Ø±
##Ø´Ø¨Ù‡
##Ø§Ù„Ø³ÙŠØ§Ø³
Ø§Ù„Ø¯Ø±Ø§Ø³
Ø§Ù„Ù†Ø³Ø§
ÙˆØ£ÙˆÙ„Ø§Ø¯
ÙˆÙŠÙˆÙÙ‚
##ØªÙƒØ³Ø±
ØªØµØ¨Ø±
Ø¨Ø³Ø§Ø·
Ø¨Ø¨Ø¬
Ø¨Ø¹ÙˆØ¯
Ù†Ø®Ø¯Ù…Ùˆ
Ø¬Ø²Ø§Ø¡
Ø­ÙˆØ§Ù„ÙŠ
Ø®Ø§Ø¦Ù†
Ù†Ø¸Ù
##Ø¶Ø±ÙˆÙ
Ù‚Ø¨ÙŠÙ„
Ù…Ø§Ø´Ø§
ÙˆÙØ±Ø­Ø§Ù†
Ø§Ù„Ø¹Ø´
Ø¥Ø®ØªÙŠØ§Ø±
Ù…Ø­ØªØ§Ø¬ÙŠÙ†
ØªØ§ÙˆØ¹
##Ø±Ù…
Ù†Ø¸Ø§Ù
ØªØ®Ø¨ÙŠ
##Ù‡Ø±Ø¨
##ÙŠØ±Ø§Øª
Ù†ÙˆØ§
Ø¬Ø±Ø§Ø¡
Ù„Ù„ØªÙˆ
ØªØªØ­Ø³
##Ø¸Ø±Ù
ÙŠØ³Ù‚Ø·
Ø§Ù„Ø¹Ø§Ø·Ù
Ù‡Ø¯ÙŠØ©
Ø­Ø§Ø¯Ø«
ØµØ¨Ø§Ø¨
Ù…Ø­Ø¶Ø±
ÙŠØ´Ø·Ø­Ùˆ
Ø§Ø¯Ø¹ÙŠ
ÙØ§ØªØ­
ØªØ±Ø´ÙŠ
##Ù…Ø§ÙƒÙ†
Ø§Ù„Ù…Ù†Ø§Ø¸Ø±
Ø³Ù†ÙÙˆÙˆÙˆ
Ø§Ù†ØªØµØ±
Ù‡Ø§Ù†Ø§
ÙˆØ§Ù„Ù‚Ùˆ
##Ø§Ø±Øª
ØªØ¹Ù„Ù…Ùˆ
##Ø§Ø¹ØªØ°Ø§Ø±
Ù…Ø§Ø¹Ø§Ø¯
Ø¹Ø§Ø¡Ù„
Ø·ÙˆØ¨
Ø­ÙƒÙˆÙ…
##Ø§Ù„ÙØ³ÙØ§Ø·
##Ø­Ù‚Ø§
Ù…Ø±ÙˆØ­
##Ø¬ÙˆØ§Ø²
##Ù„Ø§Ù‚ÙŠ
Ø§Ù„ØªÙ
##Ø§Ù†ØªØ®Ø¨
Ø³Ù„Ø·Ø§Ù†
Ù„Ù„Ø®Ø±
Ø­Ø§Ù„ØªÙ‡Ø§
Ø¨Ø±Ø¬Ùˆ
Ø³Ø¨ÙŠØ³
Ù‚Ø§Ø·Ø¹Ùˆ
Ù†Ø­Ù„
Ø°Ù„
Ø§ØªÙŠØª
##Ù„ÙˆØ­Ùˆ
Ù„Ø·Ø±ÙŠÙ‚
Ø¹Ù„Ø§Ù‚Øª
ÙˆÙ†Ù‡Ø¨
##Ø¨ØªÙƒ
Ø´Ø¨Ø§
Ø£Ø³Ø§
Ù…ØªØ­ÙƒÙŠ
Ø§Ù„Ù…ÙˆØ¶
##Ø±Ø¯Ùˆ
Ù‡Ø±ÙŠØ³
##Ø§Ø§Ø§Ø§Ùˆ
Ø­Ù„ÙˆÙˆÙˆ
##Ø´Ø§
Ù†Ù„Ø¨Ø³
ÙˆØ§Ù„ØºØ±Ø¨
##Ø§Ù„Ø±ÙŠØ§Ø¶
ØªÙ†Ø´Ø±
Ù…Ø¸Ù‡Ø±
Ø§Ù„ØºÙ
Ø¥Ù†ØªÙ‡
ÙˆØ§Ù„Ù…Ø³Ù„Ù…
Ø§ØªÙˆØ§
ØªÙƒØ±ÙŠÙ…
Ù†Ø§Ø¶
Ø§Ù…ØªØ­Ø§Ù†
##ØªÙ‡Ø±Ø¨
##19
ÙˆØ¢Ø®Ø±
Ø§Ø´ØªÙ‚
##ØªÙÙ‚Ø¯
ÙˆÙŠØ³Ø¹Ø¯
##Ø£Ø¹Ù„Ù…
Ø¨Ø®
Ù„ØºØª
Ø§ÙŠØ§Ø¯ÙŠ
Ø§Ù„ÙˆØ±Ø¯
ØªØµÙˆØ±Ùˆ
Ø¹Ø°Ø¨
##Ø²Ø§Ø¦
Ø§Ù„Ø±Ø§Ø­
##Ù…Ø¯Ø­
ÙŠÙˆØªÙˆØ¨Ø±
Ù‚Ù„Ù‚Øª
Ø®Ø¯ÙˆØ¯
Ø§Ù‡Ù„ÙŠ
ØªÙÙ‚Ù‡Ùˆ
ÙˆØ§Ø³
##Ø¹ÙØ§Ø·
ØªØ¹Ù„Ù†
Ø§Ù„Ø¨Ø¯Ù†
Ù…Ø®Ù„
##Ù‡Ø²
##Ø¹Ù†Ø¯
##Ù‚Ø±ÙˆÙ†
Ø®Ø·Ø±Ø§
Ù‡Ù…ÙˆÙ…
##Ø³Ù‚
##Ø±Ø­Øª
Ø­Ù…Ù„Øª
##Ø§Ù„Ù…Ù‚Ø¯Ù…
##Ø­ÙˆØ§
##Ù†Ø­Ø¨Ø´
Ø¶ÙŠØ¹Øª
Ù†Ø´Ø±Øª
ÙŠØ¹Ø±Ø³
ØªÙ‡Ù†
ØµÙˆØ·
ÙŠÙ†Ø­ÙŠÙˆ
Ù…ØµØ·
##Ø¹Ø±Ø¨
Ù…Ø´ØºÙ„
Ø§Ø³Ø¦Ù„
##ÙŠÙ…Ø«Ù„ÙˆÙ†
Ø·ÙÙŠ
ÙŠÙ‡ÙˆÙ†
ØªØ­Ø¨ÙˆÙ†
Ù…ØºØ§Ø±
Ø¯Ù„
##Ø§Ù†Ø³Ø¬Ø§Ù…
Ø§Ù†Ø³ØªØºØ±Ø§Ù…
Ø¨Ø§Ù„Ø£Ù…
Ù…Ù‡Ø§Ù…Ù‡
##ØªÙ‡Ø§Ù†ÙŠ
Ø§ØªÙ„Ù‡Ø§
Ø¨Ø³ÙŠÙ
Ø¹Ø§ÙŠ
ÙØµ
##Ø§Ù…Ù„Ø§Ùƒ
Ø§ØªÙ‚
ÙŠØªØ­Ù„
Ù†Ø³Ù‚Ø³ÙŠÙƒ
##ØªØ³Ø§Ø¡Ù„
##Ø´Ù…Øª
Ù„Ù„ØªÙˆÙ†Ø³ÙŠ
Ù‡ÙˆØ§ØªÙ
Ø´ÙŠÙƒØ§Øª
##Ø¶Ø­ÙƒÙ†ÙŠ
Ù‚Ø±Ø¯
##Ø­Ø§Ø¨
Ù…Ø³ÙƒÙ†
Ù„Ø¹ÙŠØ¨
##ØµØ¹ÙŠØ¯
Ø¨Ø±Ø¦ÙŠØ³
Ù…ØªØ¯ÙŠÙ†
ØªÙ‡Ùˆ
Ù…Ø§Ø¹Ù…
Ø¨Ø¹Ø¨Ø§Ø¯
ÙˆÙ†Ø¹Ù…Ù„
ØªØ¨Ù‚Ø§
Ù†Ø¶Ø­Ùƒ
ÙØ±ÙˆØ¹Ù‡
##ÙŠØ²ÙŠ
Ø¬Ù‡ÙˆÙŠØ§Øª
##Ù„Ø¬Ø§Ù†
Ø§Ù„ÙƒÙØ§Ø¡
ÙŠØ®Ù„Ù‚
Ø¬Ø§Ø§Ø§Ø§Ø§
ØµÙØ­
Ø§Ù„ÙƒØªØ§Ù†
ØªØ®Ø·Ø§Ù†
ØªÙ‡Ù…
Ø­Ù‚ÙˆØ§
Ù…Ø³Ø¬
##Ø¯Ø®ÙŠÙ„
Ù…ØªÙ‚Ø¯Ù…
##Ù„Ø¬Ù†ÙˆØ¨
ÙŠÙ†Ø¹Ù…
Ù…Ù…ÙŠØ²
##Ø·Ø§Ù„Ø¨
Ù…ØªÙÙ‡Ù…
Ø¨Ø§Ù„Ù†Ø§
ØªØªÙƒÙ„
ÙˆÙ‚Ø§Ø­
Ø´Ù‡Ø¯Ø§
ÙˆÙŠØ¹
Ø±Ø§Ø¬Ø¹Ùˆ
Ù‚Ø±Ù†
Ø¹Ù„Ù…Ø§Ø¡
ÙŠØªØ¹Ø¨
##ØªÙƒØ¯Ø±
Ù‡Ø²Ùˆ
Ø³Ø±ÙŠØ¹
Ø´Ø¹Ø¨ÙŠØªÙƒ
ØªØ±Ø³ÙŠ
Ø§Ù„Ø¥Ù‚ØªØµØ§Ø¯ÙŠ
Ø§Ù„ÙØ±Ø¯ÙŠ
Ù„Ø¬Ø§Ù†
Ø§Ù„Ø®Ø§Ø±Ø¬ÙŠ
Ø´ÙƒÙ„ÙŠ
##ÙŠÙ‡Ø§Øª
Ø§Ù„Ù†Ø¶Ø§
##Ù†Ù†
Ø§Ø·Ù„Ø§Ù‚
##ØªÙˆÙ†ÙŠ
Ø¨Ø³ÙŠØ³
ÙˆØ¹Ø§Ø¯Ù„
##ØªÙØ§Ù‡Ù…Ùˆ
##Ø§Ù„Ø¹Ø±Ø§Ù‚
Ø§Ù„Ù„Ø­Ø§Ø³Ø©
Ù†Ù‡Ø¬
Ù†Ø¨Ù†ÙŠÙˆ
ÙˆØ§Ù„Ø§Ø³
Ù…Ø®Ø±Ø¨
Ø§ØºÙ„Ø¨Ù‡
##ÙˆØ¶Ø¹
Ø§Ø¹Ø§Ø¯
Ù†Ù‚Ù
Ù…Ù†ØªØµÙˆØ±
ÙÙ‚Ø¯Øª
Ù…ÙˆØ§Ù„ÙŠ
Ù†Ø­ÙƒÙŠÙ„Ùƒ
Ø¹Ø§ÙŠØ²
Ø§Ù„Ø±Ùˆ
Ø¨Ù†Ø­Ø¨Ùƒ
ØªÙ„ÙˆØ¬Ùˆ
Ù‚ØªÙ„Ù†
##Ù„ÙÙŠØ¯ÙŠÙˆ
Ø§Ù„Ø¹Ù‚Ùˆ
##ØªÙ†Ø¬Ø­
Ù…Ù†Ù‡Ø¬
Ø®Ù„Ù„ÙŠ
Ù„Ù†Ø§Ø¯ÙŠ
ÙˆØ§Ù„Ø¹Ø§Ø±
ÙŠØ­Ù…Ø¯Ùˆ
##Ø¬Ø±Ø­
Ø­ÙˆØ§Ø¬Ø¨
##Ù…Ø§Ø²Ù„Øª
Ø§Ù„ØªÙˆØ±ÙŠ
Ø§Ù„Ø­Ø±Ø§
Ø¬Ø¯ÙˆØ¯
ÙˆØ¬Ø§Ø¨
Ø­Ø§Ù„Ø§
Ø§Ø³ÙŠØ§Ø¯Ù‡
##ØµØµ
Ø¨Ù‡Ø¯Ù„Øª
##Ø£Ø±Ø¨Ø¹Ø©
Ø¨Ø§Ù„Ø±ÙŠØ§Ø¶
##ØªØºØ±Ù‚
ÙƒØªØ¨ØªÙˆ
##Ø¯Ø§Ø¦Ù…
Ø¨ØºØ¯Ø§Ø¯
##Ø§Ø¨Ù‡Ø§
##Ø¯Ø¹ÙˆÙ†
##Ù†Ø­ÙƒÙŠ
##Ø¯Ø®Ù„Øª
Ø§Ù„ØºØµ
##Ù„ÙØ±ÙŠÙ‚
Ø§Ù„Ù…ÙŠØ§Ø¯
##Ù†ØªØ­Ø±
Ù†ØµØ­Ø­Ùˆ
Ø§Ù„Ø¹Ø¨Ø±
ÙˆØ­Ø±Ø§Ù…
ÙˆÙƒØ£Ù†Ù‡
Ù…ØµÙˆØ±
ÙŠÙˆÙØ§
Ø¹Ø¯ÙŠÙ…
ÙˆÙ†Ù‚
Ø§Ø¹Ø·Ùˆ
##Ù…Ø«Ø§Ø¨Ø±
##Ø·Ø§Ù‡Ø±
ÙŠØ§Ø®Ø¯
Ø§Ù„Ù…Ù‚Ø¨Ù„
ØªÙƒÙ
##Ù„Ø§Ø¹Ø¨
ÙˆØ¶Ø¹ÙŠØª
Ù„Ø´Ø§Ù†
ØªÙ‚Ù…
Ù…Ù†Ø§Ø¶Ù„ÙŠ
Ø§ÙˆÙ‚Ù
##Ø³Ù…ÙŠÙ†
ÙˆØ®Ø°
Ù…ØªÙØ±Ù‚
ÙƒÙŠÙƒØ©
Ø¬Ù‡Ø§Ù„
Ø§Ù„Ù…Ø¨Ø§Ø±Ùƒ
Ù„Ø±ÙˆØ§Ø­
Ø¨Ù†Ù‚Ø±
Ø§Ù„Ø²ÙˆØ§
ØªØ´ÙˆÙÙŠ
##ÙˆØ§Ù„Ù„Ù‡
Ø¬Ø±ÙŠØ¯
Ø§Ø­ÙƒØ§Ù…
ØªØ¨Ù†ÙŠ
ØµØ±Ø­
ØªÙƒØªØ¨ÙŠ
Ø´ÙˆØ§Ø±
##ØªÙ†Ø¸Ø§Ù
ØºØ§ÙŠØªÙ‡
ØªÙˆÙˆÙˆ
##Ø­ÙƒÙŠ
Ù…Ø±ØªØ¨Ø©
##ØªÙ„Ù‚Ø§Ù‡
Ø§ØªØ­Ø¨Ùˆ
ÙˆÙ…Ø´ÙƒÙ„
##Ø§Ø±Ù‚Ø§Ù…
Ø§Ø¯Ø¹ÙŠÙˆÙ„
##ÙˆÙ„ÙŠØª
##Ø§Ø®ÙŠØ±Ø§
ÙˆÙ„ÙƒÙ†Ù‡
##Ù„Ù…Ø§Ù†
Ù‚Ù‡Ø±Øª
Ø¬Ù„Ø§Øª
ÙˆØ§Ù„Ø¯Ø¹Ø§Ø±Ø©
ÙˆÙ†Ø¶
##ØªÙ„Ø§Ù
##Ø®Ø¨
##Ø³Ø¹ÙˆØ¯
Ø§Ù„Ø¥Ø­Øª
ÙˆÙ†Ù‚ÙˆÙ„
ÙˆÙ…Ø±Ø¶
Ù…Ø¹ØªØ¨Ø±
##Ø§Ù„Ø¯Ø§Ø±
Ø§Ø­Ùƒ
ÙŠØ¯Ø±
##ÙŠØ¯ÙŠØ±
Ø§Ù„Ø³Ø¬
##Ø­Ù„ÙˆÙ‡
##Ù‚Ù„Øª
Ø±Ø¶Ùˆ
ÙÙ‚Ù†Ø§Øª
Ù†Ø­Øª
Ù…ÙˆØ·Ù†
ÙŠÙ†ÙˆØ¨
Ø¨Ù†ÙˆØª
Ù‡Ø¯Ø±Øª
ÙˆØ³Ù†ÙŠ
Ù‚ÙŠÙ…ØªÙƒ
##Ù„Ù…ØµØ±
Ù„Ø´
ØºØ²
##Ù‚Ø·ÙŠØ¹
ØªØ¹Ø±ÙŠÙ
ØªØ­Ù…Ø¯
##Ù„ÙØ§Øª
Ø§Ø­Ø·
##Ø¢Øª
##Ø§Ù„Ø¹Ø¨Ø§Ø¯
ÙˆØªÙ
Ù†Ø´Ø§Ø·
Ø§Ù†Ù‚ÙˆÙ„
Ø£Ø®Ø·Ø§Ùƒ
Ø§Ù„Ù‚ÙˆØ§
ÙˆØªØ¹ÙŠØ´
Ø¨Ø¹Øµ
Ù‚Ø¯ÙŠØ±
ÙƒØº
ÙƒØ¨Ø´
Ø§Ø±Ø°
##Ø³ÙŠØ§
Ø¹Ù…ÙˆÙ…ÙŠ
ÙˆÙ†ØªÙ…
##Ø§Ù„ÙˆØ·Ù†
Ø´ÙÙ†Ø§Ù‡
Ø¨Ø§Ø¯Ø±
Ø§Ù†Ø´ÙˆÙÙƒ
Ø¨ÙˆØª
Ø§Ù„ÙØªØ§
##Ø´Ù…
ÙˆØ¨Ù†Øª
##Ù„ÙˆØ¨
Ø²Ù‚Ùˆ
ÙŠÙ‚Ø±Ø§Ùˆ
ÙÙ…Ù‡
Ø¶ÙŠÙ‚
##ØµØ­Ø§Ø¨
Ø´ÙÙŠÙ‚
##Ø¥ÙØ±ÙŠÙ‚ÙŠ
##ÙŠÙƒØ³Ø±
##Ø·Ù†
##Ø¨Ø±Ù…Ø¬
Ø§Ø±Ø§Ù‡
Ù„Ø´Ø¹Ø±
ÙˆÙ†Ø­Ø¨Ùˆ
##Ù…Ù„ÙŠØ§Ù†
ÙŠØ³Ù…Ø§
##ÙƒØ¨ÙŠØ±
ÙˆÙ†ØªÙ…Ù†Ø§
Ù…Ø­Ø¬Ø¨
Ø§Ù‚Ø±Ø§
Ø¹Ø§Ø¯Ù…
Ø§Ù„Ø°Ø±
##Ø§Ù„Ø¹Ø¯Ù„
##Ù„ÙˆØµÙˆÙ„
##Ø±ÙˆÙ„
ØµÙ„Ø§Ø­ÙŠØ§ØªÙ‡
Ø¯ÙˆÙŠÙ„
Ø­Ù…ÙŠØ±
ÙˆÙ‚Ø§Ù…
ÙƒÙˆÙ„Ø´
Ø§Ù„Ø¯Ù…Ø¹
Ø§Ù„Ø¬Ø§Ù‡
Ø¨Ø§Ù„Ø·Ø¨
Ø§ÙÙ‡Ù…Ù‡Ø§
##Ø¬Ø¨Ø§Øª
Ø°Ù‡Ø§Ø¨
Ø£Ø¹Ø·Ø§Ù‡
Ø³Ù…Ø§Ù†
Ø­ÙƒÙˆÙ…Ø§Øª
Ø³Ø§Ù‚ÙŠ
Ø§Ù†ØªÙ…Ø§Ø¦
ÙŠØ³Ø§Ù„
##Ø¹Ø§Ù‚Ø¨
##ØªØ¨Ù†Ø¯ÙŠØ±
ÙˆØ£ÙŠ
ØªØ³ØªØ¹Ù…Ù„ÙŠ
##Ø³Ù‡
Ø§Ù„Ø®Ù…Ø³
ÙˆØ´ØªØ±Ø§Ùƒ
ØµÙ†
ÙˆØ´Ø±Ø¨
ÙˆØ¶Ø¹Ù‡
Ø§Ù„Ù…Ø§Ø¶ÙŠØ©
ÙˆØ§Ù„Ø¹Ù„Ù…
Ø¨ØªÙ…ÙˆÙŠÙ„
ÙŠØºÙ†ÙŠÙˆ
Ø§Ø­Ø´Ù…Ùˆ
##Ø¨Ù„Ø¯
Ø§Ù„Ø²Ù†Ø§
ÙˆÙØ´Ù„
ØªØ®ÙˆÙ†
Ù…ÙØ§
##Ø§Ø¯ÙŠØ©
##Ø§Ù„Ù…Ø§Ø±Ùƒ
Ø¹ØµØ§
Ø¨Ø±Ù†Ø§Ù…Ø¬Ùƒ
Ù„Ø¨Ùˆ
Ù„ÙˆØ·Ù†ÙŠ
Ø¯Ø¹Ù…Ùƒ
##Ø¯Ø³Ø§Øª
Ø¨ÙˆØ³Ø§
Ø§Ù„Ù†ÙƒØª
ØµÙˆØ±ØªÙ‡
Ù†Ø§ÙƒÙ„
Ø£Ø¹Ù…Ù„Ùˆ
ÙˆØ®Ø§Ø±Ø¬Ù‡
Ù…Ø±Ø¨ÙŠ
Ø§Ø®Ø³
##Ù‚Ø§Ù„Øª
##Ù„Ø¹Ù†Ø§
##ØªØ­Ø§ÙˆÙ„
##ÙÙ†
##Ø¯ÙŠØ±ÙŠ
##Ø°Ø¨Ø­
##ØªØ·Ø±Ù
Ø¥Ø°
ØªÙÙ‡
Ø£ØµÙˆØ§Øª
ÙŠØ¬Ø§ÙˆØ¨Ù†
Ø§Ù„Ø®Ø§
##Ù„Ø£Ù‚Ù„
##Ø¯ØªÙ†Ø§
Ù‚Ù„ØªÙ„
Ù„Ù‚ÙŠØªÙ‡Ø§
Ø§Ù„Ù…ÙŠØ§
##Ø§ØºÙ†ÙŠÙ‡
##Ø§Ù„Ø¹Ø§Ù„Ù…
Ø´Ø¨Ùƒ
##Ø±Ø±Ø±Ø±
Ø§Ø®Ø·Ùˆ
##Ø±ÙŠØª
##Ø§Ù„Ø¨Ø­Ø±
##Ù†Ø¨Ø°
Ø·Ø±Ø§
Ù…Ø¹ÙŠØ§
Ø´Ù‡Ø§
ØªØ±ÙƒÙŠØ¨
##Ø±ØªÙØ¹
##Ù„Ù‚Ø¯
##Ù„Ù‚Ù„Ø¨
ÙˆÙ„ÙˆÙ„Ø§
##ÙŠØ³ÙŠ
ÙŠØªØµØ±ÙÙˆ
Ø§Ù„Ø´Ø±Ø¹
ÙˆØ¨Ù„
##ØºØ§Ø²ÙŠ
##Ø³ØªÙ…ØªØ¹
Ø§Ù„Ø¹Ù‚Ø±Ø¨
Ø§Ù„Ø¯ÙŠØ§Ù†
Ø§ÙˆØ±ÙˆØ¨ÙŠ
ÙŠØ³ÙŠØ¨
ÙÙˆÙ
Ø§Ù„Ø¹Ø±Ù‚
ØªØ¨Ø¹Ø¯
##ÙƒÙˆÙƒÙŠ
Ù…Ø¨Ø¯
Ø§Ù„Ù„Ù‡Ø¬
Ø§Ù„ØªØ­ÙƒÙŠÙ…
Ø§Ù„Ø´Ù‡
Ù„Ø¨ÙŠØ¨ÙŠ
Ø±ÙˆÙˆÙˆÙˆÙˆÙˆÙˆÙˆÙˆ
ÙŠÙ„Ø²Ù…Ùˆ
Ø§Ù„Ø±Ø§Ø¨ÙˆØ±
Ø£Ø±Ø¨Ø¹Ø©
##ÙÙ‡Ù…Ù‡Ø§
ÙŠÙƒØ±
Ø§Ù†ØªØ®Ø¨Ùƒ
##Ù‡Ù‡Ù‡Ù‡Ù‡
##ØºÙ„Ø§Ø·
##Ù†Ø¯Ù…
##Ù‚Ø¯Ø§Ù…Ùƒ
ÙŠØ´Ø§Ù‡Ø¯
Ù…Ø§Ù†Ø¬Ù…
##Ø®Ù„Ù‚
Ø¨ÙˆØ¨
ÙˆÙ†Ø­
ÙˆØ§Ù„Ø¹Ø´Ø±
Ù†Ù‚Ø¯Ù…
Ø·Ù„Ø¹Ù†Ø§
Ø§Ù„Ù‡Ø¯Ø§
Ù…Ø¶
ÙˆØ­Ø§ÙˆÙ„
##Ø¯ÙˆÙ…
##Ø±Ø²Ù‚Ù†ÙŠ
Ø§Ù„ØªÙ‚Ù„ÙŠØ¯
Ù†Ø³Ø§Ùˆ
ØªØ¬Ø¯Ù‡
##ØªÙˆØ±ÙŠ
Ø§Ù„Ø¹ÙŠØ§
ÙˆÙ†Ø´Ø§Ø¡
##Ø¥Ø³ØªØ´Ø§Ø±
Ø®Ù†Ø´Ùˆ
ÙˆÙ†Ø´Ø±
##ØµØ±Ù
ÙˆØªØ­Ù„
##ÙˆÙŠÙ‡
##Ù‚ÙŠØ§Ø³
ØªØ¹Ø²
##ØªØ²Ø§Ù…
##Ø§Ù„Ø¬Ù…Ø¹ÙŠØ§Øª
Ù„Ø§Ø²Ù…Ù‡
Ø§Ù„Ù…Ø·Ø§
##Ø­Ø¯ÙŠØ«
ÙˆÙˆÙˆ
##ØªØ§Ø®Ø¯
##ÙŠØ¯ÙŠÙƒ
Ø§Ø³Ø§Ø¡
##ÙØ·Ù†
Ù†Ø¸ÙÙˆ
Ø§Ù„Ø§Ø­Ø²Ø§
ÙŠØºØ·
Ù„Ø§Ø­
Ø´Ø·Ø±Ù‡
##Ù…Ø±ÙŠÙ†
Ø§Ù‚Ø¹Ø¯Ùˆ
Ø­Ø±Ø§Ø¨
Ø­Ø±ÙƒØª
##Ø§Ø­Ù„Ø§Ù…
##ØºØ²Ùˆ
ÙƒØ£
##Ø§Ù„Ù…ØºØ§Ø±Ø¨
##ÙƒÙ…Ø§Ù„
##Ø´ÙƒÙˆÙƒ
ØªÙÙŠ
Ø§Ù„Ù…Ø±Ø§Ø¡
##ØªÙÙˆÙ‚
ØªØ­Ø³Ùƒ
##ÙŠØ·Ø§Ù„ÙŠ
##Ø¯Ù…Ø©
ÙŠÙ†Ø³
##ÙŠØ³ÙŠØ±
Ø§Ù„Ø¯Ø¹Ø§Ø±
Ø§Ù„ØªÙ†
##Ø§Ù„Ø­
##Ù…Ù„Ø§Ø¹Ø¨ÙŠØ©
Ù‚Ø¯Ù…ØªÙ…
##ÙŠØ¯ÙˆØ³
##ØªÙ†Ø§ÙØ³
ÙŠÙˆÙ
ÙŠØªØ§Ø¬Ø±
ÙŠØ¬Ù…Ø¹Ù†
Ø§Ø¹ÙŠØ´
Ø¬Ø²
##ØªØ¹Ù„Ù…
##Ù„Ø±Ø¦Ø§Ø³
##Ø±Ø±Ø±
##Ø´Ø£Ù†
Ø§Ù„Ù…Ù„ÙŠØ§Ø±
##Ù„Ù‚Ø¯Ø§Ù…
Ù…Ø¯Ø§Ù†
ÙƒØ£Ù†
Ù‡Ù„Ø¨Ø§
##Ù†Ø¶Ø§Ù„
Ø£Ù„Ù…
Ø´Ø¹Ø¨Ùƒ
ØªØªØ¹Ø¯Ø§
Ø§ÙƒØªØ´Ù
##Ù‡Ø¯Ø±
Ù…Ù‚Ù„Øª
ÙˆØªÙ…
Ù…Ø´ÙƒÙˆØ±
Ø¨Ø³Ø±Ø¹Ù‡
Ø§Ø³ØªØ¯Ø¹Ø§
Ø§Ù„Ø®Ø·Ø¨
Ø§Ù„Ø¨Ø±ÙŠÙ…
##Ø³ØªÙŠÙƒ
Ø¹Ù…Ù„ÙˆÙ‡Ø§
Ø§Ù„Ù†Ø³Ø¨
##Ø¸Ù„Ø§Ù…
ÙˆÙŠØ®Ù„ÙŠ
##ÙŠØªØ´
##Ø£Ø­Ø¯
Ø¨ØªÙ…Ù†
Ø§Ù„Ø´Ø±Ùƒ
##Ù„Ø§Ø®Ø±
##ÙŠØ£ÙƒÙ„
Ù„ØºØ²
ÙŠØµÙ
Ø­Ù„ÙˆÙ
Ø¯Ù‚Ø§
Ø®Ø·Ø§Ø¨Ø§Øª
Ø§Ù†Ø­Ø·Ø§Ø·
Ø¥Ø³
ÙˆØ¬ÙŠÙ‡
ÙŠØ¹Ø·ÙŠÙˆ
Ù„Ø§Ø®ÙˆØ§
Ø³Ù…Ø­Ùˆ
##ØªÙ„Ø¹Ø¨
##Ù†ÙƒØ§Ø±
ÙŠØ±Ø²Ù‚Ùƒ
Ø§Ù†Ù‚Ø±Ø¶Ùˆ
ÙŠØ§Ù…Ù†
Ø¨Ø¹ÙŠÙ†Ù‡
Ø§Ù„ØºÙ„
Ø®Ù„ÙŠØªÙ‡
##ØºÙ„Ø·
##Ø§Ø­Ù…Ø¯
Ø·ÙˆØ§
Ù…Ø¬Ø§
Ø­ÙƒÙ…Øª
##Ø±Ø´Ø­
##Ø³ØªØºØ±Ø¨
##ÙÙˆØ¶
Ù…Ù‡Ø¨
ØªÙˆØ³
Ø¹Ø¶
Ø¨ØµÙˆØªÙ‡
Ù…Ù†ÙˆØ¨
Ø¨Ø§Ù„Ù…Ù†Ø§
##Ù†ÙØ¹
Ø§Ù„Ø£Ø¨Ø¯
##Ø£ÙŠ
Ù†Ø´Ø¬Ø¹Ùˆ
Ø´Ø§Ù…
##Ø±Ø®Øµ
##Ø§Ø±ÙŠØ³
##Ø§Ù†Ø®Ø±Ø§Ø·
##Ø§Ù„Ø¬Ø§ÙŠØ©
Ø¹Ø§Ø¦Ù„Øª
ØªØ§Ø¨Ø¹ÙˆÙ†
Ù„Ù…ØµØ§Ù„Ø­
##ØªØ·Ø§ÙˆÙ„
Ø§Ù„ØªØ¬Ù…
##ÙˆØ±Ø·
Ù„Ø¹Ø¨Øª
##Ø«Ø±Ùˆ
ÙŠØ²Ø¹
ÙˆØ§Ù„Ù…Ø§Ù„
##ÙˆÙŠÙ†
##Ø§Ø¹Ù„Ø§Ù†
ÙˆØ§Ø®
##Ù†ØªÙ‡ÙŠ
ÙÙ†Ø²
ÙŠØ®Ø·Ùˆ
##Ø¤ÙƒØ¯
ÙˆØ¬Ù…ÙŠÙ„
##Ø·Ù„ÙŠ
Ù‡Ø§Ù…Ù„
ÙƒÙ„Ø§Ø§Ø§Ø§Ø§
Ø¨Ù…Ù†Ø§
Ù†Ø±Ù…
ÙŠÙƒØ±Ù‡Ùˆ
##Ù…Ø±Ø§Ø¬Ø¹
ØªØ§Ù„Ù…Ùˆ
Ø³Ø¹ÙŠ
##Ù„Ù„Ù„Ù„
##ÙˆÙ„ÙˆØ§
ÙŠÙ‚ÙˆØ¯Ùˆ
##Ù…Ø±Ø§ØªØ¨
Ù„Ø¯ÙŠÙ†
Ø¨Ø§Ù„Ù‡Ø¯
ÙˆØ§Ù„Ù…Ù‡Ù…
Ø¨Ø§ØªÙ…
##Ù„Ø«ÙˆØ±Ø©
##ØªÙÙƒØ±
Ø§Ù„ÙƒØ§Ø¦
Ù…ÙŠØ³ÙŠ
##Ù…ØªØ§Ø¨Ø¹ÙŠÙ†
Ø§Ø­ØªØ±Ù…Ùˆ
ØªÙˆÙ†
##Ø²Ùƒ
##ÙƒÙ„ÙŠØ¨ÙŠØ³Øª
ÙˆÙ„Ø§ÙŠØ§Øª
Ø´Ø·Ø­
Ø§Ù„Ù…Ù‚Øª
##Ø§Ù„Ø¹Ø§Ù‚Ø¨
Ø¨Ø¹Ø¯Ùƒ
Ø§Ù„ØªØº
##Ø¹Ø§Ù„Ø¨
##ØºÙ„Ø·Ø©
##Ø¦Ø·
ÙØ¨
ÙˆØ§Ù„Ø§Ø®Ø±
Ù„Ø£ÙŠ
##Ø­Ù‡
##Ù…Ø´ÙŠ
##Ø±Ø§Ø¦ÙŠ
Ø­Ø³ÙŠØªÙ‡
Ø£Ù‚
Ø·Ù„Ù‚Øª
Ø£Ø­ÙƒÙŠ
ÙˆØªÙˆÙ„ÙŠ
##Ù‡Ø°ÙŠ
Ø£ØµØ¯Ø±
Ø³ÙŠØ§
ØªØ¹Ø¨Ø§Ù†
ØªØ®Ù„ÙŠÙ‡Ø§
##Ø¹Ø§ÙŠØ§
Ù„Ø§Ù
Ù†Ø§Ø¶Ù„
Ù‚Ø±Ø§Ø±Ø§ØªÙƒ
##Ø­Ù‚Ø±
Ø­Ø³Ø§Ø¨Ø§ØªÙƒ
Ø§Ù„Ø­Ø¸
Ø§Ø³ØªÙ‚Ù„Ø§Ù„
Ø§Ù„Ø¬Ø±Ø§ÙŠ
##Ø¨ÙŠÙˆØ¹
##Ø±Ø£
ÙˆØ§Ù„Ø­Ø±
Ù†Ù‚ÙŠ
##Ø¨Ø±ÙŠØ·Ø§Ù†ÙŠ
ÙˆÙ„Ø§Ù‡
##Ø¯Ù‚Ø§Ø¦
Ù…Ø¬Ø§Ù†
##ØµØ¯
ÙƒØªÙ
Ø¯Ø¹Ø§Ø±
ÙŠÙ‚Ø±Ø§
##Ù‡ÙŠØ¦
##ØªØ­Ø³Ù†
Ø¬Ù‡Ø§
##Ù†Ù…
##Ø¸Ø§ÙØ±
Ø¬Ø§ÙŠØ¨ÙŠÙ†
Ø·ÙˆØ±
ÙˆÙƒØ°Ø¨
ÙŠØ±ÙˆØ­Ùˆ
Ø§Ù„Ø¥Ø¬Ø§Ø¨
Ø­Ø´ÙŠ
Ø§Ø³Ø¨ÙˆØ¹
##Ù…ØªØ§Ø¨Ø¹
Ø­Ø²
Ø£Ø±Ø¯
##ÙŠÙ†Ùˆ
Ù†Ø­ØªØ±Ù…Ù‡
##Ø§Ø±Ø§
ÙŠÙ‚Ù†Ø¹
Ø¨Ø´Ø±ØªÙƒ
Ø¯Ø®
##Ù…Ø±ÙƒØ¨
##Ø®Ù„ÙˆÙ‚
ÙƒØ§Ù„Ø³
Ù†ØªØ§Ø¦Ø¬Ù‡
Ù„Ø°
Ø³Ø¨Øª
ÙˆØ¹Ø§ÙÙŠ
##Ø§Ù„Ù…Ù†Ø§Ø³Ø¨
ØªØ´Ø¯Ùˆ
Ù†Ø¯ÙŠØ±Ùˆ
Ù…ÙÙŠÙ‡
Ø´Ø§Ø±
Ø§Ù„Ø¨Ù‚
Ø§ØªØ²ÙˆØ¬
ÙˆÙ‡Ø°Ø§Ùƒ
##ØªÙ‚Ø§Ø¹Ø¯
##Ù…Ø³Ø§Ø¹Ø¯Ø§Øª
##Ø¬Ø§Ù…
Ø¹Ø±ÙŠÙ‚
##Ø¸Ùˆ
ÙˆØ§Ø®Ø¯
##ØªØ·Ù„Ø¹
##Ù…Ù„ÙŠØ­
Ø®ØªØ±
Ø²ÙŠØ¯Ù†Ø§
##Ø­Ø¨ÙŠ
Ù„ØºÙŠØ±Ù‡
ÙŠØ³ØªØ«Ù…Ø±
ÙˆØ§Ø¯Ø®Ù„
ÙŠÙ†Ù‚
Ù…Ø§ØªØ¹Ø±Ù
Ø¯Ù†ÙŠ
Ø§Ù„Ù…ØºÙ„
##ØªØ§Ù…
ÙˆØ¬Ø¯ÙŠ
ØªØ¨ÙŠ
ÙˆÙŠØ±Ø¬Ø¹Ùˆ
Ø³Ø±Ø¹
ØªÙÙˆÙˆ
##Ù‚Ø¶
ÙˆÙ†Ø¹Ù…Ù‡
##Ø´ÙƒØ§Ù„
Ø§Ù„ÙˆÙ„Ø¯
Ù…Ø§Ù…
Ø§Ù„Ø¨ÙŠØ±
##Ø¹Ù„Ø§Ø¬
ÙˆÙØ±Øª
Ø¢Øª
ÙˆØ¶Ø­
##ÙÙ‡Ø§
ÙˆØ¨Ø§Ø¨
ØªØ¶Ø§Ù…Ù†
##ØªÙˆØ§Ø¶Ø¹
Ø§Ø®Øµ
Ø§Ù„Ø¨Øº
##Ø´Ø¨ÙŠÙƒ
##ØºÙ„Ø·Øª
##Ø§Ù„Ø¬Ù…Ø¹ÙŠ
##ØªÙˆØ­Ø¯
##ØªØ¨Ø¹
##Ù„ØªØ§Ø±ÙŠØ®
ÙˆÙ…Ø­Ù„Ø§
Ø§Ù„Ø¹Ø³ÙƒØ±
Ø¨Ø§Ù„Ø´Ø¹
##Ø³ØªÙˆÙŠØ§Øª
ÙˆØ§Ù„Ø¶Ø±
##ÙˆØªÙˆ
Ø·Ù…
ØªØ¯ÙØ¹Ùˆ
Ù„Ø´Ø§Ø±
##Ù‚Ø¯ÙˆØ±
##Ø§Ø³Ø·
33
##Ø§Ø³ØªØºÙ„Ø§Ù„
##Ø¤Ù…
ÙŠÙÙˆØª
Ø§Ù„ØªÙØ±
##ÙˆÙˆÙˆÙˆØ±
Ø­Ù‚ÙŠÙ‚ØªÙ‡
##Ù†Ø¸Ù…
Ø¹Ø±ÙÙ†Ø§Ù‡
##ØªØ¯Ø§Ø¡
Ø³Ø§ÙŠ
ÙˆÙˆÙ„Ø¯
##ØªÙ†ÙÙŠØ°
ÙŠØ¨Ø¯Ù„Ùˆ
ÙˆÙ„Ø¹Ø¨
Ù„Ø­Ø±
ÙŠÙ…ÙƒÙ†Ùƒ
ÙŠÙƒÙ„Ùˆ
Ø§Ù„Ø®Ù„ÙÙŠ
Ø§Ø³Ø§
Ø§Ù„Ù„Ø­
Ø±Ø¯ÙŠØª
##Ø²Ø§Ø±
##ØºØ§Ù„Ø¨
Ø§Ù„ÙƒØ§Ø±
Ø¨Ø¯ÙŠÙ„
ÙØ§Ø¯
ÙŠØ±Ø¨Ø­Ùˆ
Ø§Ø¶Ø±Ø¨Ùˆ
Ø§Ù„Ø¹Ø§Ù…Ù„
Ø§ÙØ±ÙŠ
ÙŠÙ†Øª
ÙˆØ¨Ù‚
Ù…Ø¹Ù†Ø¯Ù‡Ø§
ÙÙ„ÙŠØ³
##ØµØ¯Ø¯
##ÙÙ„Ø³Ù
Ø±Ø¯Ø§
Ø±Ù†Ø§
ÙˆØ§Ø¬Ù‡
##14
##ØªÙØ§Ø®Ø±
##ÙØµ
##Ù…Ø´Ùˆ
##Ø·ÙÙ„
##ØªØ¨Ø±ÙŠØ±
##Ù‡Ø©
##Ù„Ù‡Ø§Ø´
ÙŠØ¬Ø±Ùˆ
##Ø¯Ø±ÙŠØ¯
Ø³ÙƒÙ†
Ø§Ù„Ù†ÙÙŠ
ØªÙ‚Ø¯Ù…Ùˆ
ØªØµÙ„
ÙŠØ´ÙƒÙ„
Ù†Ø´ÙˆÙÙˆÙ‡
Ø§Ø³ØªØ«Ù†
ÙˆÙŠØ´
ØªÙ„Ù…
Ø§Ù„Ø¹Ø¯Ùˆ
##Ø£Ø­ÙŠØ§Ù†
Ø®Ù„Ø§Ù‡Ø§
Ù‚Ø¨ÙŠ
##Ù„Ø§Ø¹Ø¯Ø§Ù…
##Ù…ÙŠØ¹
Ø±ÙˆÙˆÙˆÙˆÙˆÙˆÙˆÙˆÙˆÙˆÙˆÙˆÙˆÙˆ
Ø£Ù…Ù‡
Ø¯ÙŠÙˆÙ†
Ø§Ù„Ø§Ø¹Øª
ÙˆÙˆÙ‚Ù
ÙˆØ¯Ø¹Ù…
Ù†Ø§ÙƒØ±
Ø§Ù„Ø®ÙŠØ§Ù†
Ø¹Ø§Ø¦Ù„Ø§Øª
##Ø§Ø¶ÙŠ
Ø­Ø§Ø³Ø¨Ùˆ
ÙˆÙ„Ø¨Ø³
##ØªØ³Ø§Ø¨
Ù…Ø±Ø®Øµ
ÙˆÙŠØ²
Ø¨Ø¯Ù†ÙŠ
ÙŠÙ†Ù‚ØµÙ‡
ÙˆØ¯Ø®Ù„
##Ø¹Ø²Ùƒ
##Ø§Ù„Ø§Ø¹Ù„Ø§Ù…
##Ø·Ø¨Ù‚Ùˆ
##Ù„Ø¨Ø¹Ø¶
ØªØ§Ø¹Ù‡
Ø­Ø¬Ø§Ø¨
##Ø®Ø·Ø±
ÙˆÙ†Ø¹
Ø°Ù…Øª
##Ø­Ù‚ÙŠØ±
Ù„ØªØ·ÙˆÙŠ
ÙŠØ¯Ø¹Ù…
ÙˆØ§Ø®Ø§
ÙŠØ¨Ø¹Ø«
Ù„Ù„Ø­Ø±
##Ø§Ù„Ù‡Ù…
##Ù„Ø¹ÙŠÙ†
ÙŠØ±Ø¨
Ù†Ø·Ù‚
Ø³Ø¯
##Ø§Ù„Ù‚ÙŠØ±ÙˆØ§Ù†
##ØªÙ…ØªØ¹
Ø®ÙŠØ§
##Ø§Ù„Ø¬Ø¯ÙŠØ¯
##ØªÙƒØ±Ø±
Ù†Ø¨Ù‚Ø§
##Ø±Ú¨ÙŠ
Ø§Ù„Ø¶Ù…
##Ù„Ø¨Ù‚Ø§Ø¡
Ù…Ø§ÙŠØ¹Ø±ÙÙˆ
Ù†ØªØµØ±Ù
Ø§ØµÙˆØ§Øª
##Ø®Ù„ÙŠ
Ø®Ø¨ÙŠØ±
Ø¯Ø¹Ø§ÙŠ
##Ù†ØµØ­Ùƒ
##Ù…Ø¹Ù‚ÙˆÙ„
ÙˆÙ†Ø¹Ù…Ù„Ùˆ
Ø§ØªÙ‡Ø¨Ù„
ÙŠØ³Ø®Ù
ØªÙÙ„
Ø±Ù…ÙŠ
##Ø§Ø¨Ø§Øª
##Ù‡Ø¯Ù‡
Ø£Ø¹Ø·
##Ø¶Ø§
ÙˆØ§Ø¬Ø¹Ù„
Ø³Ù„Ø³
##ØªØ¨ÙŠØ¶
Ø§Ø±Ø¬
ÙˆØ­ÙƒØ§ÙŠ
ÙŠØªØ¬
##ÙƒÙ†Ø§Øª
Ù‚Ù„Ù†Ø§
Ø®Ø§Ù„
ÙˆÙŠÙ†ØµØ±
Ø¯Ù…Ø±Ùˆ
##ÙØ±Ø¯
##Ø±ÙˆÙ†Ø§
Ù…Ø°Ù„
##ØµÙˆÙ†
##ÙŠÙ‚ÙŠ
ØªØ³Ù…Ø¹ÙŠ
##Ø°Ø¬
##Ø§Ù„ØªØ§Ø±ÙŠØ®
Ø§Ù„ÙˆØ­
ØºÙ„Ø§
Ø§ØµÙ„Ù‡
##Ø§Ø³Ø·ÙˆØ±
##Ù…ØªÙƒ
Ø§Ù„Ø¯Ø¹
ÙŠØ´Ø±Ù
Ø±ÙˆÙˆÙˆÙˆÙˆÙˆÙˆÙˆ
##Ù†Ø¸Ø§Ø±
Ø¨Ø±Ø¹
ÙØ¯ÙŠÙ†
ØªØ´ÙŠ
Ø¢Ù…Ø§
##Ø¹Ø¨Ù‚Ø±ÙŠ
##Ù„ÙƒØ±ÙŠÙ…
Ø¯ÙŠØ±ÙŠÙ„
ØªØ¯ÙˆØ±
Ù…Ø§ÙƒØ§Ù†Øª
Ø¨Ø¬Ù…Ø¹ÙŠ
Ø±Ø§Ø§Ø§
ÙˆØ¹Ø´Ø±
Ø§Ø´Øª
Ø§ØµÙ„Ø§Ø­
Ù„Ø¹Ù†Øª
Ø£Ø³Ø·ÙˆØ±ÙŠ
##Ø§Ø³Ø±Ø§Ø¦ÙŠÙ„
Ù†ÙˆÙ
ÙˆÙŠØ­ÙØ¶
Ø§Ø¹ØªÙ‚
##Ù„ØªÙ‡Ù…
##Ø±Ø®ÙŠØ³
Ø¹ÙŠØ´Ùƒ
ØªÙ†Ø³Ùˆ
##Ø­Ù…Ù‚
##Ù†Ø¹ÙŠØ´
##ØªØ¬Ø§ÙˆØ¨Ù†ÙŠ
##Ø±Ø¨ÙˆØ¹
Ø±Ø¤Ùˆ
##Ø³ØªØ§Ø±
Ø¹ÙØ³
##Ø§Ù„Ø­ÙŠØ·
ÙˆØ±ÙˆØ­
Ù…Ù…ØªÙ„
Ø§Ù„ØªØ³ÙˆÙŠ
##Ù„Ø´Ù…Ø§Ù„
##ØµÙˆÙ…Ø§Ù„
Ø¯Ø§Ù„ÙŠ
ÙÙ‡Ù…Ù†Ø§Ùƒ
ØªÙ…Ø«Ù„Ùˆ
##ÙˆØ¯ÙŠ
ÙŠØ­ÙØ¶Ù‡
Ø§Ø´Ø¨ÙŠ
##Ø¬Ø¨ØªÙ‡Ø§
Ù†Ø¨ØºÙŠÙ‡
Ù…Ù†ØªØ¬
Ù…Ø³Ù…Ùˆ
Ø£Ø¹Ø¶Ø§
ØªØ±Ø¯Ùˆ
Ù…Ø±Ø±
##Ù‡Ø¯ÙŠÙ†
ÙˆÙƒÙŠÙ„Ùƒ
Ø±Ø¦Ø§Ø³ÙŠ
ÙˆØ±Ø§Ø­
Ù‡Ø§Ù„Ù…
##Ø£Ù„
##Ø£ØºÙ„Ø¨
Ø§Ù„Ø®Ù„Ø·
##ØªØ´ÙŠÙ„
Ø§Ø¯Ø±
##03
ÙŠØ®Ù„ÙŠÙ‡ÙˆÙ„
ÙˆØ§Ù‚Ùˆ
##Ù…Ù†Ø­Ø·
Ù‡Ø§Ù‡Ùˆ
Ù…Ø­ÙŠ
##Ø¹Ø«
ÙˆØ¯Ø§Ø¯
##ÙƒØ±Ø²
Ø´ÙˆÙ‡ØªÙˆ
Ù…ØªØ­Ø¶Ø±
Ù„Ø§Ø¨
##Ø²ÙŠØ¯Ùƒ
Ø­Ø§ÙˆÙ„Ùˆ
ÙˆØ§Ù„Ø§Ø¯
Ø§Ù„Ù…Ø¬Ø±ÙŠ
ÙˆØ¬Ù‡Ù„
Ø¨Ù†ÙŠØª
Ø§Ø¯ÙŠ
Ù„Ù„Ù
##Ù„Ø§Ø®Ø·Ø§Ø¡
ÙˆØ¹Ø¯Øª
##Ø§Ø¯Ù‡
Ø£Ø¯Ø±Ø§
Ø­Ø³ÙŠØªÙˆ
Ø§ÙˆØµÙ„Ùˆ
Ø´Ø§Ø±Ù„
Ø§Ø¹Ù„ÙŠ
ÙŠØ¶Ù…Ù†
Ø³Ù†ÙƒÙˆ
ÙŠØ®Ù„ÙŠÙ„
ÙˆÙ‚Ø¯Ø±
##Ù…Ù‚Ø±ÙˆÙ†
##ÙŠØ±Ùˆ
##Ù…Ø³ØªÙ‚Ø¨Ù„
##Ù…Ø´ÙƒÙ„
Ø¨Ø­ÙŠØ§Øª
ÙˆØ®Ù…
##Ù…ØªØ­Ù…Ø³
Ø§Ù„Ø«Ø±Ùˆ
ÙŠØ­Ø±Ù‚Ùˆ
##ÙŠØ§Ø¯Ø©
Ù†Ø®Ø·
ÙˆÙŠÙ„ÙŠ
##Ù‚Ø±Ø§Ø·ÙŠ
Ø³Ù„ÙŠ
##ØªÙÙŠÙ‚
ÙˆØ´Ø®Øµ
Ø§Ø±ØªØ­
Ø§Ù„ØªÙ„ÙØ²ÙŠÙˆÙ†
Ø­Ø²Ù†
Ø«Ùˆ
Ø¹Ø±ÙÙƒ
Ø³Ø¨Ø³ÙŠ
ÙˆÙ†Ø¹Ø§ÙˆØ¯
Ø¹Ø·Ø§ÙŠ
Ø¯Ø§ÙŠØ±Ø§
Ø®Ù†Ø§Ø±
Ù‚Ø§Ù„ÙˆÙ„
##Ø³Ø§Ù‡Ù„
##Ø¤Ù‡
##Ù†Ø²ÙˆÙ„
Ù†ØªÙˆ
##Ù†Ø§ÙØ³
##ØºØ§Ù„Ø·
ØªÙ‚ØµÙŠ
Ø§Ù„Ù†ØªØ§
Ø§Ù„Ù‚Ù†
##Ù…Ø³ØªÙÙŠØ¯
ÙØ¯Øª
Ù„Ø­Ø¨
##Ø¶Ø­ÙˆÙƒ
Ø§Ù„Ø§Ù†Ø³Ø§Ù†ÙŠ
##ÙˆØ¬Ø¹
##Ø°Ø®
##Ø®Ù„ÙŠÙƒ
Ø¯Ù‰
##Ø°ÙƒÙŠ
Ø§Ù„Ø­Ù‚ÙˆÙ‚ÙŠ
Ø§Ù„ØªØ¬Ø§
##Ø§Ù„Ø¢Ø®Ø±
Ù†ÙŠØ§
Ø§Ù†Ù‚Ø±Ø¶
##ØªÙ‚ÙˆÙ„
ØªØ¨Ø¹Ø«Ùˆ
##Ø®Ù„ÙŠÙ‡Ù…
##Ø¹Ø²ÙŠØ²
##ØªÙƒÙŠÙ
ÙƒØ³Ø¨
Ø°Ù†Ø¨Ù‡
ÙˆÙ…ØªØ­
##ØªØ¬Ø§ÙˆØ²
##Ø®Ø°Øª
ÙŠØ­Ø§Ø±Ø¨Ùˆ
##Ø¡ÙŠØ³
Ø§Ù„Ø®Ù„Ù
##Ù„Ù…Ø§Ø¶ÙŠ
##ÙˆÙˆÙˆÙˆÙˆÙˆÙˆÙˆÙˆ
##Ø¨Ø§Ù†ÙŠ
Ø®ÙŠØ§Ù„
##Ø§Ù„Ø­ÙƒÙˆÙ…Ø©
ÙŠØªØ´
Ø³Ø¨ÙŠØª
Ø§Ù„ØºØ±
Ú¨Ø§Ù„
##Ø§Ø¡Ø§Øª
##ØªÙƒÙ„Ù
Ù…Ø¹Ø§Ø§Ø§
##Ù†Ø§Ù‚Øµ
##Ø§Ù„Ø¯ÙŠÙ†
Ø¬Ù…ÙŠ
Ø¯ÙˆÙ„ÙŠ
##Ù†Ø³Ø§Ù†
Ø±Ø¶
##Ù‚Ø§Ø¹
ØªØ¹Ø§Ø·Ù
##Ù…ÙˆÙ‚Ø¹
##000
Ø³ÙŠØ§Ù‚
Ù…Ù‚Ø¯
##ØªØ±ØªÙŠØ¨
##ÙŠÙŠÙŠÙŠÙŠÙŠÙŠÙŠÙŠÙŠÙŠÙŠÙŠÙŠÙŠÙŠ
Ø§Ø¯Ø§Ø±ÙŠ
##ØªÙ‚Ø±Ø¨
##Ù„ÙˆÙ…
##Ù‡Ø¨Ù„
ÙŠØ±Øª
Ø³Ù†Ø¯
##Ø§Ø±Ù‡
ØµØ±Ø§Øª
Ø¨ÙƒÙ„Ùƒ
##Ø­Ø¶
Ù…Ø®ÙŠØ¨Ù‡
Ø´Ø±Ø­
ÙˆØ£Ø­Ù†
ÙŠØ­Ø³Ø¨Ùˆ
Ù‚Ù„Ø§Ø¨
Ø§Ù„Ù…Ø¹Ù†ÙŠ
Ù„Ø¯Ø§
##Ø¨ØºÙŠ
##Ø­Ø¸Ø±
##ØªØ³ÙŠØ±
##Ø§Ø³ÙŠÙˆ
Ù…ØªØ¹Ùƒ
##ÙƒÙØ±
Ù…Ø®Ø±
##Ø¯Ø§Ø±Ùƒ
Ù…Ø¹Ø¯
ØªØ¯ÙŠ
Ø­Ø±ÙŠØª
##Ù„Ø¯ÙØ§Ø¹
ÙˆÙ…Ø­
Ø¬Ø¨Ø±
ØªØ´Ù…Øª
Ù†Ù†
##ØºØªØµØ§Ø¨
Ø§Ù„ÙƒÙˆÙ…Ù†Øª
Ù†ÙØ³Ø®
ÙŠÙƒØ±Ù…
Ø¨Ù‚Ø±
Ù†Ø®Ù„ÙŠ
Ø¬Ø§ÙŠØ¨ÙŠÙ†Ù‡
##Ø¨ÙƒÙŠ
ÙˆØ§Ù„Ø¥Ø³Ù„Ø§Ù…ÙŠ
Ù„ÙŠØªÙˆ
Ø§Ù„Ø¹Ø¯
##Ø§Ø®Øª
Ù†Ø¹Ø§ÙˆØ¯Ùˆ
Ø®Ø°Ø§Ùˆ
Ø§Ù„Ø£Ù…Ù…
ÙŠÙ†ØªØ®Ø¨Ùƒ
##Ù…Ø³Ø£Ù„
##Ù„ÙŠØ³Øª
Ø§Ù„Ù‡Ø¯Ø§ÙŠ
ÙˆØªØ­ÙƒÙŠ
##Ù„Ø´Ø§Ù†
##Ù…Ø«Ø§Ø¨
Ù†Ø¹Ø¯
##Ù†Ø§Ø¯Ù…
Ù†Ù‚Ù„Ùˆ
##Ù€Ù€Ù€Ù€Ù€Ù€Ù€Ù€Ù€Ù€Ù€
ØªØµØ¯Ù‚Ùˆ
ÙŠÙ†Ø¹
Ø§Ù„ØªØµÙˆÙŠ
##Ø§Ø´ØªØ±Ùƒ
##Ø³Ù…Ø­
Ø¨Ø§Ù„Ø§Ø¹
##Ø´ÙˆØ±
Ù…Ø¹Ù†ÙˆÙŠØ§
##Ù…Ù…Ø§Ø±Ø³Ø§Øª
Ø­Ø³Ø§Ø¯
##ØªÙ†Ù‚Ù„
Ø§ØªÙ‚ÙŠ
Ø§Ù„Ø§Ù‚ØªØ±Ø§
##Ø¶Ø¹
ÙˆØ§Ù„Ø°
Ø§Ø¯Ù…Ø§
Ù…Ø±Ø¶ÙŠ
##ØªØ²Ø§Ø²
Ù…ÙÙ…
Ø£Ø³Ù
Ø³Ø·Ø§ÙŠÙ
##ÙˆØ³Ø§Ù…
##ØºØªÙŠØ§Ù„
ØªÙ‚ÙˆÙ„Ù‡
ÙˆÙ…Ø®
##ÙŠÙŠÙŠÙŠÙ†
Ù„Ù„Ø­Ø¨
##Ù†Ø¶Ù
Ù†ÙØ±
ØªÙ†Ø­ÙŠÙ‡
##ÙˆØ®
Ù‚Ù„ÙˆØ§
##Ø¨Ø§Ø¯Ø¦
ÙŠØµØ¯Ù‚Ùˆ
Ø§Ø³Ø·Ùˆ
Ø§ØªØ±ÙƒÙˆ
Ø³Ø§Ø±
ØªØ¹Ø§Ù‚Ø¨
Ø³Ø¨Ø¹
Ø¯Ø§Ø¦
Ù‚Ø¨Ù„Øª
ÙŠØ¹Ù…Ù„ÙˆÙ„Ù‡
ÙˆØ§Ù„Ø§Ù‡
##Ù†Ø­Ø¨Ù‡Ø§
Ø¹Ø¬Ø¨Ùƒ
ØªØ®Ø±
##Ø«ÙŠ
ÙŠØªØ¹Ù„
Ø£Ø¹Ù„Ù†
Ø§Ø¬Ù…
Ø®Ù„Ù‚Ùˆ
ÙˆØ£Ù‚Ùˆ
##Ø¥
Ø§Ù„Ø³Ø§Ø¯
##Ø§Ù‚Ø¨
Ø£Ø¹Ø¸
Ù…Ø²Ø§
Ø§Ù„Ù…Ø´ØªØ±Ùƒ
##Ø®ØµÙ‡Ø§
##Ø¹Ù„ÙŠÙƒÙ…
Ù„Ù„Ø®
Ø§ÙˆÙ„Ø§Ø¯Ùƒ
Ø§ØªØ±Ùƒ
##Ù‡Ø¯ÙŠ
Ù†Ø¶Ø±
##Ù…Ø³Ø§Ø¹Ø¯
##Ø§Ù„Ø²ÙˆØ¬Ø©
##Ø§Ø®ÙŠ
Ø§Ù„Ù‚Ø·
##Ù„ØªÙƒ
ÙˆÙŠØ¨ÙŠØ¹
Ù‚Ø±Ø±
##Ù„Ø¨Ø±Ù„Ù…Ø§Ù†
Ø§Ù„ØªØ£
Ù„Ø§ØªØ±Ø¨Ø­
Ù…Ø¨Ø§Ø¯
##Ù„ÙØª
Ø«Ø±
Ø§Ù„ÙˆÙ‚Ø§
ØªØ¯Ùˆ
ÙŠØ§Ø±
##Ø±ØºØ¨
Ø²Ù…ÙŠÙ„
Ù†Ø§Ù‚
##ÙŠØ³Ù…Ø­
Ø§Ø®ØªÙ„
ØªØ´ÙƒÙŠ
Ù…Ù†Ø¬ÙŠ
Ù…Ù‚ØªÙ„
##Ø¶Ø§Ù‡Ø±
##Ø¯Ø±Øª
Ø²ÙŠÙ†Ù‡
Ø§Ù„ØºØ§ÙŠ
##Ù‚Ø§Ø¶
Ø§Ù„ÙÙŠ
Ù†Ø¨Ù‚
Ø´Ø¯ÙˆÙ‡
ØµØ­ØªÙƒ
##Ù…Ø­ØªØ±Ù…
Ø±Ø³Ù…
Ù„Ù„Ù…Ø³
ÙŠÙ‚ÙˆÙ…Ùƒ
##Ø±ØªÙ‡Ø§
Ø§ÙŠØ¯
##Ù‚Ø±Ù‰
##Ù…Ù…Ù…Ù…
Ù‡Ø§Ø°Ù‡
Ø§Ù„Ù…Ø²ÙŠ
ÙˆÙ‚Øµ
Ø¹ÙŠÙ†ÙŠÙ‡
ÙÙƒØ±ØªÙŠ
##Ø¨Ø¯Ù„Ù‡
##Ø§Ø¹Ø´
Ø·Øº
##ÙŠÙŠÙŠÙŠÙŠÙŠÙŠÙŠÙŠÙŠÙŠÙŠÙŠÙŠ
Ø¨Ø§Ù„ÙØ±
##Ø§Ù„Ù…Ø¹ÙˆØ²
ÙØ³ÙŠ
##Ø´Ùƒ
##ÙˆØ²Ø§ÙŠ
##Ù†Ø°Ø§Ù„
##ÙˆÙ†Ùƒ
##Ø³ÙŠØ³ÙŠ
##Ø®Ø§Ø·Ø¨
Ø§Ù„Ø¹ÙˆØ§
Ø¯Ù…Ùƒ
Ø¹Ù‡Ø¯Ùƒ
Ù‚ØµÙŠ
ÙˆØ§Ø³ØªØ±
ØªÙ‡Ø¯
ÙŠØ¶Ù‡Ø±
ÙˆØ­Ø§Ø¬
Ø¨Ø´Ø¹
ÙˆØªØ§Ø±ÙŠØ®
##Ù„Ø­Ùˆ
ØªØ³Ø®Ù
Ù…ÙˆÙ‚ÙÙ‡
ØºØ·
Ù„Ù„Ù…Øª
Ø§Ù„Ù…ØªØ¹
Ø¨Ø§Ù„Ø±
##Ø®Ø§Ù…Ø¬
ØªÙ„Ù…Ùˆ
Ø§Ù„ÙˆÙ„ÙŠ
##Ù‡Ø²ÙŠÙ…Ø©
ÙˆØªØ·
ØªÙ‚ÙˆÙ…Ùˆ
Ù†Ø±Ø§
##Ø·Ø¹Ù…
##Ø¬ÙŠÙ„Ø§Øª
##Ø­Ø¨ÙˆÙƒ
Ø§Ù„Ù…Ø³ÙŠØ­
Ø§Ù„Ø¨Ø·
Ø¨Ù„Ù‡Ø¬
Ø¨Ø§Ù„Ù†ÙŠØ§
##ÙˆÙÙ‚Ùƒ
Ø§Ù„Ù…Ø³ØªÙ‚Ù„
Ø§Ø±Ù‡Ø§Ø¨
##Ø·Ù„Ø¹
##Ù„Ø¹Ù„Ù…Ùƒ
Ø®Ø°Ùˆ
##Ù‚Ø¹
ÙˆØ±ÙØ¹
##ØªÙ…Ù†
ÙˆÙ„Ø¹Ù†
##Ù…Ø­Ù…Ø¯
ÙŠØ±Ù‚Øµ
ØªØ±ÙŠ
##Ø®ÙˆØ°
##ÙˆØ«
ÙˆÙ‚Ùˆ
##Ø¶Ø±Ø¨ÙˆÙ‡
Ø¯Ø§Ø®Ù„Ù‡
ØªØ´Ø±Ù
##ØºÙ…
ÙˆÙƒØ§
##Ø¯ÙˆÙ†Ø§
Ù†Ù‡Ø±Ø¨
##Ù„Ù…ÙˆØ§
Ø¬Ø§Ø±ÙŠ
##Ù„ÙŠÙˆØªÙˆØ¨
ÙŠØ­Ù
##ÙŠÙ†Ø¯Ø¯
##Ù„ÙƒØ±Ø§Ø³ÙŠ
##ØªÙ‚Ø·Ø¹
ÙˆØ³Ø®
##Ø§ÙŠØ¨
##Ø§Ù†Ø³ØªØ§
##Ø´Ù„Ø§Ùƒ
ÙˆØ¬Ø§Ù…
##Ø«Ù†Ø§Ø¦ÙŠ
Ø¨Ø¯ÙŠÙ†Ø§
Ø¬Ù…Ø§Ù‡ÙŠØ±ÙŠ
ØªØ¹Ø·
ØªØ¹Ø¯Ùˆ
##Ø²Ø²Ø²Ø²Ø²Ø²Ø²
##Ø­Ø±Ù‚
Ø·Ø±Ø§Ø¨Ù„Ø³
Ø§Ù„Ø¹Ù„ÙˆÙŠ
Ø§Ù„Ù„Ø§
ÙˆØ¹Ù…Ù„Øª
Ø§Ù„Ø®Ùˆ
Ø§Ù†Ø¬
##ÙØ§Ø¬Ø¦
ÙˆÙØ¹Ù„
##Ø³ÙˆØ§
##ØµÙŠÙ„
##ÙŠØ«
Ø§Ù„Ø²Ù…Ø§
##ÙˆÙÙŠ
##Ø²ÙØª
##ØªØ¹ÙˆØ¯
Ù†Ù…ÙˆÙˆÙˆÙˆ
Ø§Ù„Ø¨Ù‡
##Ù„Ø³ÙˆÙ†
Ù†Ø­ØªØ±Ù…Ùˆ
Ø¹Ø§ÙŠÙ„ØªÙ‡
Ø¥ÙŠØ¯
ØªØ¹Ø§Ù…Ù„
Ø­Ø§Ù„Ùƒ
Ø±ÙˆÙˆÙˆÙˆÙˆÙˆ
Ø§Ù„Ù…ÙƒØ³
ÙƒØ¨Øª
##Ø¹Ø§Ù†ÙŠ
##Ù„Ø§Ù†
Ø¯ÙˆØ¨
ØªÙ†Ø¯Ù…
ØªØ±Ù…ÙŠ
##Ø§Ù„Ø´Ø¹Ø±
ØªØ§Ø¬Ø±
##ØµØ¨Ø­
Ø§Ù„Ø±Ø­
Ø§Ù„Ø¹Ø¬
##Ø³ÙˆØ§Ø¡
Ø¹Ø·ÙŠ
##Ø¹Ù…Ù„Ùˆ
ÙŠØ¨Ù‚Ùˆ
##ÙˆØ§Øº
##Ø§Ù„Ø­Ø§Ù„Ø©
Ø§Ù„Ø¹Ø²Ø§
##Ø¹ÙŠÙ
##Ù„Ø±ÙŠØ§Ø­
ÙŠØ´Ø¹Ù„
ØªØªØ­Ø§Ø³Ø¨
Ø§Ø®Ø·Ø§
Ø§Ù…Ø§Ø²ÙŠØºÙŠ
ÙˆÙ…Ø¹Ø¯
##Ù‚ØµØ±
Ø´ÙØªÙ‡
Ù„Ù„Ø³ÙŠ
##Ø¨Ù†Ø§Ù‡Ø§
##Ø±Ø¯Ù†
Ø¨Ø¹Ø±Ù
Ø­ÙƒÙ…Ù‡
Ø¨Ø³Ùˆ
ÙŠØ¹Ø·Ùˆ
Ø§Ù„ØµÙˆ
Ø§Ù„Ø¥Ù‚ØªØµØ§Ø¯
##Ø¨Ø®Øµ
Ø¹Ù‚Ø¨Ø§
##Ø¥Ø°Ù†
ÙˆØªØ¨
Ø§Ø¯Ø¹
Ø´Ø±ÙŠÙƒ
##ØªØºÙŠÙŠØ±
##Ø¹ØªØ°Ø±
##ÙØ¦Ø§Øª
ØµØ­Ù
ÙˆØªØ±Ùƒ
Ø¹Ø¯Øª
##Ø£Ø®Ø°
Ù…ÙˆÙ„Ø§Ù‡
Ø§Ù„Ø¥Ø­ØªØ±Ø§Ù…
ØªØªØ®
Ø§Ø´ØªØ±
##Ø§Ø³Ø§Ø³
Ø³Ø­Ø¨
Ø±Ù‡
##Ø§Ù„Ù†Ø¬Ù…
ØªØ§ÙƒÙ„Ùˆ
ØªÙ„Ø§Ù…
##Ø¨Ù‡ÙŠÙ…
##ÙÙŠÙ‡Ù…
ÙˆØ®Ù„ÙŠØª
##Ù‡ÙŠÙ…
ÙŠØ¹ÙŠÙ†Ùˆ
Ø³Ø­
##Ù…ÙˆÙ†ØªÙŠ
Ø§Ù„Ø·Ù…ÙˆØ­
##Ø¨Ø·ÙˆÙ„
ÙˆÙŠØ®Ø¯Ù…
##Ø´Ø¨Ø¹
Ø³Ø¹Ø§
##Ø§Ù„Ø³Ø±Ø§Ù‚
Ø¨Ø§Ø´Ø§
Ù‚ØµØªÙ‡
##ØªÙ†ÙØ°
44
ÙˆØ§Ù„Øº
ÙƒÙ„ÙŠ
Ù„Ø§Ø·Ø§
Ø¹Ø¯Ù„ÙŠ
Ù…ØªÙ‚ÙˆÙ„
##Ù…Ø±ÙŠØ¶
##ØªØ­Ù‚ÙŠÙ‚
##Ø®Ø®Ø®Ø®
ÙˆØ¯Ø¹
##ÙˆÙ„ÙŠÙ†
##ÙˆÙ„Ø¯ÙŠ
Ù„Ù„ÙƒØ±
##Ø­Ø§Ø¯Ø«
Ø§Ù„Ù†Ø¸Ø§
Ù…ØºØ§Ø¯Ø±
Ù„ÙŠÙƒÙˆÙ†
Ù„Ø­ÙŠØª
##Ù„Ø­ÙˆÙ…
Ù„Ù„Ø­Ù…Ø§
##ÙƒØªÙÙŠ
ÙÙ†Ø¯
##ØªØ´ØºÙŠÙ„
Ø§Ù„Ù…Ø¬Ø±
3000
##Ø±Ø¨Ø§Ø¹ÙŠ
Ø§Ù„Ù†ÙØ·
Ù„ÙƒÙ„Ùˆ
##Ø§Ø§Ø§Ø§Ø±
Ø§Ù„Ø¨Ùƒ
##ÙƒØ°Ø§Ø¨
##Ø¶Ø§Ø¦Ø¹
##Ù†ØªÙØ§Ù‡Ù…Ùˆ
##Ù…Ù„ÙŠØ§Ø±
##ØªØµØ±ÙÙˆ
##ÙŠØ´Ø±ÙÙ†Ø§
ØªØ´Ø¬Ø¹Ùˆ
Ø±Øµ
Ù‡ÙˆÙŠØªÙ‡
Ø§Ù„Ù†Ø®
##Ù„Ø£Ø®Ø±
ÙˆØ§Ù†Ø´
ÙƒØ¨ÙŠ
##ØºØ§Ù„ÙŠ
##ÙØ±Øº
##Ø£ÙŠØ¯ÙŠ
##Ø±ÙŠÙ
##ÙˆÙ†Ø§Øª
##2020
Ø§Ù„ÙˆÙ„Ø§
ÙØ¬Ø±
##Ø§Ù„Ø³Ø¹Ø§Ø¯
Ø¨Ø¯Ù…
##Ø¦Ø§Øª
##Ø¥Ø¹ØªØ¨Ø§Ø±
ÙˆÙŠÙˆÙ…
##ÙÙ‚ÙŠØ±
##Ø¬Ø²Ø§Ø¡
##Ù„Ø§Ø­Ø¸
Ù†Ø±Ù…ÙŠ
Ø¨Ù„Ø¹
Ø±ÙˆØ¬
##Ø¨Ø±ÙŠ
##Ø±ÙŠÙƒ
Ù…ÙƒÙ†Øª
Ù„ÙˆØ­ÙŠ
##Ù…ÙˆØ§ÙÙ‚
##ØªÙØ¯Ù„ÙŠÙƒ
Ø§Ù„Ù‡Ø§
Ø­ÙØ¶
Ø§Ù„Ù…ØµØ¯
Ø§Ù„Ø´ÙƒÙˆ
Ø£Ù…ÙˆØ§Ù„Ù‡
ÙˆØµØ­Ø­
##Ø§Ù„Ù…Ù‡Ø²Ù„
Ø´Ù‡Ø¯
##Ù…Ø±Øª
##ÙƒØªØ§Ù
Ø§Ù„ØºØ§Ù„Ø¨
##Ø±Ø§Ù‚Ø¨
ØªØ¨Ø±
##Ø¨Ø±ÙˆÙÙŠÙ„
Ù†Ø³Ø¨ÙŠ
##Ø¯Ù…Øº
ØªØ³Ø§Ù„Ùˆ
Ø¬Ø§ÙŠØ§
Ø§Ù„Ù…ØµØ·
##Ø¯ÙˆØ´
##ØªÙˆÙ‡
##1000
##Ù„Ø§Ø¯ÙŠ
##Ù†Ø¸Ø§Ù
##ØªØ®Ø·ÙŠØ·
Ø§Ù„ØªÙØ§Ù‡Ø§
Ù…Ø®Ù„ÙŠ
ØªÙ‚Ø±Ø¨
##Ø§Ù†Ø¬Ø§Ø²Ø§Øª
##Ø­ÙŠØ§ØªÙˆ
##Ø²ØºÙˆØ§Ù†
##Ù‡Ù†ÙŠØ¦Ø§
Ø¨ØªØ¬
Ø§Ø³ØªÙ†
##Ù…Ø­
##Ø¹Ø´ÙˆØ§Ø¦ÙŠ
Ø³ÙŠÙ…Ø§
##Ø³Ù‡Ø§
Ø¬Ø²Ø§
##Ø±Ø§Ø²ÙŠ
##Ø§Ø¹ØªØ¨Ø§Ø±
ÙˆØ¬Ø¯
##Ø³Ù†ÙÙˆØ±
##Ø§Ø³Ù…
##Ù‚Ø·Ø§Ø±
Ø£Ø±Ø¬
ÙˆØ±ÙŠØ§Ø¶
Ù„Ø­ÙƒØ§ÙŠØ§
Ø§Ù„Ù‡Ø§Ùƒ
Ù‚Ù†ÙˆØ§
ØªÙ‚Ù„ÙŠØ¯ÙŠ
##ØªØ±Ø¨Ø­
##ØªØºØ´Ø´
Ù‚Ø±Ø§Ø±Ùƒ
##ÙƒØ¨Ø§Ø±
##Ø³Ù„Ù…ÙˆÙ‡
Ø«Ø¨ØªÙˆ
##Ø±Ù…Ø³Øª
Ø±Ø¬Ø¹ØªÙˆ
Ù†Ø¯Ø®Ù„Ùˆ
##Ø¥Ø®ØªÙŠØ§Ø±
##ØµÙŠØ­
##Ù†ØµØ±Ùƒ
ÙŠØ¹Ø§Ø¯
##Ù‡ÙˆØ§ØªÙ
##Ø«Ù…Ø§Ù†ÙŠÙ†
Ù„Øµ
##Ø±ÙŠØ¯ÙŠ
Ø§Ù„ØªØ´Ø±ÙŠØ¹ÙŠ
ØªÙ‚Ø§
Ù…ÙˆØ¶
ÙŠØ§Ø®
##Ø§Ø§Ø§Ø§Ø§Ùˆ
Ø§Ø¯Ø¹ÙŠÙ„
Ø¨Ø£Ù„
##Ø§Ù…Ø§Ù†Ù‡
Ø¬Ø§Ø±Ùƒ
##Ø®Ø§Ø¦Ù†
Ø¹Ù„Ø§Ø¨Ø§Ù„Ùƒ
Ø§Ù†Ù‡Ø§Ø±
##ÙØ±Ø­Ø§Ù†
ØµØ­Ø¨
##Ø±ÙƒÙ…
##Ù†Ø¨
ÙˆØ§Ù„ØºÙ†Ø§
Ø·ÙˆÙˆÙˆÙˆ
##ØªØ±Ø§Ùƒ
ÙˆØªØ­ÙŠØ§Øª
Ù†Ø¹Ù…Øª
##Ø³ØªÙŠÙ„
##ØºØ±ÙˆØ±
##ØªØ±Ø§
Ø¹Ù…ÙˆÙ…
Ø®Ø±Ø§Ø§Ø§Ø§
##Ø§Ù„Ø±Ø­Ù…
Ø¹Ù‚ÙŠ
ÙŠØªÙ†ÙØ³Ùˆ
ÙˆÙ‡Ø§Ø¯
Ø§Ø±Ø­Ù…Ù‡
##Ø£ÙØ¹Ø§Ù„
##Ù€Ù€Ù€Ù€Ù€Ù€Ù€Ù€Ù€
##ØªØ·ÙˆØ±
##Ù„ÙŠØ³Ø§Ø±
##Ù‚Ø³
##Ø­Ø¯Ù‡Ù…
##ØºØ±Ø§Ù…
Ø³Ø¯ÙŠ
ÙˆÙ„Ø£Ù†
Ø¨Ù†Øµ
##Ø³Ø£Ù„
ØªÙ‚ÙŠÙ…
##Ø¤Ù‚Øª
ÙˆÙŠØ·
ØªØ´ÙƒÙ„
##ØºØ§Ø±Øª
Ø§Ø±Ø­
##ØªØ§Ø³ÙŠØ³
##Ø§Ø³ÙŠØ©
##Ø¥Ù‚Ø§Ù…
Ù†ØªØ§Ø¨Ø¹
##ØªØ¨Ø®Ù„Ùˆ
ØºØ±Ø¨ÙŠ
##Ø³Ø§Ù‚ÙŠ
Ù…ØªÙˆ
Ù…Ù„Ø§Ø¹Ø¨
##Ø®Ù„Øµ
##Ù†Ø­Ø¨
Ø¨Ø§Ù„Ù„ÙŠ
Ù…Ø±Ø§Ø­
##Ø¹Ù…Ù„ØªÙˆ
##Ø¨ØµÙ„
ÙŠØªØ¹Ø§
Ø§Ù„Ø£Ù
Ù„Ù„Ø§Ø¹Ø¨
##ØªØ´Ø¨Ø«
##Ø±Ø±
ÙŠØ´Ø·Ø­
##Ø§Ù„Ù†Ø¶Ø§Ù„
##Ù„Ø­ÙˆØ§Ø±
##Ø­Ø³ÙŠØ¨
##Ø¬ÙŠØ¹Ø§Ù†
##ØªØ±Ø¬Ù…Ù‡
ØªØ³ØªÙ‚ÙŠ
Ø§Ù„Ø§Ø¹ØªØ¯Ø§
Ø¹Ø±ÙØªÙƒ
##Ø·Ù„Ù‚
Ù„Ù„Ø³
##Ù„Ù†Ø¬Ø§Ø­
Ù…ØªØ§
##Ø­Ø·Ùˆ
ØºØ±Ø§
##Ø®Ø·Ø§Ø¡
Ø´Ø­
ÙˆØ¶Ø¹Ùƒ
##Ù‡Ù†Ø§
##Ø±Ø¨ÙˆÙ†
Ù†Ø¨ÙŠØ¹
Ø§Ø´ÙˆÙ
##Ø¶Ø±Ø¨Ù‡Ø§
##Ø·Ø§ÙŠ
##Ø¨Ø±Ø§Ø¡
ÙŠÙ…Ø´
Ù…ØªÙ‡Ù…
##Ù„Ù„Ø¬Ø²Ø§Ø¦Ø±
##Ø°Ù†ÙˆØ¨
##Ø¦ÙŠØ³
##Ù…Ø§Ø¹
Ø¹Ø³Ùˆ
##Ù†ØµØ­Ø­Ùˆ
ÙŠØªÙƒÙ„Ù…Ùˆ
##Ù…ÙˆÙŠÙ‡Ø¨ÙŠ
##Ø±Ø§Ø·
##Ù…Ø±Ø§Øª
Ø§Ù„ØµØºØ±
##Ø§Ù‡Ø¯Ø§Ù
##Ù†ÙØ®
Ø­Ù„Ù‚Ù‡
##Ø­Ù…Ù‚Ù‰
ÙŠØ­Ø±
##ÙØ³Ø¯
##ØµØ§Ø¦
##Ù…ÙƒØ§ØªØ¨
ÙŠØ°ÙƒØ±Ù†
##Ù…ÙŠØ¨ÙˆÙ†
##Ù„ÙØ¯ÙŠÙˆ
Ù…Ù†Ø¹Ùˆ
##Ø´ÙŠÙƒØ§Øª
##Ø³Ø§ÙˆØ±
Ù…ØªØ±
##ØªØºØ±Ø¨
Ø§Ù„Ø­ÙƒØ§
Ø¥Ø®
Ø¹Ø§Ø§Ø§Ø§Ø§
Ø§Ù„ÙÙ‚
Ø¯Ø¬Ø§
##ÙŠØ³Ø§Ø±
##ØªØ³ÙŠØ¨
Ø¨Ø¯Ø¹
##Ø±ÙˆØ¶
ÙˆØ§Ù„Ù…Ø®
Ø§Ù„Ø³Ø§Ø­Ù„
##Ø³ÙŠÙ†Ø§Ø±ÙŠ
##Ù†ÙŠØ§Øª
ÙˆØ§Ù„Ø§Ø³Øª
Ø§Ø·Ø§Ø±
##Ù„Ø¹Ù†
Ø§Ù„Ù†Ù‡Ø¶
Ø±Ø¬Ø¹ÙˆÙ„
ÙˆÙŠÙ‡Ø¯ÙŠ
##Ø§Ø¨ÙˆØ§Ø¨
ÙˆØ£Ùƒ
Ø§Ù†ØªØ§Ø¬
Ù…Ø±Øº
ÙƒÙˆÙ†ØªØ±
Ø§Ù„Ù‚Ø§ÙŠ
##Ø£ÙˆÙ„Ø§Ø¯
##94
##Ø¶ÙŠØ§Ù
##Ø§Ù„Ù…Ù†Ø§Ø¸Ø±
Ø§Ù„Ø¬Ù„
Ø¥Ù‚ØªØ±Ø§Ø­
Ù„Ù„ØªØ±Ø¬
Ø¨Ø±Ø§ÙÙˆÙˆÙˆÙˆÙˆÙˆ
##ÙˆÙ†ÛŒ
##Ø§Ù„Ø­Ø¬Ø±
Ù„Ù‚ÙŠØªÙŠ
ÙˆØªØ¹Ù…Ù„
Ø±ÙˆÙˆÙˆÙˆÙˆÙˆÙˆ
##ØªÙ…Ø¹Ø´
##ÙŠØ±Ø§ØªÙŠ
##Ù‡Ø§Ùˆ
##Ø°Ù†
##Ù„Ø¥Ø³Ù„Ø§Ù…
Ø§Ù„Ù…ØµØ§
Ø¨Ø±Ø§Ø§Ø§Ø§Ø§ÙÙˆ
Ø§Ù„Ø±Ø¡
Ø§Ù„Ø°Ø¨Ø§
##Ø´Ø§ÙŠØ®
##Ù†Ù‡Ø¯ÙŠ
##Ø¬Ø§Ù…Ø¹
##Ù„Ø´ÙŠ
Ø§Ù„ÙˆØ¬
##ØºØ·Ø§Ø¡
Ù†Ø¬Ù…Øª
##Ø§Ù†ÙŠÙ†
Ø¨ØµØ§Ø­
##Ø®ØªØ§Ù…
ÙŠØ³ØªØ­Ù‚Ùˆ
##Ù„Ø­Ù…Ù„
##18
ÙŠÙ†Ø¨Ø­
Ø§Ù„Ø¹ØµÙŠ
##Ø®Ø§ØªØ±
ÙˆØ§Ù„Ø¹Ø§Ù…
##ÙÙÙ
Ø¨Ù‡Ø¯Ù„
##Ù„Ø§Ù‚ØªØµØ§Ø¯
##Ø­Ù…ÙŠÙƒ
Ø§ÙƒØ¨
Ù…Ø±Ùƒ
##Ø±Ø¤ÙˆØ³
Ø§Ù„Ø¹Ù„Ø§Ù…
Ø¥Ø°Ø§Ø¹
##Ù‚Ù„Ù‚
##ØªØ«Ø¨Øª
Ù…Ø§Ùˆ
Ø§Ù„ØºÙŠØ§Ø±
ÙˆÙ‚ÙˆÙ„
##Ù„Ø¨Ø¹ÙŠØ¯
##Ø§Ø­Ø¯
Ø¯Ø¹ÙˆØª
ÙÙ‡Ù…ØªÙˆ
ÙŠÙ‚Ø¶
Ø§Ù„Ø¨Ø±Ù„Ù…Ø§Ù†ÙŠ
##Ø²Ù…Ø¨ÙŠ
##Ø¬Ø±Ø¨
ØªÙ‚Ø¨
Ø¨Ø²Ø§Ø§Ø§Ø§Ø§
Ù‚Ø±ÙˆÙŠ
##Ø³Ù†ÙØ§Ø±
##Ø§Ù„Ù…Ø±ØªØ²Ù‚
##ØªØ®ÙŠÙ„
Ø³Ø§Ø³
Ø£ÙŠØ¯ÙŠ
Ø§Ù„Ø§ÙØ±ÙŠ
Ù„Ø¨Ù†Ø§
ÙˆØ·Ø­Ø§Ù†
##Ø¹Ø±Ø¨ÙŠ
##ÙƒØ°Ø§
Ø¶Ù…
##Ø­Ù‚Ùˆ
ØªØ¹Ø±ÙØª
Ø§Ù„Ù†Ø¹Ù…
##ÙˆØ±ÙˆØ±Ùˆ
Ø§Ø¹ØªØ¯
Ø´Ø§ÙŠÙ
Ø¨ÙØ±Ù†Ø³Ø§
ÙØ±ÙŠÙ‚Ùˆ
Ø§Ø¨Ø¯Ø¹
##Ø´ÙƒÙˆØ¨Ø³ØªØ§Ù†
ÙˆØ§Ù„Ø´Ø±
Ø§Ù„Ù‚Ø§Ø¯
ØºØ°Ø§Ø¦ÙŠ
Ø§Ù„Ù…ÙƒØ«Ù
Ø§Ù„Ù‡ÙˆÙ„Ù†Ø¯ÙŠ
Ù„Ø¹Ø§Ø¯
Ù…ØºØ´ÙˆØ´
ØªØ³ØªØ¯Ø¹ÙŠ
Ù…Ø§Ø§Ø§Ø§Ø³Ø·
ØªØ³ØªØ¨Ù‡Ù„Ùˆ
Ù…Ù‡Ø¶ÙˆÙ…
Ø§Ù„Ø²Ù†Ø·ÙˆØ±
##Ù‚Ø±Ø©
Ø²Ù†Ø·ÙˆØ±
Ø¸Ø¹ÙŠÙ
Ù„ÙŠØ¨Ø±Ø§Ù„ÙŠ
Ø§Ù„Ø¯Ø¬Ø§Ø¬
Ù†Ø¶Ù…Ù†Ù„Ùƒ
ØªØ³Ø§Ø¤Ù„
Ø¨Ø§Ø§Ø§Ø§Ø±Ø´Ø§
Ù†Ù†Ù‡Ø¶Ùˆ
Ø¨Ø±Ø¬ÙˆØ§Ø²ÙŠ
Ø¬Ù…ÛŒÙ„
Ø®Ø²Ø¹Ø¨Ù„Ø§Øª
ÙƒÙŠÙ„ÙˆÙ…ØªØ±
Ø§Ù„Ø¨Ø·ÙŠØ®
Ø§ØµØ·ÙˆØ±
ØªØªÙØ±Øº
##ÙÙÙÙÙÙÙÙÙÙÙÙÙÙÙÙ
Ø­Ø¨ÙŠØªÙ‡
Ù…ÙƒØªØ³Ø¨
ÙŠÙ†Ø²Ø¹Ø¬Ùˆ
Ø§Ù„Ù…ØªØ³Ù„Ù‚
##Ù„ÙƒØªØ±ÙˆÙ†ÙŠ
##Ù†ØªØµÙˆØ±
Ù…Ø®Ø¨
Ø§Ù„Ù…ØªÙˆÙØ±
##ÙŠØ¬Ù†Ù†
Ù†Ø³Ø®Ø§ÙŠØ¨
ÙˆØ§Ù„Ø²ÙŠØªÙˆÙ†
Ù†Ø§ÙØ®
Ù†Ù†Ø¯Ø¨
Ù„ØµÙØ­Øª
##Ù…ÙƒØ´Ø®
Ø§Ø¨ØªØ¯Ø§Ø¡
Ø¨Ø£ÙƒÙ…Ù„Ù‡
##Ø³Ø¬ÙŠÙ†
Ø§Ù„Ø¨ÙˆØ¯Ø±
ØªÙ‚Ø§Ø±ÙŠØ±
Ø³Ø®ÙŠÙ
Ø¹Ù„ÙŠÙŠÙŠ
ØªÙØ¶Ø­Ùˆ
##ØªÙØ§Ø¤Ù„
Ø¨Ø±ØªØ§Ø¬ÙŠ
Ø¥ÙƒØ±Ø§Ù‡
Ø§Ù„Ù…Ø¤Ø®Ø±
ØªØ¹Ù‚ÙŠØ¯
Ø§Ù„Ù…Ø±Ù†Ø§Ù‚ÙŠ
Ø¨Ø±Ø§Ø§Ø§Ø§Ø§Ø§Ø§Ù
ÙÙŠØ±ÙˆØ²
ØºØ³ÙŠÙ„
##Ù…Ø²Ù„Øª
ÙˆØ¯Ù…Ø±Øª
ÙŠØ³ØªÙ‡Ø²
Ø§Ù„Ù…Ø¹ØµÙŠ
Ø§ØªÙØ§Ù‚
Ø§Ù„Ù…Ù„Ø§ÙŠ
Ù…Ø®Ø¯ÙˆÙ…
##Ù„Ù„Ù…ÙˆØ§Ø·Ù†
ÙˆØ´ÙØ§Ù
ØªØªÙˆÙØ±
Ø­Ø¯ÙˆØ«
Ø§Ø§Ù…ØºØ±Ø¨
##Ø¹Ø±ÙØ´
##ÙƒØ§Ø¯ÙŠÙ…ÙŠ
Ø§Ù„ÙƒÙ…ÙŠÙˆÙ†
ØªÙ‡Ø§Ù†ÙŠÙ†Ø§
Ù…ØªÙ…Ø³Ùƒ
Ù‚Ø§Ø±Øµ
Ø§Ù„Ù†Ø¬ÙˆÙ…
Ù…ØªØ´Ø§Ø¨Ù‡
ÙŠÙ„Ù‡Ø«
ØµÙˆØ±Ù‡
Ø§Ù„ÙŠÙˆØ³ÙÙŠ
Ù„ÙÙ„Ø§Ù†
ÙŠØ¹Ø§Ù„Ø¬
Ø§Ø¹Øª
Ù„Ø¨Ø¹Ø¸
Ù…Ø§Ø­ÙƒÙŠØª
##Ù†Ø§Ø¸Ø±Ù‡
ÙŠØ¯ÙÙ†
Ø§Ù„Ù…ØªØ·Ø±Ù
Ù„Ù‚Ø§
ÙŠÙ†Ø¯
Ù…Ø§Ø®Ù„Ø§Ùˆ
Ù†ØµØ¨Øº
Ù†ÙˆØµ
##Ù†Ø³ÙˆÙ†
52
Ø§Ø§Ø­Ø¶Ø§
##ÙƒÙˆÙÙŠØ±Ø·
Ù…Ù„Ø§Ù…Ø­
##ØªØ´Ø±Ù
##ÙˆÙˆÙˆÙˆÙˆÙˆÙˆÙˆÙˆÙˆÙˆ
##Ø³ØªØ±ÙŠ
Ø¨ÙƒØªØ§Ø¨
Ø±Ø¬Ø§ÙˆÙŠ
Ø¸ÙØ±
Ø§Ù„Ø§Ù†Ù‚Ù„ÙŠØ²
##Ø¹Ø§Ù„Ù…
Ù†Ø±Ù‚Ø¯
Ù…Ø±Ø¬ØªÙˆ
ÙˆÙŠØ¹Ø§ÙÙŠ
Ø¬Ø¨ØªÙŠÙ‡Ø§
Ø§Ù„Ù…Ù…Ù†ÙˆØ¹
Ù„Ù„Ù†Ø®
ÙŠØªØ¬Ø§Ù‡Ù„
Ù„Ø§ØªØµØ¯Ù‚
ÙˆØ§Ù„Ù…ØµØ§Ù„Ø­
Ù„Ù„ØªÙ„Ø§Ù…ÙŠ
ÙŠÙØ¬Ø±
##Ø§ÙŠÙ‚Ø§Ù
Ø§Ù„ÙˆØ¸ÙŠÙ
Ù…ÙˆØ«Ù‚
Ù…Ø³Ù…Ø§Ù…
Ø§Ù„Ù…ÙƒØ§Ù„Ù…
Ø¨Ø±Ø·Ø§Ø¬
##Ù…Ø®Ø§Ø²Ù†
ÙŠÙ†Ø³Ø±Ùƒ
ÙˆØ­Ø³ÙˆØ¯ÙŠ
Ø§Ù‚ØµØ§Ø¦
Ø§Ù„Ø§Ù…Ø¶Ø§Ø¡
ØªØ±Ø¨Øµ
##ØµØ­ÙÙŠ
ÙŠÙƒØªØ³Ø­
ÙŠÙ†Ø§Ø³Ø¨
Ø³ÙŠÙ‚Ù…Ø§
Ø§Ù„Ù…Ø¹ØªØµÙ…
##Ø®Øª
Ø§Ù„Ù…Ø­ØªØ±Ù
Ø§Ù„Ø§ÙØªØ±Ø§Ø¶ÙŠ
Ø§Ù‚ØªÙ†Ø¹
Ø§Ù„Ø«Ø§Ø¨Øª
Ø¨Ù‚Ø·Ø±ÙŠ
Ø³ÙŠØ­Ø§Ø³Ø¨
Ø§Ù„Ù…ÙƒÙ„Ù
##ØªØ®Ù„ÙŠØ´
Ù…Ø³ØªØ«Ù…Ø±
Ù„Ù„ÙØ±Ù†Ø³ÙŠ
Ø§Ù„Ù…Ø±Ø¯ÙˆØ¯
Ø§Ù„Ù‚Ø§Ù‡Ø±
Ø¨Ø·ÙŠØ®
Ù„Ù„Ø­Ø¸
ØµØ­Ø±Ø§ÙˆÙŠ
Ø§Ù„Ù…Ø²ÙŠÙ
Ø§Ø³ØªØ·Ø¹
Ù†ÙÙŠÙ‚Ùˆ
Ø§Ø±ØªÙ‚Ùˆ
Ù…Ø¤Ø´Ø±
Ø¹Ø§Ù„Ø³Ùƒ
Ø¨ØªØ¬Ù†Ù†
ØªÙ„ÙŠÙÙˆÙ†
Ø§Ù„Ù…Ù†Ø·Ù„Ù‚
Ù„Ù„ØªØ¬Ù…Ø¹
ØªÙØ±Øº
Ù…Ù†Ø³ÙˆØ¨
ÙˆØ§Ù„Ø³Ù„Ø·
ÙˆØ´Ø§Ù…Ù„
Ø¥Ù†Ø·Ù„Ù‚
Ø§Ù„Ø±ÙˆÙŠØ¨Ø¶
ÙˆØ§Ø³ØªÙØ¯
ØªØµØ¯ÙŠÙ‚
Ù„Ø¬Ù„
ÙˆÙŠØ³ØªØºÙ„
##Ù…ÙˆØ±
Ù…Ø§Ù†Ø­Ø¨
ØªÙ‡ÙˆÙˆÙˆÙˆ
Ù‡Ø§Ø²Ø²
Ù…Ø·Ø±ÙˆØ­
ÙŠØ¨Ø±Ø±
Ø§Ù„Ù†Ø²ÙŠÙ‡
##ÙƒÙ„Ø§Ø³ÙŠÙƒÙŠ
Ø§Ù„Ø¹Ø¨ÙˆØ¯ÙŠ
Ø§Ù„Ø¥Ø°Ø§Ø¹
Ù…Ø­Ù†Ùƒ
##Ù…Ø¹ØªÙ‚Ø¯Ø§Øª
ÙŠØ­ØªØ§Ø¬
ÙŠØ¹ØªÙ…Ø¯
Ù„Ù„Ø¨Ø§Ø¬
Ù…ØªÙ†ÙƒØ±
Ø§Ù„Ù…ØªÙƒØ±Ø±
##ØªØ£Ø¯ÙŠ
ÙŠØ§ÙÙˆÙ
##Ù‚ÙˆØ§Ø¹Ø¯
##ØªÙ‡Ø¯Ø¦
Ø§Ø³ØªØ·Ø§Ø¹
Ø§Ù„Ù‡ÙŠÙƒÙ„
ÙˆÙ†Ø¬Ø§Ø­
Ø¨ØªØ±Ø§Ø«
Ù„Ù†ÙØ®
Ø§Ù„Ù„ÙŠØ¨Ø±Ø§Ù„ÙŠ
ØªØ³Ø±ÙŠØ­
Ø§Ù„ØºØ±Ø§Ø¨
Ø§Ù„Ù…Ø§Ø¬Ø¯
Ù†Ù†Ø´Ø±
Ø§Ù„ØªØ®Ø±ÙŠØ¨
ØªØ®Ø±Ø§ÙˆÙ„
Ø§ÙÙÙÙÙ
##Ù…Ø²Ø§ÙˆØ¯ÙŠ
ÙˆØ§Ø­ØªÙ‚Ø§Ø±
Ù…Ø­Ø±ÙˆÙ‚
Ø§Ù„ØªØ¨Ø±Ø¹
ÙØ´Ø®
Ù„Ø¥ØµÙ„Ø§Ø­
ÙˆØ§Ù„Ù‚ÙˆÙ…ÙŠ
Ø¨Ø±Ø¬Ù„
Ø§Ø¬Ø¨Ø¯
Ø¨Ù…ÙÙ‡ÙˆÙ…
##Ù„Ù‚Ø§Ù†ÙˆÙ†
Ø§ÙˆÙ„ÙˆÙŠØ§Øª
Ø§Ù„ÙØ§Ø²
ÙˆÙŠØ¹Ø±ÙÙˆ
ØªØªØ±Ø¯Ø¯
Ø§Ù„Ø¯ÙŠÙ…ÙˆÙ‚Ø±Ø§Ø·ÙŠ
ÙŠØ±Ø³Ù„
ØªØ³Ø®Ø±
##ÙŠÙŠÙŠØ±
Ø§Ù„Ù…Ø¹Ø¬Ø²
Ø¨Ù…ØµØ§Ù„Ø­
ØªØ²Ø±Ø¹
Ø¹Ø§ÙƒØ³
ÙŠÙ†ÙØ°
Ù…Ø¹Ù„Ù„Ù„Ù„Ù„Ù„Ù„Ù„
ØªØªØ®Ø°
ÙŠØ¨Ø´Ø±
Ø§Ù„Ù…Ù†Ù‚Ø°
Ø­Ø²Ø§Ù…
ÙˆØ«Ø±ÙˆØª
ÙƒØºÙŠØ±Ù‡
Ù…ØªÙ…Ø¹Ø´
ÙˆÙ…ÙƒØ¨Ø´
ØµØ±Ø®
##ÙŠØ®Ø´ÙˆÙ†
##ØºÙØ±
Ø§Ù„ØªØ¹Ø§Ù‚Ø¯
ÙŠØ±Ø¨Ø·
Ù„Ù„Ù…Ø¬ØªÙ…Ø¹
ÙˆÙƒÙØ§Ùƒ
Ù„Ø§ÙˆÙ„
ÙˆÙŠÙƒØ´Ù
Ø§Ù„Ù…Ø³Ø¹
ÙˆÙ…Ù‚Ù†Ø¹
ÙŠØ³Ø®Ø±
ÙˆØ§Ù„Ø§Ø±Ù‡Ø§Ø¨
Ø§Ù„Ù…ÙŠ
Ø§Ù„ÙØ±Ù†Ø³Ø§ÙˆÙŠ
Ø§Ø¹Ø¯Ø§Ø¯
Ø§Ù„Ù…Ù†ØªØ¸Ø±
Ù†Ø§Ø¦Ø¨
Ø¥Ø¯Ø®
##Ù„Ø­Ø§Ù‚
Ù†Ù‚Ø¶ÙŠ
ÙˆØ§Ù„ØµØ¯Ù‚
Ø§Ø´ÙƒØ§Ù„Ù‡Ø§
Ø§Ù„Ù…Ù†ØªÙ‚
Ø®Ø·ÙˆØ§Øª
##Ù…Ø®ÙŠØ¨
Ø§Ø³ØªØ¦ØµØ§Ù„
Ø§Ù„Ø§Ø¹ÙŠØ¨
ÙØ£Ø±
Ù…ÙŠÙ†Ø¬Ù…Ø´
Ø­Ù…Ù…Øª
##ØªØª
Ù…Ø§ÙŠÙ†ÙƒØ±
Ø§Ù„Ù…Ø£Ø¬ÙˆØ±
ÙˆØ§Ù„Ù†Ù‡Ø¨
Ø¬ÙŠØªÙƒ
ÙˆØ§Ù„Ø±Ø¦Ø§Ø³
Ø§Ù„Ù…ØµØ§Ø¯Ù‚
Ù‡Ù„Ùƒ
Ø§Ù„Ø­Ø§Ø³Ø¯ÙŠÙ†
Ù†Ù‚Ø§ÙˆÙ…
##Ù„Ù‡Ø§Ùˆ
##Ø³Ø§Ø°Ø¬
Ù„Ø¬Ù…ÙŠ
Ø§Ù‚Ù†Ø¹
Ø£Ù‚Ø§Ù…
Ø§Ù„ØºØ«
Ù…Ø¹Ø´ÙˆÙ‚
ÙŠØ³ÙƒØ±
ØªØ¹ÙˆØ¶
ÙˆÙ…Ø¹Ø§Ù„Ø¬
ÙˆÙ…Ø­Ø¨ÙˆØ¨
##Ù„ØµØ¨Ø±
Ø¯ÙŠØ§Ù†ØªÙ‡
ÙˆÙŠØ¨Ø§Ø±Ùƒ
ØµØ¹ÙˆØ¨
Ø§Ù†Ù‚Ù„Ø¨Øª
Ù„Ø²
Ø§Ø³ØªØ±Ø§ØªÙŠØ¬ÙŠ
##ÙÙ‚Ù‡
ÙƒØ³ÙˆØ­
Ø¨Ù‡Ù…ÙˆÙ…
ØªØ¹Ø§Ù„Ø¬
ÙŠØ³ØªÙˆ
Ù…Ù‡Ø±Ø¬
Ù…Ø¯Ø§Ø±
Ù„Ù„Ø±ÙˆØ­
Ø§Ù„ØªØ¸Ø§Ù‡Ø±
Ù…Ø§ÙŠÙ„Ø²Ù…
##Ù†ØªÙ‚Ø§Ø¨Ù„Ùˆ
##Ù„ÙŠÙÙˆÙ†
##Ù…ÙÙŠÙˆØ²ÙŠ
Ù…Ø§ÙÙŠÙˆØ²ÙŠ
Ù†Ø´Ø±Ø¨Ùˆ
ØªØ´Ø­Ù†
Ø§Ù„Ù…ØªØ´Ø¨Ù‡
Ø§Ù„ÙˆØ§Ø¬Ø¯
Ø±Ø§ÙØ¯
ØªÙ‡Ø¶Ø±
Ø¨Ù‡Ù„ÙˆÙ„
Ø§Ù„Ù…Ù…Ù„Ùƒ
Ø§Ø¯Ø®Ø±
Ø§Ù„Ø¨Ø³Ø§Ø·
Ø§Ù„Ù…ØªÙ‚Ø§Ø¹Ø¯
Ø§Ø³ØªØºØ±Ø¨
Ø§Ù„ÙƒÙˆØ§Ø±Ø¬ÙŠ
ÙˆØ¹Ø§Ù‚Ù„
Ø§Ø«Ø§Ø±
Ù…ØªÙƒÙŠÙ
Ø®Ø®Ø®
##Ø²Ø¹Ø¬
ÙƒØ±Ø·ÙˆØ´
Ø§Ù„Ù…Ø±Ø¬Ùˆ
ØªÙ†Ø­Ø§Ø²
Ù„Ø§ÙŠÙ…ÙƒÙ†
Ù„Ø§Ø­Ø¶
ÙˆØªÙØ±Ø­
Ø­Ø¨Ø§ÙŠØ¨
Ø´Ù…Øª
ÙŠØªØµÙ„Ø­
Ù…Ø§ØªÙ„Ø¹Ø¨
ÙˆØ§Ù„Ø·Ù…Ø§Ø¹
Ø¨ØªØµØ±ÙŠØ­Ø§Øª
Ø§Ù„Ù…Ù†ØªØ¬
Ù„ÙˆØ®Ø±
Ù†Ø¯Ù…Øª
ÙŠØ¹Ø¬Ø¨Ù‡
ÙˆØ³Ø§ÙƒØª
ÙŠØ¤Ù…Ù†Ùˆ
Ø§Ù„Ù‡Ù…Ø§
##Ù„Ù†Ø¯Ø§
Ù„Ù„ØªÙØ±
Ù†Ø±ØªØ§Ø­Ùˆ
##Ø¯Ø§ÙŠÙˆØ«
ÙØªÙØ§Øª
ÙƒÙŠÙˆÙˆÙˆØª
Ø¬Ù…Ø§Ø§Ø§Ø§
Ø¨ÙˆØ¯
ØªÙØµÙŠÙ„
Ø§Ù„Ø²ÙˆØ¬ÙŠ
Ø§Ù„Ø´ÙˆØ·
Ù…Ù‚Ø²Ø²
Ø§Ù…Ù†ÙˆØ±
Ø£ØµØ¯Ù‚
##Ø·Ù…ÙˆØ­Ø§Øª
Ù…Ø¯Ø®Ø±
ÙˆØ§Ø¨Ø¯Ø¹
Ø¨Ù„Ø§Øº
Ù…ØªØ²ÙŠØ¯
Ø§Ù„Ù…Ø±ØªØ¯
Ø§Ù„Ù‡ÙŠÙ…Ù†
Ù‚Ù„ØªÙˆÙ„Ù†Ø§
##Ø§Ø³Øª
Ø§Ø¶Ø·Ø±
Ù†Ø§Ø¦Ù…
Ø§Ù„Ù…Ø²Ø§ÙŠØ¯
Ø§Ù†Ø¸Ø§Ø±
Ø§Ù„Ù‚ØªØ§Ù„
Ø­Ø§Ø²Ù…
Ø§Ù„Ù…Ø¨Ø±Ø±
ÙŠØ³Ø§Ù‡Ù…
Ù„Ù„ÙƒØ¨Ø§Ø±
##Ø§Ø³ØªØ®Ø±Ø§Ø¬
ØªØªØºØ´Ø´
##Ø¥Ù†ØªÙ‡Ø§Ø²ÙŠ
Ø§ØªÙ‡Ø²
Ø§Ù„Ø­Ùˆ
Ø¹Ù‡Ø¯Ù‡
Ù„Ø³ÙˆØ³
Ø®Ø´ÙŠÙ†
ØªØ­Ø´Ù…
Ø§Ù†Ù‚Ø°
Ù†ÙÙˆØ³
Ø§Ø®Ø±ØªÙ‡Ø§
Ø§Ø³ØªÙØ¯
ÙˆØ§Ù„Ù…Ø¤Ù…Ù†
Ù…ØªØ«Ù‚Ù
Ø³Ø§Ù†Ø¯Ùˆ
Ù†Ø°Ù„
ÙˆØ§Ø±Ù‚Ø¯
##Ù†ÙŠØ³
##Ù…ØªØ±Ø¨ÙŠ
Ø§Ø±ØªÙØ¹
Ù…Ø´Ø§ØºÙ„
Ø§Ù„Ø§Ù†ØªØ¸Ø§Ø±
Ø§ØµØ±Ø§Ø±
Ø³Ø§Ù†ÙØ±
##Ø´Ù‚
Ù„Ø«Ù†ÙŠ
Ø¬Ø¯Ø§Ø§Ø§
Ù†ÙØ²
ØªØ¨Ø±Ø¯
Ù†Ø¨ÙƒÙŠØ§Ø§Ø§Ø§
##Ø§Ø³Ù…Ùƒ
Ø£ÙƒØªØ¨
Ø§Ø¬Ø±Ø§Ø¡
Ø§Ù„Ø£Ù†ØªØ±
ÙƒØ±ÙŠØ²
Ø§Ù„Ù…Ø­Ø§ÙƒÙ…
Ù‡Ø¶Ù…
Ø§Ù„Ø¥Ø³Ø±Ø§Ø¦ÙŠÙ„ÙŠ
Ù…ØªØ¨Ø¹
ÙˆÙ†Ø¹ÙˆØ¯
Ù„Ø¨Ù‡ÙŠÙ…
ØªØªØ¬
ÙŠØ±Ø§Ø¯
##ÙˆØ§Ø·ÙŠ
##ÛŒØ¹
Ø¨Ø´Ø±ÙˆØ·
Ø£Ø°Ùƒ
Ø¢Ù„Ø¬Ø²Ø§Ø¦Ø±
Ø§Ù„Ù‡Ø±Ù…
Ø§Ù„Ø¯Ø®ÙŠÙ„
Ø±ÙÙŠÙ‚
Ù…Ø®Ø·Ø¦
ÙˆØ­Ø§Ø¨
Ø¨Ø±Ø£Ø³
Ø±ØºØ¯Ù‡
Ù„Ù‚Ø§Ù„
ØªØªØ¨Ø§Ù‡
Ø¨ÙÙ†Ø§Ù†
##Ø§ÙŠØ§Ù…
Ù…ÙŠÙÙ‡Ù…
ÙˆÙ…Ø§ØªØª
Ù…Ù†ØºÙ„Ù‚
Ø¨Ø±Ù‚ÙŠØ¨
Ø§Ø³ØªØºÙ„
Ø§Ø¹ØªØ±Ù
##ÙŠÙØ¶Ù„Ùƒ
Ù†Ø¹ÙˆØ¶
Ù†ØªÙ‚Ø¯Ù…
##Ù…Ø¶Ù…ÙˆÙ†
Ø§Ù„Ø§Ù†ØªÙ…Ø§Ø¡
Ø§Ù„Ø¥Ø´Ù‡Ø§Ø±
Ø§Ù„ØµØ¨Ø§Ø¨
Ø§Ù„Ø¨Ø±ÙˆØ¨
Ø§Ù„Ø³Ø§Ù‚ÙŠ
ÙØ­Ø³Ø¨
Ø§Ù„Ù…ØªØ´Ø¯Ø¯
Ø®Ø§ÙŠ
Ø¨Ø¬Ø³Ù…
Ø¹Ø±Ø§Ù‚
Ø§ØªØ²ÙŠØ¯
ØªØ¶Ù…
Ù…ÙˆÙ‡ÙˆØ¨
Ù…Ù‚Ø¹Ø¯
Ù†Ø±Ø¬Ø³ÙŠ
ÙŠÙ„Ø·Ù
ÙØ§Ù„Ø«
##Ø­ÙˆÙ…
Ù†Ø­ØªÙÙ„Ùˆ
Ù†Ø¬Ø±ÙŠ
Ø§Ù„ØªØ±ØªÙŠØ¨
ØªØªØ¨
Ø§Ù„Ù…Ø­Ø³ÙˆØ¨ÙŠ
##Ø¥Ø´Ù‡Ø§Ø±
ØªØ±Ø§Ù‡
Ø§Ù„Ø³ÙŠØ¦
Ø®Ø§Ø¯Ù…
ÙˆÙŠÙ‚Ø¹Ø¯Ùˆ
Ù„Ø¹ÙŠÙˆÙ†
Ø¨Ø¥Ø¨
##Ø¨ÙŠÙˆØª
Ø³Ø¹Ø¯Ùˆ
Ø¨Ø±Ø¦Ø§Ø³
ÙŠØ³ØªØ±Ø¬Ø¹
##Ù„Ù…ÙŠ
ØªÙÙ‡Ù…ÙˆÙ†
ÙŠØ®Ø±ÙˆÙ„
ÙˆØ¬Ù…Ø§Ø¹ØªÙ‡
##Ø¬Ø²Ø¦
##ÙˆÙˆÙˆÙˆØ²
Ø£Ø¨Ø¹Ø«
##ÙŠØµÙŠØ¨
ØµØºØ±ÙˆÙ†
ÙˆØ®Ø§ØµØª
Ø¨Ø§Ù„Ø§Ø³Ù„Ø§Ù…
Ù…Ø§ÙŠØ³Ø§Ù„
ÙˆØªØµØ¨Ø­
Ø±Ø¶ÙŠØª
Ø³Ø±Ø¯ÙŠÙ†
Ù…Ø´Ø§Ù„Ù‡
ÙŠÙˆØ­Ø¯
##Ø´ÙŠØ¹
Ø´ÙŠØ¹Ù…Ù„
ØªÙ†Ù‡Ø¨
Ø²ÙˆØ¨Ø¹
Ø§Ù„Ø³Ù‚ÙˆØ·
##Ø³Ø¨ÙˆÙ‡
Ù…Ù„Ù…ÙˆÙ…
Ø¹Ø³ÙŠØ±
Ø§Ù„Ù…ØºØ§Ø¯Ø±
ØªÙ†ÙØ®
Ø§ÙØ±Ø§Ø­
Ø§Ù„Ø²Ø¨Ø§Ù„
Ø³ØªØ¬Ø¯
Ø§Ù„Ø¯Ù„Ø§Ù„
Ù…ÙŠÙ…Øª
Ø§Ù„Ù…Ø¬Ø§
##ØªÙ†ÙˆØ¶Ùˆ
Ø¨ÙˆØ±Ù‚
Ù…Ø³Ù‚Ø·
ÙƒÙ†ÙŠØ³
Ø¹Ø¬ÙŠØ¨
Ù…ØªÙˆØµÙ„
ØªÙ…ÙƒÙŠÙ†
ØªÙˆØªØ³
Ù…Ù‚Ø¯ÙˆØ±
##Ù„Ù…ÙˆÙŠÙ‡Ø¨ÙŠ
Ù†Ø³Ù„Ùƒ
Ù‚Ù„Ø¯Øª
Ø®Ø·ÙŠ
ÙŠØªÙ‡Ø±Ø¨
##Ù†ØªØ°ÙƒØ±
Ù„Ù†Ù‡Ø¨
ÙŠÙ†Ø³Ø§Ùˆ
ÙˆÙ…Ø¹Ù†Ø¯Ùƒ
Ø¨Ø¥Ø¹Ø§
##Ø³Ù†Ø§
Ø§Ù„Ø¹Ø¨Ù‚Ø±ÙŠ
Ù„ØµØ§Ø­Ø¨
Ø§Ù„Ù†Ø¸Ø§Ù
Ø³Ù…Ø¹Ù†Ø§
Ø¹Ø¨Ø«
ÙŠÙ‡ØªÙ…
Ù…Ø§ÙŠØ®Ù„ÙŠ
Ø§Ù„Ø¥Ù‚Ø§Ù…
ØªÙ„Ù‡ÙŠØª
Ù…Ø§ØªØ¬ÙŠØ¨
Ù‚Ø°Ø§Ø±
Ù‚Ø­
Ù…Ø¬Ù†Ø¯
##ÙŠØ±ÙŠØ¯ÙˆÙ†
##Ø§Ù„Ø±Ø´Ùˆ
Ù…Ø®Ù„ÙŠØª
Ø§Ù„Ø³ÙŠÙ
Ø°ÙƒØ§Ø¡
Ø§Ù„ÙƒØ§
##Ø±Ø§ÙØ¹
Ø®Ø´Ù…
Ø®Ù„ÙŠÙ‚
ØµÙ†ÙŠØ¹
Ù…Ø³ÙˆØ¯
ÙˆØ°Ù†Ø¨
Ø§Ù„Ù…Ø®Ø±Ø¨
##ÙŠÙ…Ø´Ùˆ
Ø§ÙƒØ±Ù…
Ø£ØµÙˆØ§ØªÙ‡
ÙˆÙŠØ³
Ø¥Ù†Ø¬Ø§Ø²Ø§Øª
ØªØ­ÙŠØ±
Ø§Ù„Ø¥Ø¶Ø§Ù
Ù„ÙŠÙƒØ±Ù‡
ÙŠØ´ØªÙ…
ÙˆÙƒÙ†
##Ù„ÙƒÙ„
Ø¹Ø§Ø¨Ø±
##Ø¬Ù‡Ø§Ø²
ØºØµØ¨
##ØªØ£Ø®Ø°
Ø¨ØµØ±Ø­
Ø§Ù„ØµØ±Ø§Ø±
Ù„Ù…Ø´Ø±ÙˆØ¹
Ú¨Ø¨Ù„
Ù…Ø±Ø®Ø³
ÙŠØ·ÙŠØ¨
##ÙŠØ§Ù†Ø§Øª
Ø§Ù„Ø¨ÙŠÙˆØª
Ø§Ø´ØªØ±ÙŠØª
Ø§Ù„Ù…Ø±Ø§ÙˆØº
##Ù„Ø¯ÙŠÙ†
##Ù…Ù†Ø§Ø¸Ù„
##Ø­Ø§ÙØ¸
##ÙŠÙ†Ù‡Ø¨Ùˆ
Ø§Ø¨Ø±
Ø®ÙˆØ§Ø·Ø±
Ø¨Ø§Ù„ÙƒØ´
Ù„Ø§Ø­Ø¶Øª
Ø·Ø¹Ù†
Ø¨Ø±Ø®Øµ
##Ù…Ø³Ù„Ù…
Ù…Ø§ÙŠÙ‡Ù…ÙƒØ´
Ø¥ØµØ±Ø§Ø±
Ù…Ø¬Ø¨Ø±
##Ø±ÙˆØªÙŠÙ†
ÙˆØ§Ø³ØªÙ‚Ø±Ø§Ø±
##Ù…Ø´ÙŠØª
Ø§Ù„Ù…ÙˆØ§Ø²ÙŠ
Ø±ÙˆØ¨Ùˆ
##Ø£Ø«Ù…Ù†
Ø³Ø¨Ø§Ù‚
##Ù†Ø¹Ù…Ù‡
Ù†ÙØ®Øª
##Ø­Ø§Ù„Ø©
Ø§Ù†Ø¶Ù…Ø§Ù…
##Ø´ØªØ±ÙŠ
Ø§Ù„Ø¯Ù‡Ù†ÙŠ
##Ù†ÙÙ‡Ù…
Ø§Ù„ÙŠØ§Ø³Ù…ÙŠÙ†
ÙŠØµÙˆÙ†
Ù„Ø¥Ø®ÙˆØ§Ù†
##Ù…Ø¹Ø§Ù„Ø¬
Ø¨ÙÙŠØ¯ÙŠÙˆ
ÙˆÙŠØ­ÙƒÙ…
Ø§Ù„Ø³Ù‡Ø±
##Ø­Ø¬ØªÙ†Ø§
ØªÙ†Ø¸Ø±
Ù…Ø³Ø§Ø¹Ø¯
ÙŠÙ‚ØµØ¯
ØºØ³Ù„
Ù„Ù„Ø´Ø§Ø¨
Ø§Ù„Ø¥Ø³ØªØ«Ù…Ø§Ø±
Ø¹Ø±ÙŠØ¶
ØºØ±Ù‚
Ø¯ÙŠØ³Ùƒ
Ø§Ù„Ø§ÙŠØ¯ÙŠ
ØºØ§Ù†Ù…
Ø§Ù†ØªØ­Ø±
##ÙŠØ¨ÙŠÙ†
##Ø²Ø§Ø¯Øª
Ø§Ù„Ø®Ù„ÙŠÙ
Ø§Ù„Ù†Ù‚
Ù…ØµÙ†Ø¹
Ù‡ÙŠØ¨Øª
ÙŠØªØ­ÙƒÙ…
Ø§Ù„Ø§Ø­ØªÙƒØ§
ØºØ±Ø§Ø¦
ØªÙ†Ø¯Ø¨
ÙˆÙ…Ø§ØªØ¨Ø¯
Ø§Ù„Ù…Ø¨Ø¯Ø¹
##Ù‡ÙŠØ©
ÙØ§Ù„Ù‚Ù†Ø§
ØªØ¸Ø§Ù‡Ø±
ÙŠÙ†ØµØ±Ù‡
##ØªØ­Ù…Ù‚
##Ù‡Ù„Ùƒ
Ù…ØªØ­Ù…Ù„
Ù…ÙØ³Ø¯
Ù„ÙˆØ§Ù„Ùˆ
##Ø§Ø¨ØªØ¯Ø§Ø¦ÙŠ
ØªØ¯Ù…ÙŠØ±
Ø£Ø³Ø§Ù„ÙŠØ¨
Ù…Ø´Ø¬Ø¹ÙŠ
Ø§Ù†Ù‚Ø§Ø¨
Ø¨ÙŠÙ†Ùˆ
Ø§Ù„Ø±Ø¬Ùˆ
Ù„Ù…Ø±Ø¶
Ø£Ù†Ø´Ø§Ø¡
##Ø§Ø®Ø°Ùˆ
Ø§Ù„ÙƒØ§Ù…Ø±
ÙƒØ¨ÙŠÙŠØ±
Ù…ØªØ£Ø«Ø±
ØªÙØªÙŠ
Ø£ÙˆØµÙ„
Ø¥Ø®Øª
ÙˆØªÙ…ÙˆÙŠÙ„Ø§Øª
Ø±ÙŠØªÙˆÙ‡
Ù†ÙƒØªÙ‡Ø§
ØªØ¶
ØªÙ…Øµ
Ù…Ø­Ø¨Øª
##Ù…ÙˆØ§Ù„
##ØªØ­ÙƒÙ…
##Ø§Ù„Ø¥ÙØ±ÙŠÙ‚ÙŠ
Ø§Ù„Ù…Ø¬ÙŠØ¨
##ØªÙƒØªÙ„
Ø¨Ø§Ù„Ø£Ù…Ø±
ØªÙ†ØªÙ‚
ÙˆØªÙÙƒ
ÙˆØªØ¨ÙƒÙŠ
Ø¨Ø±Ù„Ù…Ø§Ù†ÙŠ
ØªÙ„ÙØ²ÙŠ
Ù…ØªØ±Ùˆ
ØªÙƒØ±ÙŠ
Ø£Ø²
##Ø°Ø§ÙƒØ±
##Ø§ÙŠØ¯ÙŠÙƒ
Ù„Ù„Ù…Ø±Ø§Ø©
Ø§Ù‡Ø¯Ø§ÙÙƒ
Ø£Ø³Ø§Ø¡
ÙŠØ¹Ø¨Ø¯
Ø¹ÙŠÙ„ØªÙˆ
##Ø±Ø§Ø¦
##Ø²Ø§ÙŠ
ÙˆØ§Ù„Ù‚ØµØ±
Ù‚Ø±Ø§Ù†ÙŠ
Ø§Ù„Ø¹Ø·Ø§ÙŠ
Ø­Ø±ÙŠÙ
ØªÙ†Ø¬
ØªØ¬Ù†Ø¨
Ø¹Ø¯ÙŠÙ†Ø§
ØªØ¹Ø¯Ø§
ÙØ±Ø§Ù‚Ùƒ
Ù…Ø§Ø¬ÙˆØ±
Ù†ØªØ±Ø´Ø­
Ø¨ØªØ­Ø¨
##Ø§Ù„ØªØ¬Ù…Ø¹
ØªØ­ØªØ§Ø¬
Ø´Ø¹ÙˆØ¨Ù‡Ù…
Ø§Ù„Ù‡Ø²ÙŠÙ…
Ù…Ø¤Ù‡Ù„Ø§
##Ø¹Ø¨Ùˆ
Ø§Ù„ØªØ´ÙˆÙŠ
Ø§Ù„ØªÙ†Ø§Ø²Ù„
ØªÙ†Øµ
##Ø¹Ø°Ø¨
Ù…ØªØ¨Ø±Ø¬
##Ø§Ù„Ø£Ø®Ù„Ø§Ù‚
Ø§Ù„Ø®ÙŠ
##Ú¨Ù
##Ø±ØªÙŠØ³Øª
ÙˆÙÙ„Ø³
Ø´Ø§Ø§Ø§Ø§
Ù…Ø­Ù„Ø§Ø§Ø§Ùƒ
Ù„Ø¹Ù„Ù‡
##Ù…ØºØ±Ø¨ÙŠ
Ø²ÙŠÙ†ÙˆÙ†
ÙŠØ¹Ù„Ù†
##Ù†Ø¶Ø§Ù
##Ø´Ø§Ø±Ùƒ
##Ø³ÙŠØ¦
Ø§ÙˆØ±Ø§Ù‚
ØªØ·Ùˆ
Ø§ÙˆÙ‚Ø§Øª
Ø¨Ù†Ø§Ø¦Ù‡
ÙˆÙˆØ§Ø¶Ø­
Ø§Ù„Ø­ØµØ§Ù†
##Ø±ÙŠØ¦Ø³
ÙˆØ§Ø¬ØªÙ…Ø§Ø¹
ÙˆØ³ØªØ¨
ÙˆØªØ®Ø±Ø¬
ØµÙˆÙÙŠ
Ø£Ø¹Ù…
Ù„Ø®Ø±Ø§Ù†ÙŠ
Ø§Ø±Ø®Øµ
ÙˆØ§Ù„Ù…Ø³Ø§Ù†Ø¯Ø©
Ø§Ù„Ø¯Ø¹Ø§
Ù…ÙˆØ®Ø±
Ø¥Ø±Ø¨Ø­
Ø§Ù„Ù…Ø°Ù„
Ø±ÙƒØ¹
Ù…Ø§ØªØ¹Ù…Ù„
Ù…Ø§Ø´Ø§Ù
##Ø¹Ø¬Ø¨ØªÙŠÙ†ÙŠ
##ÙŠÙ‚Ù„Ù‚
Ù…Ø¯Ø§ÙŠØ±
ÙŠÙƒÙ
Ù†Ø¯Ø¹Ùˆ
ØµØ§Ø¦Ø¨
##Ø§Ø®ØªØµØ§Øµ
ÙˆÙŠØ­Ø§ÙˆÙ„
Ù†Ø¯Ø¹Ù…ÙˆÙƒ
Ø¨ÙˆÙ„ÙŠØ¯
Ø²ÙˆÙ„ÙŠ
Ø¬Ù†Ø§Ø¨
##ØªØ¹Ø±ÙÙˆØ´
ØªØ«Ø¨Øª
Ø£Ø®Ø·Ø§Ø¦
##ØªÙ†Ø§ÙˆÙ„
ÙˆÙƒÙ„Ø§Ù…Ù‡
Ø¹Ù…Ø±ÙƒÙ…Ø´
Ø±Ø³
ÙƒÙŠØ¨ÙˆØ¨
ÙŠØ¹Ø§Ù‚Ø¨
##Ø§Ù„Ù…Ø¯ÙŠÙˆÙ†ÙŠ
ØªÙ‚Ø±Ø±
##Ø¹Ø¨ÙŠØ±
Ø§Ù„Ø²Ù‡Ø±
##Ø§Ù…ÙŠÙ†ÙŠ
##ØªØªØ´Ø¯Ù‚
##Ù†ÙˆØ§ÙŠØ§
Ø´Ø§Ø­Ù†
Ù†ØºÙŠØ±Ùˆ
Ø®ÙŠØ¨Øª
Ø´Ø§ÙƒØ±
ÙŠØ®Ø±Ù
Ø¯Ø§Ø²
Ø£ÙˆØ³
Ù†Ø³ØªØ­Ù‚Ùˆ
ÙŠØºØ±
##ØªØ±Ø¨
Ù†Ø§Ø«Ù‚Ùˆ
##Ø²Ø§Ø¨
ØªÙ†ØµØ±
##ÙÙ„Ø³
ÙˆØ±Ø¬Ø¹
ÙŠØ¨ØªØºÙŠ
Ù„Ù‚ÙŠ
##ÙƒØªÙŠØ±
##Ø¬ÙŠØ¨ÙˆØ§
Ø¨ØµØºØ§Ø±
##Ø·Ø²
ÙÙ‚Ù†Ø§
ÙŠÙÙŠÙ‚Ùˆ
Ø³Ø£Ù„Ùˆ
##ÙØ§Ø±Øº
Ø¨Ø§Ø§Ø§Ø±Ø´
Ø§Ø³Ù‚Ø·
Ø´Ø§Ø±ÙƒØª
##Ø§Ø¦Ù
##ØµØ§Ø¦Ø¨
##Ø¹ØªÙ…Ø¯
##Ø¨Øµ
ÙØ§Ù„Ù…Ø±Ø§
ÙŠØ®ØªØ§Ø±Ùˆ
Ù†Ù‡Ø¯ÙŠ
Ø¯Ù…Ø§Ø±
Ø¥Ù‚ØªØ±Ø§Ø­Ø§Øª
Ù…Ø§Ù†Ø³Ù…Ø¹Ù‡Ø§
Ù„ÙŠÙ„Ù‡
ÙŠØ¯Ø±Ø¨
ÙˆØ¹ÙŠÙˆÙ†
##Ù„Ø¯Ø¹Ù…
ÙˆÙŠØ¯Ø¹ÙŠ
Ø§Ù„Ù‚ÙˆÙ…
Ù…Ø´ÙƒÙ„ØªÙ‡
Ù‡Ø¯ÙˆÙƒ
ØªÙˆÙ„
##ÙˆØ§Ø´
ÙˆÙ‚ÙˆØ§Ø¯
Ù‡Ø§Ø¦Ù„
ÙŠØ¹Ù„Ù‚Ùˆ
Ø¹Ø´ÙˆØ§Ø¦ÙŠ
Ø±Ø£
Ù…Ø§Ø¯Ø®Ù„
ØºØ±ÙˆØ±
ÙÙƒÙØ§
##Ø¯ÙƒØªÙˆØ±
Ø§Ù„Ø£Ø³Ø¨ÙˆØ¹ÙŠ
ÙˆØ­Ø¯Ø§
##Ø®Ø§Ù„Ø¯
ÙƒÙ…Ù†Øª
Ø¬Ù„ÙŠ
ÙˆØµØ±Øª
ÙˆØ³Ù…Ø¹Øª
Ù†Ø¹ÙŠØ´Ù‡
Ø§Ù†ØªØ®Ø¨ÙˆÙƒ
##Ù‚Ø±Ø§Ø±
##Ø³Ø¨ÙˆÙƒ
Ø­Ø±Ù…Ø§Ù†
##Ø¬Ù‡Ù„
##Ù‚Ø²Ø²
ØªØ®Ø·ÙŠØ·
Ø§Ù„Ø¹Ø§Ù‚Ù„
##Ø·Ø¦
Ù…ØµØ¯Ø±Ù‡
Ù…Ø§ØªØ³Ù…Ø¹ÙŠ
Ø§Ù„Ø§Ø¬Ùˆ
Ù…Ù†Ø§ØµØ±
ØºØ±Ù‚Øª
ÙØ§Ø·
Ù†ØªØ¨Ø§Ø¯Ù„
ÙŠØ¹Ø±Ø¶Ùˆ
ÙˆÙ…Ø§ÙÙŠÙ‡
##Ø§Ù„Ù†Ø¨ÙŠ
Ø§Ù„Ø¯Ø§Ø¹ÙŠ
##ÙŠØ§Ø´ÙŠ
Ø¬Ø§Ù‡Ø²
ØªÙ„Ù…Ø¹
Ø§ÙˆØª
##Ù„Ø¯Ø±Ø¬
Ø²ÙŠØ¯ÙŠ
Ø§ÙƒÙ‡Ùˆ
ÙŠÙ†ØªÙ‚Ø¯
Ø¨Ø§Ù„Ø­ÙƒÙ…
##ØªÙ‚Ø°Ù
ÙˆØ§Ù„Ø¯ÙŠ
##Ø¬Ù‡ÙˆØ¯
##ØªØ­Ø±ÙƒØ§Øª
Ø´Ø®ØµÙŠØªÙ‡
Ø´Ø±Ù…Ùˆ
##Ù„Ø¹Ø¸ÙŠÙ…
Ø§Ù„Ù…Ø³Ø§Ø¡
ÙƒØ±Ø¯ÙŠ
ÙŠØ¹Ø§ÙˆÙ†Ùˆ
ÙŠÙØ±
ÙŠØµÙÙ‚
##Ø§Ù„Ø§Ù‚Ù„
##Ø¬Ø±Ø¨ÙˆØ¹
ØªØªÙ„Ùˆ
Ú¨Ø¹Ø±
ÙˆØ§Ù„Ø´Ø§ÙŠ
ØªØ¹Ø¬Ø¨Ùƒ
##Ø­Ø²Ø¨Ùƒ
ÙˆØ¹Ø§ÙˆØ¯Øª
##ØªØ¶Ø§Ø±Ø¨
Ù…Ø¯Ø±ÙŠ
Ø§Ø¨ÙˆØ§Ø¨
Ù„Ù‚Ø§Ø¹
ÙˆØ§ÙƒÙ‡
Ø±Ø³Ù…Øª
Ø§Ù„Ø®ÙÙŠÙ
Ø®Ø´Ø¨ÙŠ
##Ø²Ø§Ø²
Ù…Ø±Ú¨Øª
##Ø¨ØªØ¹Ø¯
Ø§Ù„Ø£Ù†Ø§
Ù†Ø¨Ø¯Ù„Ùˆ
Ø§Ù„Ø§Ø«Ø±ÙŠ
Ø§Ù„Ø³Ø®Ø§
Ø§Ø¨Ù„Ø¯
##Ø§ØªØ¬Ù‡
Ø§Ù„ÙˆØ±Ù‚
##Ù…ÙØ±ÙˆØ¶
ÙˆØ¬Ù†ÙŠ
ÙˆØ¨Ø±Ø´
Ø§Ù„Ø®Ø±Ù
ÙŠÙ†Ø­ÙŠ
Ù†Ø¶Ø§Ù
ÙŠØ¹Ø¬Ø¨Ùƒ
Ù…Ø·Ø±
Ø¨Ø±ÙˆÙÙŠÙ„
Ø¯ÙˆØ±ÙŠ
ÙˆØ§Ù„Ù…ØºØ§Ø§
##Ø±Ø´ÙŠÙ
Ø¨Ø§Ù„Ø­Ù„
Ø¥Ù†ØªØ§Ø¬
ÙŠØ­ÙØ¸ÙˆÙ„Ùƒ
Ø¬Ù…Ø¹ÙŠØªÙˆ
##ØªØ¹Ù„ÙŠÙ…
Ø§Ù„Ø¹Ø²ÙˆØ²
##Ø±Ø¯ÙŠ
Ù„Ù„Ø£Ø¬
202
Ø¨ÙŠØ¦
ÙˆØ§Ù„ÙØ³ÙØ§Ø·
##Ø´Ø±Ùˆ
Ø±Ùƒ
ØªØºØ³Ù„
Ø§Ù„Ø¶Ø±Ù
ÙƒØ³ÙƒØ³
##Ø§ØµÙŠÙ„
Ù†Ù‡Ø§Ø±Øª
Ø¨ÙˆØ¹ÙˆØ¯Ùƒ
Ø³Ø§Ù…Ø­
Ù„Ù„Ù…Ø³Ø§Ø¹
ØªØ®Ø±Ø¨
ÙˆØ¯Ø¨
ÙˆØ§ØºÙ„Ø¨
ØªØ¹Ø·Ùˆ
Ø§Ù„Ø¯Ù…Ø§Ø¡
Ø¹Ø¯ÙŠØª
Ø±ÙƒØ²Øª
Ø£Ø®Ø·Ø§
Ø§ÙˆØ³Ø·
Ù…Ù†Ø¯Ø³
Ø³Ø§Ø¦Ø±
##ØªØ¹Ø§ÙˆØ¯
Ø¨ÙƒØ§
ÙˆØ¨Ø±Ù‡
Ø§Ù†ÙŠØ§Ø¨
##ØªØºÙ†ÙŠ
##ØµØ§Ù
ØªØ­ÙŠÙ„Øª
Ø®ØªØ§Ù…
Ù‚Ø¨Ø±
##Ø£Ù„Ù…Ø§Ù†ÙŠ
##Ø´ØªØ§Ù‚
##Ø§Ù„Ù…Ø³Ø§ÙˆØ§
Ù…ØºØ±ÙˆØ±
ÙŠØ°Ø¨Ø­
ÙˆØ®Ø±Ø¬Øª
Ø§Ù†Øµ
##Ù…Ø¹Ø°Ø¨Ù‡
Ø¨Ø§Ù„Ø¹Ø±Ø§Ù‚
ÙŠØ§Ø²Ùˆ
Ø§Ù„Ø£Ø­Ø±
ÙŠØ³ÙˆØ¯
Ø³Ø§Ø§Ø§Ø§
Ù†Ø¹ÙŠ
ØªÙ‡Ø±Ø¯
##Ø¨Ù‡Ø°Ù‡
ÙŠØ±Ùˆ
Ø­ÙŠØ§Ø¯ÙŠ
Ù†ØµØ¯Ù‚Ùˆ
Ø§Ù„ÙƒØ§Ø¦Ù†
##Ù„Ø®
##Ø­Ø±Ø¬
Ø§Ù„Ù…ÙˆØ¬
Ø«ÙˆØ§
Ø¨Ø§Ù„Ø®
ÙŠØªØµØ¯
##ØªØ³Ø§Ø¦Ù„
Ø­ÙƒÙ…Ù†Ø§
ØµÙ„Ø§ØªÙƒ
Ù…Ø³Ø¹
Ù…ØªØ®Ø±Ø¬ÙŠ
Ù…ÙˆÙ†ØªØ§Ø¬
ÙƒØ§Ù„Ø£
##ÙØ§ÙˆØ¶
##Ø£Ù…
##Ø²Ù†Ùƒ
Ù†Ù†Ø¬Ø­
Ù„Ù…Ø¨ØªØºØ§
Ù…ÙˆÙ†ØªÙŠ
ÙˆÙ†Ø²ÙŠØ¯
Ù…ÙŠØ¯Ø®Ù„
Ø§Ù„Ø±ÙˆÙŠ
Ù„Ø®Ø·Ø±
Ø¬Ø§Ø¦Ø²
Ù‡Ø°Ùƒ
Ø£ØµÙ„Ù‡
ØªÙ†ÙØ°
ÙØ§Ù…ÙŠÙ„
Ø¨Ø§Ø¬Ø§Øª
Ù…Ø§Ø¹Ø¬Ø¨Ù†ÙŠ
Ø®ÙˆØ¶
ÙˆØ¹ÙŠØ¯Ùƒ
##Ø±ÙˆØ¯
Ø¥Ù‚Ø§Ù…
Ø§Ù„ØµØ¨
Ù‡Ø§Ø¬
Ø§Ø®ØªÙ„Ù
Ø£ÙÙˆØ§Ù‡
##Ø§Ø±ÙŠÙ†
ÙŠØ¤Ø¯
Ù…Ø³Ø§Ùƒ
Ø§Ù„Ù†Ø¯Ø§
Ø´Ø¬
ØªÙ‚Ø§Ø³
ÙˆØ²ÙŠØ§Ø¯
Ø±Ø§Ø¯
ÙˆÙ…Ø¯Ø±
Ù„Ø§Ø¨Ø³ÙŠÙ†
ØªØ³Ù„Ùƒ
Ù…Ø§ØªÙÙ‡Ù…
Ø£Ø­Ù„Ø§Ù…
Ø±Ø£ÙŠØª
##Ø¨Ø¨Ø¨Ø¨Ø¨Ø¨Ø¨Ø¨Ø¨Ø¨Ø¨
ÙˆÙ‡Ø§Ø¯Ùˆ
ØªØ¨Ù†ÙŠÙˆ
Ù„Ø¹ÙˆØ¯
Ø§Ø¹Ù„Ù†Øª
ÙˆØªÙ†Ø¬Ø­
Ø§Ù„Ø­ÙÙ„
##Ø³ØªÙˆØ¹Ø¨
Ø²Ù…
##Ø§Ù„Ù…Ø¸Ù„ÙˆÙ…
ØªØ±Ø¨ÙŠ
ÙˆÙ…Ù‚Ø±
##Ù†Ø·Ù„Ø¨
##Ø£ØµÙ„
##Ø§Ù…Ø¬Ø§Ø¯
Ø§Ù„ØªÙ†Ø³
Ø¨Ø¹Ø¨Ø§
ÙŠØ­Ù‚Ø±
##Ù†Ø¯Ø§
Ø¸Ù‡ÙˆØ±
ÙŠØ¨ÙˆØ³
Ø§Ø¨ÙŠ
Ù†Ø¨Ø¹
Ø§Ù„Ù‡Ù†Ø¯ÙŠ
Ù†ÙƒØªØ¨Ù„Ùƒ
##ØªÙˆÙ„Ù†Ø§
Ù†Ø§Ù‚Ø´
##Ø§Ù„ØªÙˆÙ†Ø³ÙŠ
Ø§Ø­Ø±Ù‚
ÙˆØ§Ù†Ø³Ø§Ù†
Ø£Ø®Ø·Ø§Ø¡
Ù…Ø³Ø§Ù
Ù†ØªÙƒÙ„Ù…
Ù…Ø§ØªÙ†Ø¬Ù…
ØªØ¨Ø±Ø¹
Ø§Ù„Ù…Ø°
Ø¬Ø§Ù†
ØªØ¹ÙŠÙŠ
Ù‚Ø§Ø¨Ù„Ù†
Ø§Ù„Ù…Ø²Ø±ÙŠ
Ø§ÙŠÙŠÙŠÙŠ
Ù„Ø£Ù…
Ù…Ø²Ù‡
Ø§Ù„Ù†Ø®Ù„
Ù‚Ù„ÙŠØ¨ÙŠ
##Ø£ÙƒÙ„
##ÙŠÙƒÙˆ
Ù…Ø­Ø³ÙˆÙ…
Ù…Ø¤Ù…Ù†
ÙƒØ§Ø¨Ùˆ
ØªØ¹Ø§Ø±ÙƒÙˆ
Ù‚Ø´
Ø§Ø®Ù„Ø§
ÙƒØ¨Ù
ÙˆÙ…Ø¯Ø±Ø¨
##Ù‚Ø§Ø¨Ø¶
Ø±Ù…
ÙˆÙ†ØµØ±
Ù‡Ø±Ù…ÙˆÙ†Ø§Øª
Ø¥ÙŠØ¬Ø§Ø¨ÙŠ
##Ø§Ø¹ØªØµØ§Ù…
##Ø¤Ø°ÙŠ
Ø¨Ø§Ø³Ù„
Ø®ØµØµ
##Ù‡Ù‡Ù‡Ù‡Ù‡Ù‡Ù‡Ù‡Ù‡Ù‡
ÙˆÙ„Ø¨Ø§Ø³
03
##Ø³Ø¨ÙˆØ¹
##ÙÙÙÙÙÙÙ
Ø§Ù„Ù…ÙŠØª
##ÙØ±Ùˆ
Ø¨ÙŠØªÙ‡
Ø§Ù„ÙÙŠÙ†
##Ø¹Ø§ÙˆØ¯
Ø§Ù„Ù…Ø³Ø¤
Ø§Ù„Ø§Ø¨Ø¯
##Ø²ÙˆØ¬ÙŠ
Ø§Ù„Ø´Ø§ÙŠØ¨
Ù„ÙˆØ«ÙŠÙ‚
Ù…Ù…Ù„Ùƒ
Ø¹Ø·Ø§ØªÙƒ
Ø¨Ø§ÙŠØ®
ÙˆØ­Ø§Ø³Ø¨
Ø´Ø§Ùƒ
##Ø§Ø¨Ø·
Ø¨Ø§Ù„Ø³Ù†
Ø§Ù„Ù…ÙˆØ²
Ø§ÙŠØ§Ù…Ùƒ
Ø§Ù„Ø®ÙˆØ§Ù…
ÙŠØ³Ø§Ù…Ø­Ùƒ
ÙˆØªØ³Ø±ÙŠ
##Ù„Ø§Ø­Ø¶
ÙØ§Ù„Ù†
##Ø¯ÙŠÙƒÙˆØ±
ØªÙˆØ­Ø¯
Ø£Ø¬ÙŠ
Ù…Ø§ÙƒÙ„
Ø­Ø³Ø¨Øª
ÙƒÙÙŠÙ„
Ø¹Ø·Ø§Ùˆ
ØªØ¬ÙŠÙˆ
##Ø§Ù‚Ùˆ
Ø§Ù„Ø­Ù†ÙŠÙ†
Ø¨Ø³Ø±Ù‚
##Ø¹Ø¬Ø¨
Ø³ÙŠØ§Ø­
##Ø¯Ø±Ø¨ÙˆÙƒ
ÙƒØ±Ø§
Ù†Ø¯Ø§
Ø§Ù„ÙˆØ­Ø¯
##Ø¯Ø¹Ù…Ùƒ
Ø§Ù„ØªÙ„Ø§
##ØªØ®Ø§Ø°
45
Ù†Ø²Ø§
Ù„ØµÙ‚
Ø²Ø§Ø¦Ù„
Ø§ÙŠØ¬Ø§Ø¨ÙŠ
Ø¯ÙŠØ¬
ÙˆØ´ÙŠØ®
Ù†Ø³Ø§Ù†Ø¯Ùˆ
Ù†Ù‚Ù„Ù‡
Ø§Ù„Ø¯Ø¨Ø§
Ø®Ø±ÙŠØª
##Ù…ØªØ·ÙˆØ¹
Ù…ÙˆØ§Ù‚ÙÙ‡
##ÙˆØ­Ùˆ
Ø´Ù‰
ØªÙ†Ø­
Ø§Ù„Ø¨Ø§Ø±Ø¯
Ø§Ù„Ø®Ù†
Ø§Ù„Ø§Ø¹ØªØ±Ø§
Ù‡Ø§Ø¯Ù
##Ù„Ø§Ù„ÙŠ
Ø§Ù„Ø®Ø·ÙˆØ©
##15
ØªÙ†ÙˆÙŠ
Ù…Ø¹Ø¨ÙŠ
ÙØ¬ÙˆØ±
##Ø¹Ø§ÙˆÙ†ÙŠ
Ø§Ù„ØªØ¹Ø¨
Ø§Ù„ØªØ±Ù…
ØªÙØ§Ø¹Ù„
ÙŠØ§ÙƒÙ„Ø¨
ØªÙ„Ø²Ù…
Ø®Ø§Ø·
##Ù…Øµ
ÙˆØ¯Ø±Ùƒ
##ØªÙØ¹ÙŠ
Ù„Ù„Ø§Ø·Ø§
##ÙƒÙˆØ²ÙŠÙ†
##Ù…Ù„Ù†Ø§
ØªØ¬Ø¯Ùˆ
##Ø§Ù„Ù…ÙƒØ´ÙˆÙ
##Ø³Ø±ÙˆØ§Ù„
##Ù…Ø¤Ø³Ø³
##ÙˆÙ‡Ø´
##Ù„Ø¨ØªØ±ÙˆÙ„
ØºÙ†ÙˆØ´
Ø§Ù„Ù…Ø³Ø±Ø­
ØªØªØ¬Ø³
Ø¬Ø±Ø§ÙŠ
ØµØ¨Ø¹Ùˆ
##Ù„Ù…Ø³
Ø§Ø´Ù‡Ø§Ø±Ø§Øª
ØªØ³Ù…Ø¹Ù‡
##ÙŠØ±Ø¬Ø¹Ù‡Ø§
Ø­ÙˆÙ„Ùƒ
##Ø§Ù„Ø¸Ù„Ù…
ÙˆÙƒÙ…Ù„
ØªÙƒØ±Ù‡Ùˆ
ÙˆØ§Ø¬Ø¨Ø§Øª
Ø§Ù„ØªØ²Ù…
Ù…ØªØ¹Ùˆ
##Ø­ÙˆØ§Ù„
##ÙˆÙˆÙˆÙˆÙˆÙˆÙˆÙˆÙˆÙˆÙˆÙˆ
Ù‚Ø§Ø¦Ø¯
ÙŠØ´Ø¹Ù„Ùˆ
##Ø®Ù„Ùˆ
ÙˆØ§Ù„Ø´Ù‡Ø±
Ø³Ø¬ÙŠÙ†
Ø±ØºØ¨
Ø³Ù…Ø­Ù„ÙŠ
##ÙˆØ§Ù†ÙŠ
##Ø­Ù…ÙŠØ±
##ÙƒÙ†Øª
ØªØ±ÙƒÙŠØ²
##Ø¨Ù„Ø¯Ùƒ
Ø§Ø­ØªØ±
Ù…Ù‚Ø¯Ø±
Ù‡Ù…Ø¬ÙŠ
ØªÙ„Ùˆ
Ø¬ÙˆÙŠÙ„
Ú¨Ø¹
Ù†Ø¯Ø¹ÙŠ
ÙŠØµÙˆØ±Ùˆ
##ØªÙˆØ§ÙÙ‚
Ù…Ø§ØªØ®Ù„ÙŠ
Ù…ÙŠÙ…
Ù†Ø¯ÙˆØ±Ùˆ
##Ø·Ù†ÙŠ
Ø®Ø§Ø±Ø¨
Ù†Ø²ÙˆÙ„
##Ø±ÙˆØ´
##Ø³Ø¦Ù„
Ù†Ø¨ÙŠØ¹Ùˆ
ØªØ´ÙƒÙŠÙ„
ÙˆÙ…Ø³Ù„Ù…ÙŠ
##Ø´Ø§ØºÙ„
ÙˆØ§Ù‡Ù„
Ø¨Ø®Øµ
##ÙŠØ¯ÙØ¹
Ø¨ÙˆØ±Ù…
Ù†Ù‚Ø±ÙŠ
ØªØ°Ø±
Ø«ÙŠÙ‚ØªÙˆ
##Ù„Ø±Ø³Ù…ÙŠ
Ø§Ø®Ø·
ÙØ¯Ø§Ø¡
ÙˆØ¬Ø±
Ø§Ù„Ù…ÙˆØ±
##ÙƒØ§Ø¡
##ØªÙÙˆ
##Ø§Ù†Ø´Ø§Ø¡
##ØºÙŠÙˆØ±
Ø£Ù…Ø¶
ØªØ¨ÙŠØ¶
Ø§Ø´Ø±ÙŠ
##Ù…ÙˆØ§Ø¯
ÙŠÙØ³Ø¯Ùˆ
##Ø¬Ø¹Ù„Ù†ÙŠ
##Ø§ÙˆÙ„
##Ø¨Ù‰
##Ø§Ù…Ù‡Ø§Øª
##Ø§Ù„Ù…Ø­Ø§Ø³Ø¨
Ø³Ø¨Ù‚ÙˆÙƒ
Ù†ØµÙŠØ±
ÙŠØ³Ø¨Ù‡
##Ø§Ù„Ø¯ÙƒØªØ§ØªÙˆØ±ÙŠ
ÙˆÙ…Ø²ÙŠØ¯
Ù„Ø¹Ø´Ø±
##ÙƒØ´Ø§Ù
##Ø§ØªÙ†ÙŠ
Ø£Ù†ÙÙ‚
##Ù‚Ø§Ù„ÙŠ
Ù†Ø­ÙŠØªÙˆ
Ù…Ø«Ù‚
Ø­Ø¬Ù…Ù‡
ÙˆØªØ³Ø¨
##Ø§Ù„ÙÙ„Ø§Ø­
##Ø±ÙØ¶
##Ù‡Ø§Ø¦Ù„
##ÙŠÙ‚ØªÙ†Ø¹
Ù„ÙŠØª
##ØªØ¹Ø·Ù„
Ø´ÙŠØ¹ÙŠ
Ø§ÙÙƒØ§Ø±Ùƒ
ÙˆØ³ÙƒØª
##ÙŠØ§Ø¶
##Ù…Ø­ØªÙˆØ§Ù‡
ÙŠÙ†Ø§
Ù…Ø´Ø§Ù‡
Ø§Ù‚Ø·Ø¹
Ø¨Ø§Ù„Ø§Ù…Ù†
Ú¨Ù„
Ø§ÙˆÙÙ‚
##ØªØ³Ø¨
ØªØ±Ø­
Ø§Ù„Ø³ÙƒÙŠÙ†
Ø­Ø´Øª
Ù…ØªÙ‚
ØªØ³ØªÙ†
Ù…Ù†Ø§Ø²Ù„
Ø®ÙˆØ§ØªØ§Øª
ÙŠØ¯Ø±Ùƒ
##Ù‡Ù†
Ø§Ù„Ø¹Ø±Ùˆ
Ø·Ø§Ø¨Ùˆ
Ø£ØµÙˆÙ„
Ø§Ù„Ø§Ù…Ø²ÙŠØºÙŠ
Ø§Ø®Ø¶Ø±
Ù…Ø­Ù„Ù‡
##ÙŠØ¨Ù„ÙŠÙƒ
##ØªØ£Ø«Ø±Øª
##Ø·Ø§Ø·
ÙƒÙÙˆØ§
Ø´ÙƒØ§Ùˆ
##Ù„Ù…ÙˆØª
##Ù„ÙˆØ¬Ù‡
Ø§Ù„ØªØ¹Ø§Ù…Ù„
Ù†Ø­Ù…Ù„
##Ù‡Ù
ØªÙ†Ù‚Ø°
Ø¯Ù‡Ù†ÙŠ
Ø§Ù„Ø¬Ø§
ÙˆØ£Ø­Ø¨
##ØªØ±Ø§Ù
ÙÙ„Ø®Ø±
Ù„ÙƒÙ†Ù‡
##Ù…Ø­Ù„Ùƒ
Ø§Ù„Ú¨
ØªÙˆÙƒ
Ø§Ù„Ø¹Ù†ØµØ±
##ÙŠØµÙŠØ±
Ù†ÙˆØ¹ÙŠØ©
##ØºÙ„ÙŠØª
Ù†Ø³Ø§Ù†Ø¯Ùƒ
Ø§Ù„Ø±Ø¬ÙˆÙ„ÙŠ
##Ø±ÙŠØ«
Ù„Ø·
ÙŠØªØ­Ø±Ø´Ùˆ
##Ù…ÙŠÙƒ
Ø§Ù„ØªØ´ÙƒÙŠ
Ù„Ù…Ø´ÙƒÙ„
Ø¬Ø§ÙŠÙƒ
ÙŠØ¹Ø¶
Ø·Ø¨Ø§Ù„
Ø§Ù„Ù…ÙƒÙŠÙ†
##ÙØ§Ø±Ù‚
##Ø´Ø¨Ø§Ù‡
ØªØªØ­Ø±Ùƒ
ÙˆØ¯ÙˆÙ„
Ø§Ù„Ø®Ø§Ø±
##Ø´Ù„
Ø´Ø§Ø¯ÙŠ
Ø¨Ù…Ø³Ø§
Ø¨Ø§Ù„Ù‡ÙŠ
##ØºØªÙƒ
##Ù„Ù…Ø³Ø§Ù†Ø¯Ø©
##ÙˆØ¬ÙŠ
##Ù„ÙƒØ´
Ø§Ù„ØºØ§Ø¯Ø±
Ø¬Ø²ÙŠØ±
ØªÙ‡Ù…Ù†ÙŠ
Ø§Ù„Ù…ØºØ²
##Ø³ØªØ·Ø¹
##Ø§Ù‚ØµØ§Ø¡
Ø£Ø¹Ø·Øª
Ù…ØªØ§Ø¨Ø¹Øª
Ø®Ù„ÙŠØªÙˆ
##Ù„Ø¬Ø§Ù…Ø¹
Ø£Ø¯Ø§Ø¦
Ø§Ù„ÙˆØ³Ø·ÙŠ
ÙˆÙ†ÙŠÙ
ÙˆØ§Ù„Ø³ÙŠØ¯
ÙŠÙÙ‡Ù…ÙˆÙƒ
Ø§Ù„Ù…ØªÙˆØ±Ø·
##ÙŠØ­Ø´Ù…Ùˆ
Ù‡Ø±ÙˆØ¨
##Ø¯Ù†Ø§Ù†
ÙƒÙ…ÙŠ
##Ù…Ø±ÙƒÙŠ
##ÙŠÙ†ÙØ¹
Ø§Ù„Ø®Ø²ÙŠ
Ù…Ù‚Ø±Ø¨
ÙƒÙ„Ù†
##Ø¨ÙƒÙ„
##Ø´Ø§ÙˆÙŠ
##Ø§Ù‡Ù„
Ù…Ø§Ø¦
##ÙƒØ§Ø³
Ø´ÙˆÙƒØª
Ø·ÙŠØ´
Ø§Ø³Ø§Ù…ÙŠ
ØªÙˆÙÙ‚Ùˆ
Ø¨Ø´Ø¹Ø±
##ÙƒØªØ³Ø­
##ÙˆØ·Ù†ÙŠ
##Ø§Ø¨Ø§Ø³
ÙˆÙØ±ÙŠ
Ø·Ù„Ø§Ù‚
Ø­Ø§Ø¨Ø³
##Ø°Ù…Ù…
Ø¬Ø¯Ø§Ø±
##ØªØ¨Ø§Ø±
##Ù‚Ù…
ÙŠÙ‡Ø§Ø¬Ù…Ùˆ
ÙØ§Ø±Ù‚
##Ø§Ù„Ø¯ÙŠÙ†Ø§Ø±
##Ø§Ù„Ø´ÙŠØ®
Ø³Ø¹Ø¯Ù‡
##Ù…Ù‚Ø§Ø·Ø¹
##ÙƒÙŠØªØ´
Ù†ÙƒÙ†
##Ø¹Ø¯ÙŠÙ†
Ù‚ØµØ¯Ùƒ
##Ù‚ÙˆØ§Ø¯
##Ø¨Ø§Ø¯
Ø§Ù„Ø£Ù…Ùˆ
##Ù„Ø¥Ø¯Ø§Ø±
##Ù„Øµ
##ÙŠØªÙ†Ø§
Ø¨Ø§Ù„Ø¨Ø·
Ø§Ù„Ø¯Ù†ÙŠ
Ù„Ø§ÙŠØ¹Ø±Ù
Ø°Ù…
Ø§Ø³ÙƒÙ†
Ø¨Ø§Ù„Ø¯
Ø¯Ø¨Ø§Ø¨
Ø§Ù„Ø®Ù„
Ù…ÙˆÙ†Ø¯
##Ø¬Ù‡Ø¯
##Ù„ÙˆØ³
ÙˆÙ„Ø§Ø¯Ùƒ
ØªØ¹Ù…Ø¯
##ÙŠØ¦Ø³
Ø¨Ø§Ù…ÙƒØ§Ù†
##Ø«Ù‚ÙŠÙ„
Ù…ØªÙ†
Ø§Ù„ØºÙŠØ¨
##Ø§Ù„Ø°Ø§Øª
Ø³ÙˆØ¯Ø§Ù†
Ù…Ø´Ù‡Ø¯
Ø³Ø§Ù‚Ø·
Ø¨Ø§Ø«
ÙŠØ¹Ù†ÙŠÙ†
Ø´Ø¬Ø§Ø¹Ø©
Ø§Ø·
##Ø§Ø¦Ø¹
##ØµÙ†Ù
##Ù„Ù‚Ø¯Ù…
Ø´Øª
##Ø®Ø¯Ø§Ù…
Ø§Ù„Ù…ØªÙ†Ù…
Ù…Ø·ÙˆÙ„
ÙŠØ®Ø¨Ù„
##ØªÙ„ÙØ²
Ø·Ø±Ø§Ø¨Ù„Ø³ÙŠ
Ø§Ù„Ù…Ø¹Ø¬Ø¨
ÙˆØ§Ù†Ø´Ø§Ù„
##ÙˆØ§ÙÙŠ
##Ø§Ù„Ø¶Ø¹ÙŠÙ
##ÙƒÙˆØ§Ø¯
##Ù…Ù‚Ø¨ÙˆÙ„
Ø§Ù„Ø³Ù„Ø·Ø§Ù†
Ø§Ù„ØªØ§
Ù„Ù„Ø§Ø®
Ù‚Ù„Ø¹
ÙƒØ´ÙØª
Ø¨Ø§Ù†Ù‡
Ø§Ù„Ø¨Ù‚Ù„
Ø±ÙƒÙˆØ¨
Ø§Ù„Ù†Ù
Ù…Ø±Ø§ØªØ¨
##Ø³Ø§Øª
Ø§Ù„ØªÙƒØª
ÙÙˆØ§Øª
Ø­Ø³Ø§Ù†
ÙˆØªØ±Ø¯Ùˆ
ÙˆØ±ÙˆØ³
Ø§Ù„ØªØ¨Ù‡
Ø³Ù„Ø¹Ù‡
ÙˆØ§Ù„Ø³Ù†
##Ø¯ÙŠÙˆ
ØªØ²ÙƒÙŠ
Ù‚Ø§Ù„ÙˆÙ‡Ø§
Ø¨Ø´Ø¹Ø¨
##Ø¨Ø¹ÙŠÙ†
Ø§Ù„Ø£Ù„ÙˆØ§
Ø§Ù„Ø£Ø¯Ùˆ
Ø§Ù„Ø¯Ø§
Ø³ÙŠØ¨Ù‚
##ÙŠÙ‚Ù„Ø¯
Ø§Ù„Ù…ÙˆÙ„Ø¯
Ø§Ù„Ø§ÙŠÙƒØ§
Ø§Ù„Ø³Ø¹Ø¯
Ù„Ø®Ù…
##Ø¯Ø´ÙˆØª
##Ø´Ø¹Ø§Ø±
Ø¬Ø§Ø§Ø§
##ÙŠØ´ÙÙŠ
##Ù„Ø¬Ù…Ø§Ù‡ÙŠØ±
Ø¨ØªØ±
##Ø£Ø¶Ø§Ù
##64
Ø§Ù‚ÙˆØ§Ù„
##Ù‡ÙŠØ¬
ØºØ§Ù†Ø§
##ÙƒÙŠØ§Ù†
Ù…ØªÙ‚ÙˆÙ„ÙŠ
Ù…Ø­Ø¨ÙŠÙ†
ØªÙ…Ø±Ø¶
##ØµÙ‚
##Ù„Ù„Ù…Ø³ØªØ¹Ù…Ø±
ÙƒØªØ§Ù†
Ø§Ù„ØªØ¬
Ù‚Ø¯Ù…ØªÙˆ
Ø¥Ø¯
##ÙˆÙƒÙ„Ùˆ
Ù…ØªØ¬
##Ù…Ø¯Ø±Ø¨
ÙˆÙØ±Ø­
Ø§Ù„Ù†Ø§Ø¹
##04
Ø¨ØµÙŠØ±Øª
Ø§Ù„Ø§Ù‚Øµ
Ø¬Ù†Ø³ÙŠØª
##Ø­Ø±Øµ
Ø§Ø³ØªÙ‚Ù„
ØªÙ‚ÙˆÙ„ÙˆÙ‡Ø§
ØªØµÙ„ÙŠ
##Ø§Ø·Ø±
Ù†Ø³ÙŠÙ†Ø§
Ø§Ù„Ù…Ù†Øª
##Ø®ØµÙˆÙ…
##ØªØ§Øª
##Ø§Ù„Ù…Ø®Ù„ÙˆÙ‚
Ø¨Ø§Ù„Ø³ÙŠ
ØºØ±Ùˆ
##Ø·ÙŠØ²
ÙˆØ®Ù„ÙŠÙˆ
ÙˆÙ†Ø´ÙˆÙ
Ù…Ø§Ø®Ø°
ÙƒÙ„Ù…ØªÙ‡
ØªØ§Ø±Ùƒ
Ù„Ù‚Ù…
ØªØ­Ø±ÙƒØ§Øª
##ØªÙ†ÙƒØ±
ÙˆØ´Ø¨ÙŠÙ‡Ø§
##Ø­Ø¸
Ø§Ù„Ø®Ø¶
Ù†ØªØ­Ø±
ÙŠØ¹Ø§ÙˆÙ†ÙˆÙ‡
Ø§Ù„Ù‡Ø¬Ù…
Ø³Ù…Ø¹Ùˆ
Ø§Ø¨Ù‚
##0000
Ø¨Ø§Ù„Ø±Ø¬ÙˆÙ„ÙŠ
ÙˆØ­ÙŠ
Ø£ÙŠØ§
##Ø¬Ù…Ùˆ
Ù…Ø§Ù†Ù‚ÙˆÙ„
Ø¯Ø§Ø¡Ù…
Ø§Ø¬Ù…Ø§Ù„
ØªÙˆØ¬Ù‡Ø§Øª
Ù…Ø§Ø¯ÙŠØ±
##Ø­Ø¶Ø±
##Ø§ÙÙ‡
Ù„Ø¯Ø§Ø±
Ø§Ø±Ø§Ø¯Øª
##Ø¹Ù„Ù…Ø§Ø¡
Ù„Ø¹Ø§Ø¦Ù„
ØªØ­Ø´Ø§Ù„Ùƒ
Ù…Ø¹Ù…Ù„Øª
Ù‡ÙˆÙ†
Ù„Ù„ÙˆØ­Ø¯
ÙˆØ§Ù„ÙŠØ§Ø¨
Ø¨Ø§Ù„Ø¨Ø±
Ù‚Ù…Ø¹
Ø§Ù„Ø³ØªÙŠÙ„
##Ø­Ø¶ÙˆØ±Ùƒ
##Ø¨Ø²
Ø¹Ù‚Ø¯Øª
Ù…Ø·Ù„Ø¹
Ø§Ù„Ù†Ø§Ø·Ù‚
Ø¨Ù†Ø²Ù„
Ù†Ø­ÙŠÙŠ
Ø§Ù„Ø¯Ù†
Ù…Ø³Ø¤ÙˆÙ„ÙŠØª
Ø§Ù„ÙƒØ§ÙØ±
ÙØ±Ø§Ø´
Ù†ØªÙ…
##Ø±Ø¯Ù†Ø§
ÙˆØµÙ„ØªÙ„Ù‡
Ø¨Ù†Ø¯ÙŠØ±
Ø§Ù„Ø¯ÙŠÙƒ
Ø®Ø¶Ø±
ÙŠØ§ØªÙˆØ§Ù†Ø³
Ø£Ø³Ø¯
Ø´Ø¹Ø±Ø§Øª
##ÙŠØ¯ÙŠÙ†
ÙˆØ³ÙŠØ§Ø³ÙŠ
Ù…ØªØ­Ø´Ù…
Ø¨Ø­Ù„
Ø¨Ù
##ØªØªÙØ±Ø¬Ùˆ
ÙŠØ®Ù„ÙˆÙ‡
Ø§Ù„Ø¨ÙˆØ³
##Ø±Ø£Ø³
ÙŠØ­Ù…
##ÙØ°
Ø­Ø³ÙŠ
##Ø´Ø¹ÙˆØ±
ÙˆØ±Ø¤
##Ø§Ù‚Ù„
Ø®Ø§Ù„Ù
ÙˆØ¥Ø­
ÙˆØ§Ù„ØªÙˆØ§Ù†Ø³
##Ø§Ù„ØªÙ…Ø«ÙŠÙ„
##Ø­Ø³ÙŠØª
Ø§ØªØ§Ø¬Ø±
Ø§Ù‚Øª
##Ø¶Ø±Ø§Ø±
##Ø¹Ù‚Ø¯
##ØªØ§Ø±ÙŠØ®
##ØªØ¬ÙŠ
##Ù„Ø³Ù…Ø±
Ø§Ù„Ù…Ø¬Ø§Ù†ÙŠ
Ø§Ø®ØªØ§Ø±Ùˆ
##Ø³Ø¯ÙŠÙ…
ÙØ±ÙŠÙ‚Ù‡
##ØªØªÙƒ
##ÙˆØµÙ„Øª
Ø§Ù„Ø¹ÙŠØ§Ø±
##Ø¯Ø§Ø¹
Ø­ÙŠØ±Øª
##Ø±Ø§ÙˆÙŠ
ÙŠØ®ÙŠØ¨
Ø¨ÙƒØª
Ù„Ù†Ù‚
ØªØªÙ…ØªØ¹
ÙÙƒØ±Ùˆ
##Ù€Ù€Ù€Ù€Ù€Ù€Ù€Ù€
Ø¯Ø§ÙŠÙˆ
##Ø§Ø¹Ø¯
Ø§Ø³ØªÙ†Ùƒ
Ø­Ø§Ø³Ø¯
ÙˆØ³Ù‡Ù„
ØªØ¯Ø®Ù„Ø§Øª
Ø§Ù…Ø§Ø§Ø§Ø§
ÙˆÙŠØªÙˆ
Ø£Ø­Ø¨Ø¨
ÙˆØ§Ù„Ø®Ø·
Ø¹Ø¯Ù„
ÙŠØ±ÙØ¹Ù‡
Ù†Ø­ØªØ±Ù…ÙˆÙ‡
ÙŠØ®Ø±Ø¨
##Ø¥Ø®ÙˆØ§Ù†
Ø­Ø¨ÙŠØ¨Ù‡
Ø§Ù„ØªØ¬Ø§Ø±ÙŠ
Ù…Ø§Ù†Ø§
##Ù…Ù…Ø«Ù„
ÙˆØ´Ø±Ø§Ø¡
Ø­ÙØ¶Øª
Ù„ÙŠØ²
Ø§Ù„Ø¬Ø²
##Ù„Ù…Ø®ØªÙ„Ù
ØªØ®Ù„ÙŠÙ‡
Ù„ÙŠÙ‡ÙˆØ¯
##Ú¨Ù„ÙˆØ¨
ØªØªØ¹Ù„Ù…Ùˆ
Ø§Ø¨Ø¯Ø£
Ù…ØµÙ„Ø­ØªÙˆ
##ÙƒÙˆØ§
Ø§ÙˆÙ„Ø§Ø¯Ù‡
ÙˆØ¶Ø¹Øª
##Ø¢Ø´
Ø­ÙƒÙˆÙ…ØªÙ‡
Ø³Ù†Ùƒ
Ø£Ù‚Ø¹Ø¯
Ø§Ù„ØªÙØ±ÙŠ
Ø§Ù„Ù†ÙˆØ¨
##Ø§Ù„Ù…Ø¹Ø±ÙˆÙ
Ù„Ù„Ø¬Ù…ÙŠ
Ù„Ø§Øª
Ø¨Ø¯ÙˆØ±Ù‡
##Ø§Ù„Ø¥Ø±Ù‡Ø§Ø¨
##ÙÙ„Ø­
ÙŠØªÙˆÙ„Ø§Ùƒ
ØªØªØºÙ†
##Ù…Ø«Ù„Ø§
##Ù…Ø­Ø¨ÙŠÙ†
##Ù…Ù‚
Ø¨Ø±Ù†
ÙŠØ¹Ø±ÙÙˆÙƒ
Ù‡Ø¯ÙÙƒ
ÙŠÙˆØ±ÙŠ
##Ù‚Ø±Ø¶
Ø§Ù„Ø³ÙŠØ§Ø¯Ø©
##Ø´ØºØ§Ù„
ÙØ²Øª
##Ù…Ø´ØªØ±ÙƒÙŠÙ†
ÙƒÙˆÙ…Ù†Øª
Ù…Ø´Ø®
##Ø§Ù„Ø¯ÙŠÙ…Ù‚Ø±Ø§Ø·ÙŠ
ÙˆÙŠÙ‚ÙˆÙŠ
##Ø±Ø¬ÙŠÙ…
ÙŠØ­Ø¶Ø±Ùˆ
##Ø²Ø§Ø¦Ø±
Ø§Ù„Ø·Ø¨ÙŠØ¹
ÙˆØ´ÙŠ
ÙˆØªØ¹Ø§Ù„
Ø§Ù„Ø¬Ø§Ù†Ø¨
ÙˆØªØ­Ø·
##Ù†Ø§Ù
ÙˆØµØ§Ù„Ø­
##Ù‡Ø±ÙˆØ¨
##ÙŠÙ‡Ù„Ùƒ
Ø²ÙˆØ±
ÙˆØ­Ù„Øª
##Ø¯Ø§Ø¦Ùƒ
##ØµØ¯Ù‚Ø§Øª
ÙŠÙ‚Ø¨Ù„ÙˆÙ†
##Ù…Ø¹Ø¸Ù…
ÙˆØ®Ù…Ø³
ÙˆØ§Ù„Ø­ÙƒÙ…
##ØªØµØ±
##ÙŠØ§Ø­
ÙˆÙ„Ù„
##Ø·Ø±Ø¯
##Ø§Ù†Ø¬Ø§Ø²
ÙˆØ§Ù„Ù„ÙŠØ¨ÙŠ
Ø§Ù„ØªØ·Ø¨ÙŠ
ÙˆØ¨Ùˆ
##Ù„Ù…Ø´
##Ø³Ø·ÙˆØ±
ÙˆÙ…Ø­Ø¨
ÙŠØ¹ØªØ¯
##Ø³ØªÙØ²
ØªØºØ·ÙŠ
Ù†ÙˆØ±ÙŠ
##Ù„Ø­Ø§Ø³Ø©
##Ø§Ù„Ø§Ø³ØªØ¨Ø¯Ø§Ø¯
##ØªÙ†Ø¯Ù…ÙˆÙ†
##Ù…Ø§Ù†Ø¹
Ø§ÙƒÙŠ
##Ù„ÙŠØª
ØªÙ„Ù‡
ÙˆÙŠØ¯Ø¹Ùˆ
Ø§Ø¹Ø·Ø§
##Ù„Ø³Ù†Ø§
##Ù„Ø¹Ù‚Ø§Ø±
ÙŠÙ‚Ø§Ø±
##Ø°ÙˆØ¨
##ÙŠØ±ÙØ¹
##Ø¦Ù„
ØµÙ„Ùˆ
ÙˆØ§Ù„Ø¶
##ÙˆØ³Ø¹Øª
Ù…Ù‡ÙŠ
##Ù…Ø±Ø§Ø³Ù„
Ø§Ù„Ø¬ÙˆØ§
##ÙˆØ­Ø¯Ù‡
Ø§Ù„ÙƒØªØ¨
##Ù‚Ø¹Ø¯
ØªÙˆÙ
##Ø±Ø§ÙŠ
Ø§Ø­ÙŠØ§Ø¡
##ÙŠØ­Ø±Ù‚
##Ø³Ù†Ø·ÙŠ
##Ø¨Ø±Ø§
##Ù…Ø§Ø±Ø©
##ØªØ­Ø¨
Ø§Ù„Ù…Ø¹ØªÙ…Ø¯ÙŠ
##Ø§ÙØªÙ‡Ù…
##ØºÙ…Ø¶
Ø¨Ø¯Ø§ÙŠØª
##Ù…Ø³Ø¬Ø¯
Ø«ÙˆØ±ØªÙ‡
##Ø¹Ø§Ø¦Ù„ØªÙ‡
Ø­ÙØ±
ØªØ£Ùƒ
Ø§Ù„Ø¯ÙˆØ±Ø©
ÙˆÙ‚ÙˆÙ„Ùˆ
##Ø¯ÙˆÙ„
Ø§Ù„Ù‚Ù†Ø§Ø¹
ÙŠÙ†ÙØ¹Ùˆ
##ÙŠÙƒÙŠ
Ø§Ù„ØµØ±
Ù†Ø³ÙŠØ¨
##ØºÙ„Ø·ÙˆÙƒ
##Ø·ÙŠØ±Ùˆ
ÙˆØ§Ù„Ø¥Ø³Ù„Ø§Ù…
ØªØ¬Ø¹Ù„Ùˆ
##Ù„ØªÙˆØ§
##ÙØªØ±Ø§Ø¶ÙŠ
##Ø¹Ø±Ø§Ø¨
ÙˆÙ…Ù…Ø§
ÙŠØ±Ø¨Ø­Ùƒ
ÙØ¶
Ø§Ù„ØªÙˆØ§Ø¨
##Ø²Ù†Ø§
##Ø«ÙˆÙ…
##ÙˆØµÙŠÙƒ
Ø±Ø­ÙŠÙ…
Ù…ÙƒÙ
Ù„Ù„Ø¹Ø±Ø¨ÙŠ
##Ø¥Ø­ØªØ±Ø§Ù…Ø§Øª
##Ø¹Ø±Ùƒ
Ø¨ØªÙˆØ¨
Ø³Ø¬
ÙˆÙ„Ù‚ÙŠØªÙ‡
ÙƒÙ„Ø§ÙˆÙ‡
ÙˆÙƒØ±Ø§Ù…
Ø§Ù„Ø§Ø¨ÙŠ
##Ø®ÙÙ
Ø§Ù„Ø£Ø¯Ù†
ÙˆØµØ§
Ø§Ù„ÙƒØ±ÙˆÙ†
Ø¥Ø¹Ù„Ø§Ù…ÙŠ
ÙŠØ±Ø²
Ø¨Ø§Ù„ØªÙ†
Ø§Ù„Ù…Ù‚Ø¨Ùˆ
##Ø·ÙŠÙ„
ØªØªØ±ÙƒÙˆ
Ø§ÙØ±Ù‚
ØªÙÙƒØ±Øª
##Ø§Ø§Øº
##Ø±Ø¶ÙˆÙ†
ÙˆÙŠØ­
Ù…Ù‚Ø¨ÙˆÙ„Ø§
Ù…Ø§Ù
##ØªØ§Ø±
ØªØªÙ‚Ùˆ
Ø®ÙÙŠ
##Ø¨Ø³Ùˆ
##Ø§Ù„ÙØ¹Ù„
##ÙŠØºÙ„Ø·
ØªÙ‡Ø±Ø¨Ùˆ
##ÙŠØ²Ø¯Ø§Ø¯
Ø¨Ø±Ø§Ø¬Ù„
ÙˆØ§Ø¨Ø¯
Ø§Ù„Ø§Ø·
##Ø§Ø·ÙŠÙ„
ÙˆØ¥Ø°
Ø§Ø¯ÙˆÙ…
Ø§Ù„ÙƒÙŠÙƒ
Ø§Ø®Ø±ÙŠ
Ù…ÙˆØ§Ø¯
ÙˆÙƒÙ†Øª
Ø£Ù‚ÙˆØ§
##Ø­ÙÙŠØ§Ù†
ÙˆØ¬ÙˆØ¯Ù‡
##ÙƒØ§Ù„ÙŠ
Ø§Ù„ÙˆØ¬Ø¹
##Ø¹ÙØ±
##Ø§Ù†Ù†Ø§
ØªØ¸Ù„
Ø±Ø¬ÙˆÙ„
##ØªØ¹Ø³
##Ù†Ù‚ÙˆÙ„
Ø±Ø¨Ù‡
ØªØªØ³Ø¨
Ø¶Ø­Ø§ÙŠØ§Ù‡
##Ø§ØºÙØ±
##ÙˆÙ†Ø¯Ø§Ù…
Ø¨Ø·Ø¨ÙŠØ¹ØªÙƒÙ…
Ù…Ø¯Ø®Ù„
##Ù‚ÙˆÙ„Ù‡Ø§
##Ø³ÙŠØ¤
Ù†ÙƒØªÙˆÙ‡
##Ø§Ù„ØµÙˆØª
##Ø±Ø¨Ø­Ù†Ø§
##Ø­Ø¯Ø«Øª
##Ø§Ù„Ù…Ø¬Ù…ÙˆØ¹
##ØªØ²ÙƒÙŠ
ÙŠÙ…Ø³Ùˆ
Ø¯ÙˆØ§Ø±
##Ù…Ø®ÙŠ
Ø¨Ø±Ø¬ÙˆÙ„
##Ù…ØªÙÙˆÙ‚
Ø³Ø§Ù†Ø¯
Ù…Ø¹Ù†ÙˆÙŠØ§Øª
##Ø§Ù…Ø³Ø·
##Ù„Ø§Ø¦Ù…
Ø§Ø¨ÙˆÙ†Ø§
Ø£Ø³Ø³
ÙŠØ­Ø·Ù…Ùˆ
Ø³Ø§Ù
Ø£Ø¹ÙŠÙ†
ØªØ³ÙˆÙ‚Ùˆ
ÙƒØ§Ø¯Ùˆ
ÙˆØ£Ø­
Ù‡Ø§ØªÙÙŠ
##ØªØ²ÙŠ
ÙŠØ§Ø§Ø§Ø§Ø§Ø§
Ø·Ø§Ù‚
ÙŠØ³ØªØ·
##Ø§Ù„Ø¬Ù†ÙˆØ¨
##Ù…Ø²Ø§Ù„Øª
Ø¹Ø§Ø§Ø¯
Ø³Ù„Ø·Øª
ÙŠØ¶Ù…Ù†Ù„
##Ù†Ø³Ø­Ø¨
Ø¨Ø§Ø­Ø±
##Ø­Ø¨Ù‡Ø§
Ø®Ø¨
Ø§Ù„Ù…Ø¹Ù†
##ÙˆØªÙŠ
##Ø§Ù„Ø­Ø§Ù„
##Ø³ØªØ³Ù„Ù…
ÙˆÙˆÙ‚ÙÙˆ
Ù†Ø³Ù„Ù…
Ø®Ø±Ø§Ø¨
ÙˆØ§Ù„Ø¹Øª
Ø¬Ø¹Ù„Ù‡
##Ù…ØµÙŠØ±
##Ù†ØªÙˆ
##08
##ÛŒØ§
Ù†Ø§Ø³ÙŠ
ÙˆØªÙ‚Ø¯Ù…
##Ø®Ø§Ù„Ø·
ÙŠÙÙƒÙˆ
ÙŠØ´Ø±
##Ø¥Ø±Ø§Ø¯
Ø§Ø­ØªØ±Ø§Ù…Ø§
Ù†Ø­Ø³Ø¯
##ÙˆØ²Ø§Ø±
Ø¹Ù„Ù…ÙˆÙ‡
Ø£Ø®ÙˆØª
##ÙˆÙÙ‚
Ø¨Ø§Ø¹ØªØ¨Ø§Ø±Ù‡
ÙˆØ³ÙŠØ¨Ùˆ
Ù„ØªØ±
##ÙŠØ¹Ù†ÙŠ
ÙˆÙŠÙƒÙ
##Ú¨Ù…
##ØµØ§ÙÙŠ
ÙŠØªÙŠÙ…
Ø§Ù„Ù…Ù‚Ø§Ù„
ØªØ±ÙˆÙŠ
ÙŠÙ„Ø¨Ø³Ùˆ
Ø§Ù„Ø¥Ø¨Øª
Ø¥Ø´Ø±
Ø¨Ø§Ù„ØªÙˆ
Ø§Ù„Ø³ÙˆØ§
Ù…ØµÙ„Ø­Øª
ÙÙ†Ø­
Ø¨Ø§Ù„ØªÙˆÙ
##Ù…Ø¹Ø±ÙˆÙ
Ø§Ù„Ù„Ù
Ø¨Ù‚Ø§
Ø§Ù„Ø£Ø±
Ø£Ø®ÙˆØ§Øª
##Ù„ØªÙˆÙ†Ø³
Ù†ØªØµØ¯
Ø³ÙŠØ§Ø±Ø§Øª
##ØªÙ‡Ø²
##Ø£ÙŠÙ†
ØµØ¹
##Ø§Ù„Ø®Ø·Ø§Ø¨
Ù…ÙˆØ§ÙÙ‚Ø§Ù‡
Ø¯ÙˆØ±Ù‡
Ø§Ù„Ø¨Ø­Ø±ÙŠÙ†
Ø¨Ù„Ù‡Ø¬Øª
ÙˆØ§Ù„Ø¹Ø±ÙŠ
ÙŠÙ…Ø§Ø±Ø³
##ÙƒÙ†Ù‡
Ø£Ø¬Ù…Ø¹
Ø§Ø³ØªØ¹Ù…Ø§Ø±ÙŠ
ÙŠØ¤
ÙŠÙ‡Ø¨Ø·Ùˆ
ØªØ¹ÙŠØ¨
Ù…ÙØ±Ùˆ
Ø§Ø¹Ø·ÙŠÙˆÙ†
##Ù„Ù…Ø¤ØªÙ…Ø±
ØªÙØ³
ÙŠÙ‡Ù…Ø´
ÙˆØ®Ù„Ù‚
##Ù„Ø£Ø´Ù‚Ø§Ø¡
##Ø³ÙˆØ¯
##Ø¨Ø¯ÙŠ
##Ø­Ù…Ø§Ù‚
Ø¨Ø§Ù†Ùƒ
Ù‚ØªÙ„ÙˆÙ†
Ø­Ø¨Ø§
##Ù…Ø§Ø±Ùƒ
Ø§Ù„Ø´Ø¹Ø¨ÙŠ
##Ø§Ù…Ø±
##Ø¥Ø¬Ø±Ø§Ø¡
##Ù†Ù‡Ø¨
##Ù‡ÙŠØ§
ÙŠÙ‡Ø¯Ø±Ùˆ
##Ø§Ù„Ø¨Ø´Ø±
Ø£Ø´Ù†Ùˆ
Ø§Ù„Ú¨Øµ
Ù…ÙŠÙƒ
Ø§Ù„ØªØ±Ù‡
Ù…Ø§ÙŠØ­
Ø¹ÙŠØ´Ùˆ
ØªØ¹Ù„Ù…Ù†Ø§
ÙˆØ¹Ø´Ù‚
##Ø¥ØµÙ„Ø§Ø­
Ø®Ø§Ø¨
Ù†Ù…Ùˆ
ÙŠÙˆÙ„
Ù†ÙˆÙ„Ùˆ
##ØªÙ…ÙˆÙ‡
ÙŠÙØªØ­Ùˆ
Ø®Ø±Ù…
Ø§Ù†Ø¶
Ø¨Ø±Ø§Ù…Ø¬Ùƒ
Ù†Ø­ÙƒÙ…
##Ø§Ø·Ø¤
Ø§Ù„Ù†Ø³
##ØªØ¹Ù‡Ø¯
##Ø³Ø·Ùƒ
Ù†Ù…ÙŠ
Ø¬Øª
ÙØ¯Ø¹
Ù†Ø³Ø§Ø¦
Ø§Ù„Ù…ÙˆØ§Ø¬Ù‡
##Ø±ÙŠÙŠÙ†
Ø¨Ø§Ù„Ø¬Ø§Ù…
Ø§ÙˆÙØ±
##Ù†ÙƒØ±Ù‡Ùƒ
ØªÙØ¹Ù„
##Ø²Ù‡
##Ø¥ÙŠØ¬Ø§
Ø£Ø¹Ù…Ø§Ù„Ùƒ
Ø§Ù„Ø¢Ù„Ø§
Ø´ÙŠÙŠÙŠ
##Ù‚ØµÙ
ÙˆØ§Ø®ÙŠØ±
ØªØ­Ø¬ÙŠ
Ø§Ù„ÙˆØ§
Ø§Ù„Ù…ØªØ±Ø¨
Ù„Ù‡Ø¬Øª
Ù…Ù‚Ø¨Ù„
ØªØ¹Ø·ÙŠÙƒ
##Ø³ÙˆÙ‚
##Ù†Ø¹Ù…Ù„
Ø§Ù…Ø³
ÙˆØ²Ù‡
##ÙŠØ®Ø¯Ù…
##Ø´Ø£
ØªÙ‚ÙˆÙŠ
##Ù…ØªÙƒØ¨Ø±
##Ø§Ù‚Øµ
ØªØ±Ø¬
Ø§Ù‡Ø§Ù„ÙŠ
##Ù…Ø¶
Ø±ÙŠÙ…
##ÙÙ‚Ø¯
##Ø­ÙŠÙˆØ§Ù†
Ù…ÙÙ‡Ù…Ùˆ
Ø§Ø¨Øª
Ø§Ù„Ø³Ø®
Ø¨Ø£Ø¨
ØªØ­Ù„Ùˆ
##Ø²ÙƒÙ…
##ÙƒÙ„Ø§Ø´
##Ø§Ù„Ø·ÙÙ„
Ø§Ù„ØºÙˆØº
Ù„ÙˆØ¬ÙŠ
ÙˆÙ„Ø¯ÙŠÙƒ
##ÙŠÙ…ÙŠÙ†
##Ø¨ØµÙŠØ±
Ø§Ù…Ù„Ù†Ø§
Ù…Ø§ØªØªÙ…Ù†
##Ø´ÙˆÙˆÙ
Ø§Ù„Ø´Ù‡Ø§
Ø§Ù„Ù…ÙˆØ§Ø·Ù†ÙŠ
Ø§Ù„Ø³Ù†Ùˆ
##ØªÙ‚
##ØªØ¨Ùƒ
ÙˆÙŠØ¬Ùˆ
##Ø´ØªØ±Ø·
##Ø³Ù„Ø§Ù…Ù‡
Ù‚Ø¶
ÙˆÙŠÙ„Ø²Ù…
ÙŠØ´Ø±ÙÙ†
##Ù‚Ø§Ø±Ø¨
##Ø¬Ø³ÙŠÙ…
##Ø­Ø³Ø³Øª
ÙŠØ¬Ø±Ø¨
##ÙŠÙ…Ø§
ÙˆØ§Ù„Ø­Ø¯
Ø¨ÙŠØ§Ø¹
##Ù†Ø¯ÙŠØ±
##Ø¬ÙˆÙ†
##ØºÙ†
Ø§Ù„Ù…Ø²
ÙˆØ¶
ÙƒØ±Ø§Ù…Øª
ÙˆØªØ¹Ø±ÙÙˆ
##Ø³ÙŠØªÙŠ
##Ø±Ù‚ÙŠØ¨
Ù„Ù„Ù…Ø¸
Ù…Ø·Ù„ÙˆØ¨
ÙˆØ§Ù„Øµ
##Ø¹Ø·ÙŠ
Ø±Ø¬ÙˆÙ„ÙŠ
ØªÙ‡Ø¨Ø·Ùˆ
##ÙÙˆÙ
##Ø§Ø¬Ø±
ÙˆØªØªÙƒÙ„Ù…
##Ø¨Ø§Ø±ØªÙŠ
ØªØ¹Ø·ÙŠÙ†
##ØºØ§Ø²
Ø·Ø§ÙŠ
Ù…Ø­ÙƒÙ…
##ÙƒØ³Ùˆ
ÙŠÙ†Ø³Ø§
##Ø·ÙŠØ¹
Ù„Ù„Ø·
Ø¨Ù„Ù‚
ÙŠØ³Ø§Ø±ÙŠ
##Ø±Ø§Ø§Ø§Ø§Ø¬
Ø­Ø´Ø±
Ù„Ø«ÙˆØ±
##Ø§Ø§Ø§Ø¹
##Ø§Ø§Ø§Ø§Ø§Ø§Ø§Ø§Ø§Ø§Ø§Ø§
Ø§Ù†ÙˆØ§
ØªØ¹Ù„
##ØµØ±Ø§Ø±
Ø­Ø¨Ø³Øª
##Ø³Ù…ÙŠ
ÙŠÙÙ‡Ù…Ùƒ
##Ø³Ø¨Øª
##Ø´Ù‡Ø§Ø±
ÙˆÙ†ÙˆØ¹
Ù…Ø§ØªØ¬ÙŠ
##Ù…Ø¬ÙŠØ¯
ÙˆØ§Ù„Ø²ÙˆØ§
##ÙˆØ±ØªÙ†Ø§
##ÙÙŠÙ†Ø§
##ÙˆØ¨Ø±
##Ø§Ù„Ø±ÙŠØ§Ø­
Ø§Ù„Ø¯ÙˆØ¯
ÙˆØ´Ø­Ø§Ù„
##Ø¨Ø¯Ø§
Ø¹ÙŠÙ†ÙŠÙ†Ø§
ÙˆØ±Ø¬Ùˆ
##Ù‡ÙˆÙ…
##ØªÙ„Ùˆ
##Ø«Ø§Ù‚
##Ø®Ø³
Ø§ØªØ®Ø°
Ø±Ù‡Ùˆ
Ø­Ù
Ù„ÙÙ†
Ø®Ø·Ø§Ùƒ
##ØªØ®ÙØ§Ù
ÙŠØ´Ø¨Ù‡Ùˆ
Ø§ÙƒÙˆ
Ø§Ø·ÙŠØ±
ØªÙ„Ù…Ø³
Ø±Ø£ÙŠØªÙ‡
Ø¨ÙØ¹Ù„
ÙˆØ³ÙŠØ¨Ù‚
ØªÙÙˆÙˆÙˆÙˆÙˆÙˆÙˆÙˆÙˆÙˆÙˆÙˆÙˆ
##ÙƒØº
ÙØ±ØµØª
ÙˆØ¹ÙŠÙ†ÙŠ
##ÙˆÙ„ÙƒÙ…
Ù†Ø´Ø¨Ø¹
Ù…Ø­Ø´Ù…
ÙˆÙ„Ø§ÙŠÙƒ
##Ø±Ø¨Ø§Ø¡
##ØªØ¬Ø§Ø±Ø¨
Ø§Ù„Ø¥Ø±Ù‡Ø§Ø¨ÙŠ
Ø¯Ø±ÙŠ
Ø±Ø§Øµ
Ø¨Ø­Ùˆ
##Ø·Ùƒ
ØªØªØ±Ø¨
##Ø§Ù„Ø°ÙŠ
##Ø§Ù„Ø¯Ø³ØªÙˆØ±
Ø§ØªØ´Ø¯
##Ø§Ù„Ø£ÙŠØ§Ù…
Ø§Ù„Ù…Ø­Ø¬Ùˆ
##ØªØ±Ø¬Ø¹
Ø§ØªÙÙˆÙˆÙˆÙˆÙˆÙˆÙˆÙˆ
Ø®Ø·Ø§
##Ø¹Ø±ÙŠØ§Ù†
ÙŠØ³ØªØ§Ù‡Ù„Ùˆ
##Ø¹Ø±ÙØª
Ø¯Ø®ÙˆÙ„Ùƒ
Ø§Ù„ØµÙŠØ§
Ø§Ù„Ø´ÙˆØ§
##Ø§Ù„Ù…ÙØ³Ø¯
Ù†Ø´Ø¬Ø¹
ØªØ±ÙˆØ­Ùˆ
ØªØ®Ø·
Ø±Ø²
Ø§Ù„Ù…Ù„Ø§
Ù„Ù…Ø«Ù„
##Ø§Ù„ØªØ¹Ø¨
ÙˆØ§Ù„Ø¬ÙŠ
ÙˆØ¯ÙŠ
##Ù‚Ù‚
Ù…Ù‡Ù†
ÙØ¨Ø¯
##Ø§Ù„Ø£Ù…Ø§Ù†
Ø§Ù„Ø§Ø³Ø§Ø³
##Ø¹ÙŠÙˆÙ†
Ø§Ù„Ø²ÙˆØ¬Ø©
Ø¯Ø§Ø¨Ø§
Ø§Ù…Ù†Ø¹Ùˆ
ÙˆØ¬ÙˆØ¨
ÙˆØªÙ„Ù‡
##ÙˆØ¨ÙŠÙ†
Ø­Ø·Ù…Øª
Ø¨Ù„ÙŠØ²Ø²
ÙƒÙˆØ§
Ø¨Ø±Ø¬ÙˆÙ„ÙŠØ§
##Ø§Ù„ÙˆØ·Ù†ÙŠ
Ø§Ù„Ù…Ø­ÙŠ
Ø§Ù„ÙƒÙŠØ±Ø§
ØªØ§ÙƒÙ„ÙŠ
Ø¥Ù†ØªØ®Ø§Ø¨
##Ø±ÙˆØ¨Ø§
Ù‚Ø¯Ø§
##Ù…Ø¤ØªÙ…Ø±
##Ù„ÙˆÙ‡Ø§
##ØªØªÙ…Ù†ÙŠÙƒ
ÙŠÙ‚ÙˆÙ…Ùˆ
##Ø£Ø±Ø¶
##Ø§Ù„Ø¹Ù‚Ù„ÙŠØ©
##Ù†Ø¨ÙŠ
Ø­Ù…Ù‚
##Ø§Ù„ÙØ§Ø­Ø´
Ø§Ù„Ù…Ø¶Ù„
ÙˆØªØ¨Ù‚
##Ù†Ø¨Ø§Ø­
ÙˆÙ‡Ø²
ÙˆÙØ²
Ù„Ù„Ù…Ø±
Ø§Ù„Ø²Ø¨
Ø­Ø±Ù‚ØªÙ„
Ø¬Ø¨Ø¯Ù„
##Ø¨Ø¯Ù„Øª
Ù‚Ø§Ù„Ù‡Ù…
Ø§Ø¨Ù‡Ø±
Ø§Ù„Ø®ÙŠØ§
##ØªÙ„
Ø§ÙÙ„Ø§
##Ù†Ø¬ÙŠ
Ø®ØªÙƒ
ÙˆØ­ØªØ§
Ø§Ø²Ø§
##Ø±Ø§Ø¨ÙˆØ±
Ø§ÙˆØ³
Ù…Ø³Ø­Ùˆ
##Ø§Ø¯Ø§Øª
##ØºÙŠØ¶
##ØªØ³Ø§Ù…
Ù„ÙˆÙ‚Øª
ÙŠØ¹Ù„Ù…Ùˆ
##Ù„Ø¨Ø·ÙˆÙ„
ØªØ´ÙˆÙŠ
Ø®Ø¯Ù…Ø§Øª
ÙŠÙ‚ØªÙ„Ùˆ
Ø§Ù†ØªØ¸Ø±Ùˆ
Ù„Ø´Ø¯
##Ø±Ø¯Ø§Ù†
ÙˆØ­Ø±Ù…
ÙŠØ®Ù…
##ÙØ¬Ø±
##Ù‚ØªÙ„Ùˆ
##Ø¸Ø§
Ø¹Ù…Ù„Ù‡
##Ø§Ù‚ØªØ±Ø§Ø¨
ÙˆØ§Ø¹Ø·
##Ø¨ÙˆØ±Ù‚ÙŠØ¨
ÙŠØ¬Ø¨Ø±
ØµÙ†Ø¹Ùˆ
##Ø³Ù‚ÙˆØ·
##ÛŒÙ†
##Ø­Ù‚Ù‡Ø§
ØªÙ†Ø³Ø¨
##ØªÙ‚Ø¯
##Ø¯Ø§Ø±Ø¬
##Ø¹Ø²ÙˆØ²
##ÙŠØ®Ù„ÙŠÙƒ
Ù…Ø®Ø±Ø¬
Ø³Ø¯Ùˆ
ÙŠÙ‚Øª
Ø§Ù„Ù…ØµØ±
##Ø¹Ø°Ø±
##Ø§Ù†ØªÙ‡Ø§Ø²ÙŠ
##Ù…Ù„Ø§
Ø­ÙÙ†
Ø­Ø·Ù…ØªÙ†
Ø§Ø­Ù„Ù…
##Ù†Ø§Ù†ÙŠ
Ø£Ø¨ÙŠ
##ÙƒØ§Ùƒ
##Ø­Ø±Ù…
Ù„Ø­Ø±Ø§
Ø®Ù…Ø¬Øª
Ø­Ø¬Ù…
##Ø¹Ù‚Ù„
ÙŠØ¨Ø§Ù†Ùˆ
Ø§Ù„Ø¸
Ø¥Ø´Ø±Ø§
Ø´Ù‡Ø±Øª
##ÙˆÙ…Ùˆ
##Ø§Ù…ÙƒØ§Ù†ÙŠØ§Øª
Ø¨Ø§Ù„Ù‚Ø±
Ù…Ø¹Ø¶
Ø§Ù„Ø´Øº
Ø§Ù„Ø¹Ù‚ÙˆØ¨
##Ù€Ù€Ù€Ù€Ù€Ù€Ù€Ù€Ù€Ù€Ù€Ù€
##Ø¯ÙŠÙ…Ù‚Ø±Ø§Ø·ÙŠ
Ø§Ù„ÙƒØ±Ù‡
Ø³ØªÙŠÙ„Ùˆ
Ù…Ø¹Ø¬Ø¨Ù‡Ø§
##Ø¹ÙŠØ§Ø¯
Ù„Ù‚ÙŠÙ†Ø§
ÙŠØ¯Ù‡
Ø§Ø±ØªØ¨Ø§
ÙŠÙˆÙÙ‚Ù‡
##Ù„Ø§ØµÙŠ
Ø§Ù„Ø´Ù†ÙŠ
##Ù‡Ø§Ø±Ø§Øª
##40
ØªØ¶ÙŠ
Ø§Ù„Ø§Ø¶
Ø§Ù„Ø±Ø³
Ø§Ù„Ø¨ÙƒØ§
Ù†Ù„Ù‚Ø§Ùƒ
##Ù„Ø¬Ø²Ø§Ø¦Ø±ÙŠ
ÙˆØ¹Ø§Ø±
##Ù‡Ù‡Ù‡Ù‡Ù‡Ù‡Ù‡Ù‡
##ÙˆØ¨ÙŠ
ÙŠÙ‚Ø±Ùˆ
Ø¨Ù†Ùˆ
Ø±Ø§Ø§Ø§Ø§
##Ù…Ø§Ø¬
ÙŠØ³ØªØ«Ù…Ø±Ù‡
Ø§Ù„Ù‚Ù‡Ø§
ØµÙØ§Øª
Ø´Ø³Ù…
Ø¹ÙØ§
Ø§Ø°Ù†
##ØªÙ‡ØªÙ…ÙŠ
##Ø¹Ø·
##Ø¯ÙˆÙƒ
ØªØ®Ø±Ø§Ù„
Ø®ÙŠØ§Ù„ÙŠ
Ø§Ù„Ø¯ÙŠÙ…Ù‚Ø±Ø§Ø·
##Ø§Ù„Ù…Ø¬ØªÙ…Ø¹
##Ø¶Ø·Ù‡
##Ø§Ù„Ø­Ù…Ù‚Ù‰
ØªØªØ´
##Ø¹Ø§Ù†Ø§Øª
Ø´Ø¹Ù„
ÙˆÙ…Ø­Ù„
##ÙˆØªÙ†Ø§
##ØµØ¯ÙŠÙ‚
##ÙˆØ¹ÙˆØ¯
ÙØ±Ø¨
Ø­ÙŠÙ„
##Ø´ÙˆÙ‡ÙˆÙ„Ùƒ
##Ù„Ø§ÙŠ
Ø«Ø±ÙˆØ§ØªÙ‡
ÙˆØ§Ù„Ø§Ø³Ù„Ø§Ù…
##Ø´Ø§ÙƒÙ„
Ø«Ø±Ùˆ
##ÙØªÙŠ
##Ù…Ø±Ø­Ø¨
##ØªØ­Ø±Ù‚
##Ø£ÙˆØ±ÙˆØ¨
##Ø­Ø­Ø­Ø­
Ø­ÙƒÙ…Ùˆ
Ù†Ø³Ù†Ø§
Ø³Ù„ÙÙŠ
Ø­Ø§Ù„Øª
Ø§Ù„Ø£Øº
##ÙŠØ§Ø³
##Ø«Ù„Ø§Ø«
Ø§Ù„Ø¹Ù†Ùˆ
Ù„Ø³Ù
##Ø±Ø¨Ø·
##Ù‡Ù…ÙƒÙ…
Ø¬Ø²Ø§Ùƒ
ÙˆÙ…Ø§Ø¯Ø§Ù…
##Ù…ÙˆØ¹Ø¯
##ØªØ³ÙƒØ±
Ø±Ø§ÙŠØ³
##Ø§Ø®Ø¯Ù…
##Ù‚Ø¹Ø¯Ùˆ
##ØµØªÙƒ
##Ø§Ø§Ø§Ø´
##Ø¨ÙŠØ­
Ø§Ù„Ù†Ø­
Ù…Ø¯Ø®Ù„Ùƒ
##ØªÙØ±Ù‡Ø¯
ÙØ§ØªÙˆ
Ù†ØªÙ…Ù†Ø§Ù‡
ÙˆÙ‡Ø§ÙŠ
Ø³ÙŠØ²ÙŠØ¯
##Ø®Ù„ÙŠÙˆÙ‡
ÙˆØ¬Ù…Ù‡ÙˆØ±Ù‡
##Ø¹Ø§ÙŠÙ„Ø§Øª
ÙØ§ØªØª
65
Ø§Ù„Ù‡Ø§ÙŠ
Ù†Ø­Ø¨ÙˆÙ‡
##ÙŠÙÙ‡Ù…
##Ø²Ø¯Ø§Ø¯
##Ù‚Ø±Ø§Ù…
##Ø³Ø¬Ù„
Ù…Ù†Ø§Ø¶Ù„Ø§
Ø¬Ù…Ø§Ø¹ØªÙƒ
##Ø¸Ø§Ù‡Ø±
Ø¯Ø§ÙØ¹Ùˆ
Ù†Ù…Ø¶
Ø¨Ù„Ø­
ØµØ­Ø¨Øª
##Ø³ÙØ±
Ø§Ø´Ù‚Ø§
##Ø¨Ø¹Ø«
Ø§Ù„Ø¬Ø±Ø¨ÙŠ
##Ù„ÙˆØ§Ù†
##Ù„Ø­Ø¯ÙŠØ¯
##ØµØ¯Ù…Øª
##ÙØ¶Ø­Ù‡
##Ø³Ù…Ø¹Ù†Ø§Ù‡Ø§
##Ø¬Ù…Ù‡ÙˆØ±
##Ù„Ù†Ø§Ø´
Ø§Ù†ØªÙ‚
Ø³Ø¤Ù„
Ø¨Ø¹Ù…
Ø¨Ø±Ø³
##ØµØ§Ø±Øª
##Ø¹Ù…Ù„ØªÙ‡Ø§
ÙˆØ§ÙØª
Ø¨ÙŠØ´
Ù…Ø§Ø¬Ø§Øª
Ø¨ÙˆØ­Ø¯
##Ø¬ÙˆØ§
ØªÙ‚ØªÙ†Ø¹
Ø¥Ø¶Ø§ÙÙŠ
ÙƒØ§Ø±Ùˆ
##Ø´Ø±ÙŠÙ
Ø«Ø±ÙˆØª
Ø§ÙƒØªØ´ÙÙˆ
ÙˆØ§Ø®ØªÙŠØ§Ø±
Ù†Ù„Øª
ØªØ¨Ù†
ÙˆØ§Ù„Ø¯ÙŠØ§
##Ø§Ù…Øª
Ø¥Ù†ØªØ®Ø§Ø¨ÙŠ
##Ø­Ø·Ù…ÙˆÙ‡
ØªÙ†Ø³ÙŠ
##Ø¹ÙŠØªÙˆ
##Ù…ØºØ§Ù„Ø·
Ø±ÙƒØ¨Ùˆ
ÙˆØ£Ø¨Ùˆ
Ù…Ø¹ÙŠØ´
##ÙŠÙ†ÙŠÙƒÙˆ
ÙˆØ§Ù„Ø¹Ø§Ø¦Ù„
##Ù„ÙˆØ¶Ø¹
##Ø¨Ø§Ù„Ù„Ù‡
##Ø£Ø¬Ø±Ùƒ
ØªØ´ÙˆÙÙ‡Ø§
##Ø·ÙÙˆ
##Ø¨Ù‚Ø§Øª
Ù‡Ø¨Ø·Øª
##Ù„ØµØ¨Ø§Ø­
##ØªØ¦
##Ø¹Ø¯ÙƒÙ…
ÙˆØ§Ù„Ø§Ø¨
Ø§Ù„Ù…Ù†ØªÙˆØ¬
Ù†Ø§ØªÙ†ÙŠ
ÙÙ‡Ù…Ùˆ
Ø¹ÙŠÙ†Ø§Ù‡
ØªÙ†Ø·
##Ù‚Ù‡Ø±
##Ù„Ø§Ø¬ÙŠ
ÙŠØ¹Ø¬Ø¨Ù†
Ù†Ø³Ø§Ø¦Ù‡
ÙˆÙ…Ø­Ù„Ø§Ù‡
Ø¨ÙŠØ¯Ùˆ
Ø¨Ù„ÙŠÙŠÙŠÙŠÙŠÙŠ
Ø¹Ù„Ù…ØªÙ†
##ÙƒØ±ÙŠÙ†
##ÙˆØµÙˆ
ÙŠØ³ØªØ¹
##Ø¯ÙŠØ«
ÙƒØªÙˆÙ†Ø³ÙŠ
##ÙˆØ¸
Ø£ØµÙ„Ùˆ
ÙˆÙ†Ø³ØªÙ†
ÙŠØ¹ÙˆØ¶
Ø§Ø±Ø§Ø¯Ùˆ
Ù…Ø°
Ø¨ÙŠØ¯ÙŠÙ†
ÙˆØ§Ù„Ù…Øª
ÙˆØ§Ù„Ø¹Ù
Ù‚ÙˆØ§
Ø§Ù†Ø³Ø§Ø¨
ØµÙ„ÙˆØ§
Ù†Ø¬Ø§
Ø´ÙØ§ÙŠÙÙ‡
ÙŠØªØ±Ùƒ
ØªØªØ¨Ø¯
Ø­Ø·ÙŠ
ÙˆØ¯Ù…
##Ù„Ø§Ø¹
Ù„Ø­Ø§Ø¬
##Ø­Ù„ÙˆÙ
Ù†Ø±Ø¶
ØªØªØ±Ø§
Ù†ØµØ¯Ù‚
##Ø§ÙŠØ­
ÙˆØ¨ÙŠÙ†Ù‡
Ø§Ù„Ù…Ø­Øµ
Ø®Ù„ÙÙƒ
##Ù„Ù…Øª
##Ù„Ù…Ø°Ø§
ÙˆØ§Ù„Ø­Ù…
##ØµÙˆØ§Øª
Ø§Ù„Ù…Ø³Ø§Ø¦
Ù†ÙˆÙƒ
ÙŠØ­ÙˆÙ„
ØªØ®Ø°
ÙˆÙŠØ¯Ø¹
ÙˆØ§Ù„Ø±Ø§Ø¨
ØªØªØ·Ù„
Ø§Ù†Ù‚
##Ø¨Ù„Ø§
Ù‡ÙƒØ§Ø§Ø§
Ø®ÙŠÙ
##Ø¹ØªÙˆ
Ø§Ø´ÙŠ
Ù†Ø§ÙƒÙˆ
Ø¨Ø£ÙÙƒØ§Ø±
##ØªÙ…Ø§Ù…Ø§
Ù„Ø¨ÙŠØ¶
##Ø§Ø§Ø§Ø§Ø´
Ø§Ù„ÙƒÙˆÙ„
##Ù„Ù‚ÙŠØ±ÙˆØ§Ù†
##ØµØ¨Ø§
##Ø¹Ø±Ø§Ù‚
Ø¨ÙˆØ²ÙŠ
ÙŠØ±Ù…Ùˆ
ØªØ®Ø±Ø¬Ùˆ
Ø§Ø´Ø¹Ø¨
Ø¨Ø¹Ø¯Ùˆ
##Ø¯Ø¯Øª
Ø§Ù„Ø¯ÙˆØ±ÙŠ
Ø³ÙˆØª
ÙŠØ®Ø¨
##Ø­Ø§Ù…Ù„
##Ø®Ù„ÙŠÙ‡ÙˆÙ„Ùƒ
ÙƒØ³Ø±Øª
##Ø£Ø®Ø±
Ù†Ø­Ø§Ø±Ø¨Ùˆ
Ø§Ù„Ù…Ø¹Ù†ÙˆÙŠ
ÙƒÙ…Ø³Ù„Ù…ÙŠ
Ù…Ù‚Ø¯Ø§
ØªØ­Ù…
##ÙƒØ§ÙØ­
ÙŠØ­ÙƒÙ…ÙˆØ§
##Ø§ØºÙ†ÙŠ
##Ø´ÙˆÙ
Ø­Ø±Ù‚Øª
Ø§Ù„ÙØ§Ùƒ
ÙŠÙ‚Øµ
##Ù…ÙŠØ±Ùƒ
##Ù†Ø¯ÙŠÙ„
ÙØ³Ø±
##Ù„Ù‡Ø±ÙŠØ³
##Ù†Ø¨Ù‚Ø§Ùˆ
ÙˆØ£Ø«Ù†
Ø§Ø°Ù‡Ø¨Ùˆ
Ø§Ù„ÙƒØ±ÙŠ
##ØµØª
Ø¨Ø§Ù„Ù…Ø¹
ÙˆØ­Ø§ÙŠ
##Ù„Ø®ÙŠØ±
##ØªÙÙ‡Ù…
##Ù…Ù†Ù‡Ø§
ÙˆØ²Ø¹
Ù…Ù„Ø§ÙŠÙƒ
Ù†Ø­Ø¨Ø¨Ø¨Ø¨Ø¨Ø¨
Ø¥ÙŠØ·
##ÙŠÙ†Ø§Øª
Ø§Ù„Ù…ÙŠØ²
##ØªÙ…ÙƒÙ†
Ø±Ø¤Ø³Ø§
##Ù‡Ø§Ù…Ù„
Ù…Ù†Ø­Ø¨Ùˆ
##ÙŠÙ…ÙƒÙ†
##Ø§Ø¯Ø±ÙŠ
##Ø®Ø§Ø¨
Ø¥Ù†ØªÙ…
##Ø£Ø´Ù‚Ø§Ø¡
ØªØ³ÙˆÙ‚
ÙƒÙˆØ¨
Ø¯ÙÙ†
Ù…ÙƒØ³
ØªØ°Ù‡Ø¨
##Ø¨Ø§Ø±Ø­
##ØªØ¸Ù„ÙŠ
##Ù„ØªÙƒÙ…
ÙˆØ§Ø®Øª
##ÙÙˆÙ‡
Ø¹Ù„Ø¨Ø§Ù„
Ø³Ø§Ùƒ
ÙˆØªØ§Ø®Ø°
##Ø§Ù„Ø¹Ø§Ø¨
##Ù…Ø®ØªØµ
ÙŠØªØ²ÙˆØ¬Ùˆ
##ÙŠÙƒØ¨
##ØªØ®Ù
Ù…Ø´ÙƒÙˆ
Ø«Ø¨ØªÙˆÙ„
ÙˆØ§Ø®Ù„Ø§Ù‚Ù‡
Ø­Ø§Ø´Øª
##Ø³ÙˆÙŠ
##Ù‚Ø§Ù…Øª
ÙˆÙØ±
##Ø³ØªØ±Ùƒ
Ù„Ø­Ù„Ø§
Ù…Ø¨Ù„Ù„
Ù…Ø«Ù…
ÙƒÙ„Ùƒ
Ø³Ø¨Ø±
Ø§Ù„Ø¨Ø±Ùˆ
ØªØ§Ø±ÙŠØ®Ù‡
##Ù„Ù‚Ùˆ
Ø§Ù„Ù‡Ø§Ø¯
ÙˆØ´Ø±Ù
##Ø§Ø¬ØªÙ…Ø§Ø¹ÙŠØ©
##ÙƒØ«ÙŠ
##Ù…ÙŠØª
##Ù„ØªÙ„Ù…ÙŠØ°
ÙŠØ§Ùˆ
##Ø¹ØªØ²Ø§Ø²
Ø£Ø°Ø§
##Ù†Ù…Ùˆ
ØªÙ†Ø·Ù„
##Ù†Ø­Ø¨ÙˆÙƒÙ…
Ø§Ù‡ÙˆÙƒ
ØªØ¹Ù„ÙŠÙ‚Ø§
##Ø®Ø¶
Ù…ØªØ¹ÙˆØ¯ÙŠ
Ù‚Ø±Ù†Ù‚
ÙØ¯ÙŠ
ØªØ¸
Ù…Ø¨Ø§Ø¯Ø¦Ù‡
##ØºØ±Ù‚
Ø§Ù„Ù…Ø¶Ø§
Ø§Ù„ØªÙ‚Ø±
##Ù‚Ø±Ø§Øµ
##ÙˆØ±Ù‡
##Ø§Ù„Ø¹Ø§ÙŠÙ„
##Ù…Ø·Ø§Ø±
##ØªÙ…Ø³Ø®Ø±
##Ù„ØµÙ†Ø§Ø¯ÙŠ
##Ø­Ø§ÙƒÙ…
##Ø£Ù…Ø§
##Ù†Ø¨Ù†Ùˆ
##Ø«ÙˆØ±Ø§Øª
ÙˆØ­Ø±
Ø­Ø²Ø¨Ùˆ
ØªÙ‡Ø¨
##Ø¨Ø±Ø±Ø±Ø±
Ø£Ù…Ø±ÙŠÙƒ
Ù†Ø¨Ø§Ø±Ùƒ
ÙˆØ§Ù„ÙˆØ§Ø¬Ø¨
##Ù‡Ø§Ø¨
Ø§Ù„Ø³Ù„Ø¹
Ø§Ù„Ø§Ø³ØªÙ…
##Ù…Ø¹Ø§Ù…Ù„Ø§Øª
Ø§Ù„Ù…ÙØª
Ø¯ÙŠÙ†Ù‡
##ØºÙŠØ±Ùƒ
##Ù…ØªÙ†Ø§Ù‡ÙŠ
##Ø§Ù†ÙƒØ±Ùˆ
Ø§Ù„Ø³ÙŠØ±
##Ø·Ø±ÙŠ
##ÛŒØ±
Ø¹Ø§Ù„Ø¨
Ù„Ù…Ù„Ø§Ø¹Ø¨ÙŠ
Ø«Ø§Ù†
##Ø£Ù†Ù
##Ø§Ø­Ø¨ÙŠ
Ø§Ù„Ø§Ù…Ù†ÙŠ
Ù„Ù„Ù…Ø±Ø²Ùˆ
##Ø¨Ø¯Ù„ÙŠ
Ø¨Ø¯ÙŠØªÙˆ
ØªÙˆØ¹ÙŠ
##ÙˆØ­ÙŠØ´
Ø­Ø§Ø¬ØªÙ‡
##ØºØ§ÙŠØ§Øª
Ù†Ù‚Ø§Ø´
ØªØ±Ù…ØªÙ‡
Ù‚Ù†Ø·
Ù‚ØµØ±ÙŠÙ†
##ÙˆØ´Ù…
##Ø³ØªØ«Ù…Ø§Ø±Ø§Øª
##ÙˆÙ„Ù‡
Ù†Ù‡Ø¶
##Ù†Ø°ÙƒØ±
ØªÙ‡Ø±ÙŠ
Ù‡Ø¶
Ø§Ø¨Ø§
ÙŠÙ…Ù„
##Ù…Ø¯Ø§ÙØ¹
##ØµÙ„Ø§Ø­
Ø¶Ø­Ø§ÙŠØ§
Ø­Ø¯Ø§Ø¯
##Ø£Ø±ÙˆØ§Ø­
##Ø§Ø¯Ø®Ø§Ù„
##Ù„ØºØ§Øª
Ø§Ù„ÙƒÙ…
Ø¬Ø¨Ø§
Ø§Ù„ÙØ¹Ù„ÙŠ
ÙˆØ§Ø§Ø§Ø§Ø§
Ø¨Ø§Ù„Ø³Ù…
##Ù„ØªØ°Ù‡Ø¨
Ø³ÙŠÙ‚
##ÙˆØ§Ù‚Ù
Ø¨Ù‡Ø§Ø°
Ø²ÙŠØ¯Øª
Ù†Ø®Ø±Ø¬ÙˆÙ‡
Ø´Ø§Ø´ÙŠ
ÙˆÙ…Ø§ØªØ¨
Ù†Ù†ØªÙ…
Ø¨Ø¯ÙˆØ±
ØºÙ„ÙŠ
ÙˆØ§Ù„Ø¬Ø§Ù‡
ØªØªÙ…ØªØ¹Ùˆ
Ø³Ø±Ø§Ø±
##Ø§Ø®ØªÙŠØ§Ø±Ø§Øª
ÙˆÙŠØ¶Ø­Ùƒ
ÙŠØ®Ù„ÙŠÙ‡Ø§
##Ù‡Ø¬
ÙˆØ§Ù„Ø¹ÙŠ
Ù…Ø§Ø±Ø§
Ø§Ù„ØªØ¨
##Ø´ÙƒØ´Ùˆ
Ø§Ø­Ø³Ø¨
Ø§Ù„Ø¨Ø±Ø¯
Ø£Ø±Ùˆ
##Ø§Ø¸Ø§ÙØ±
ØªÙ‚Ø²ÙŠÙ…
##Ù†ÙŠÙ
Ø³ÙŠØ§Ø­ÙŠ
ÙØ§Ù„Ø®
##ØªØ­Ø´Ù…Ø´
Ø¬Ù†Ù‡
ÙƒØ¨Ø§Ø±Ø§
1200
Ù…Ø­Ù‚
Ù†Ø³Ø§Ù†Ø¯
Ø§Ø®Ù„Ø§Ù‚Ùƒ
##Ø®Ù„Ø§Ù‡Ø§
ÙˆÙ„Ø§Ø¯Ù‡
Ø®ÙŠØ±Ùˆ
Ø§Ù„Ø§Ø®ØªÙŠØ§Ø±
##Ø§Ø³ØªÙ‚Ø±Ø§Ø±
Ù„Ù„ÙŠØ³Ø§
##ÙˆØ§ØµÙ„ÙŠ
Ø§Ø¹Ø·ÙŠÙˆ
ÙˆØ¨Ù†Ùˆ
ØªØ§Ø¨Ø¹Øª
Ø¬ÙŠÙ†Ø§
ØªØ±Øª
ØªÙˆÙˆÙˆÙˆÙˆÙˆÙˆ
##Ø³ØªØ¹Ø±ÙÙˆ
ÙˆØ­Ù…
ÙÙ‚Øª
##Ø¬Ø¨ØªÙ†ÙŠ
ÙƒÙ„Ø§Ø§Ø§
Ø¨ÙˆÙ†Ø§
Ù„Ø®Ø§ÙˆØª
Ø¬Ø¨Ø¯
ÙˆØ§Ø¹Ø¯
Ù…ØªØ®Ù„
ÙŠÙ†Øµ
Ø¯Ø§Ù‡ÙŠ
ÙˆØ¯ÙØ¹
Ù„ØªØ¨
##Ø§Ø¨Ù†Ø§
##ÙŠØ§Ø¨Ø³
##Ø³Ø§Ø¨Ùˆ
Ù…Ø³ØªØ¹
##ÙˆØ²Ø¹
Ø§Ù„Ù…Ø³ØªØ´
Ø·Ù‡Ø±
Ù…Ø¹Ø¬Ø¨Ù‡
Ø±ÙˆØ¹Ø§Ø§Ø§
Ù…ÙŠØ®
##Ø±ØªØ§Ø¬
Ø§Ù„ØªÙØ§
##Ø®ÙˆØ¶
##Ø±ÙØ§Ù‡
Ø¬Ù…Ø§
ØµØ¯Ù‚Øª
Ù…Ø­Ø¨ÙˆØ¨ÙŠ
##Ù†Ø·Ø±
ÙŠØ´ØªØ±
ÙŠØ§Ù…Ø§
##Ø§Ù†Ø§Øª
Ø¨Ø­Ù‚ÙˆÙ‚
##Ø¬ÙˆØ±
##Ø¹ØªØ°Ø§Ø±
Ø¨Ø³Ùƒ
Ø¨Ø·Ø§
##Ø³ØªÙØ§Ø¯Ùˆ
##ÙˆÙˆÙˆØª
##ÙˆØ§Ù„Ø§
##ÙŠØ­Ø¨ÙˆÙ†
ÙŠÙ‡Ùˆ
ÙØ¶Ø§Ø¡
##Ø±Ø´ÙŠ
##Ù†Ø¹Ù„Ù…Ùƒ
Ù„Ù„Ø¨Ù„Ø§
##ØªØ¹Ø§Ø¯
Ø´ØªØ±Ùƒ
Ø§Ù„Ù‚Ø§Ø¦
##Ø¯ÙˆØ±Ø©
Ø³ÙˆÙŠ
##ØªØ¬Ù‡
##Ù…ÙƒØªØ¨
##Ø§Ø§Ø§Ùˆ
##Ø²Ø§Ù†ÙŠ
##Ù„Ù‚Ù‡Ø±
Ù…Ø§ÙŠØ³
Ù†ÙƒØ±Ù‡Ùˆ
ÙˆØ±Ø¬Ù„
Ù†Ø¯ÙŠØ±Ù‡
Ø§Ù„Ø¬ÙˆØ§Ø±
##ØªØ³Ù…Ø¹
ÙˆØ¢Ù„
Ø´ÙƒØ§Ø±
##Ù‚Ø§Ù„ÙˆØ§
##Ø§Ù†ØªÙ…
ÙˆÙ‡Ø§Ø°ÙŠ
ÙŠØ®ØªÙ„Ù
##Ø³ÙˆØ§Ø³ÙŠ
##ØªØµØ§Ø±
Ø±Ø´Ø¯
Ù…ÙƒÙŠÙ†
##ÙƒØ³ÙŠ
ÙˆØ§Ù„Ø¯Ùˆ
##Ø®Ù„ÙŠØ´
ÙŠÙƒÙˆ
Ø¥Ù†Ø´
##Ø¬ÙŠØª
Ø§Ù„Ù‚ÙŠØ¯
ØµÙ…Ø¹
Ù…Ø§Ø­Ø¨
Ø´ÙŠØ±Ø§
ÙˆÙŠØºÙØ±
Ø§Ù„Ø®Ø¯Ø§
Ø§Ø¹ØªØ¨Ø±Ù‡
##Ø¹Ø¶
##Ù†Ø¯Ù…Ø§
Ù…Ø§ÙƒØ³
##Ø®Ø±Ø§Ø¨
Ø³Ù…ÙŠÙ‡
##Ù„Ù…Ùƒ
##09
##Ø§Ù„Ø­Ø§ÙƒÙ…
##Ø±Ù‚ØµÙ‡Ø§
Ù…Ø²ÙŠÙƒ
Ù†Ù…Ø³
Ù…ØªØ±Ùƒ
Ø­Ø¯Ù‡
Ø§Ù„Ø°Ù‡Ø¨ÙŠ
ÙŠØªÙˆÙ„Ø§
Ù‚Ø§Ù„Ø¨
##Ø±Ø¯ÙˆØ¯
ÙˆÙŠØ­Ø¨Ùˆ
Ù…ÙŠØ¹Ø¬Ø¨
##Ø³ØªÙˆØ±Ø¯
ÙˆØ§Ù„ØªÙ‡
##Ø§Ù„Ø®Ø§Ø±Ø¬
Ø§Ø¶
ØªØ²ÙˆØ¬Ùˆ
##ØªØ¯Ù…Ø±
##Ù…Ø¨Ø§
Ù‚Ø¯Ø³
##ÙÙ„Ø§Ø³
ÙˆØ§Ù„Ù‚Ø±
##ØªÙ‚ÙŠÙ…
Ø§Ù…Ø±ÙŠÙƒ
##Ù…Ø¹Ø§Ùƒ
Ù†Ø¨Ùˆ
Ø³Ù„Ø¨ÙŠØ§
Ø§Ù„Ù…Ø¨Ø¯Ø¦
Ù„Ù„Ø£Ù…Ø§
Ø§ÙŠÙƒÙˆ
##Ø§Ø³Ù
##Ù„Ù„Ù„Ù„Ù„Ù„Ù„Ù„Ù„Ù„Ù„Ù„Ù„Ù„Ù„Ù„
##Ù†Ø®Ø±Ø§Ø·
Ø§Ù„Ø®ÙŠØ§Ù„ÙŠ
Ø³Ø§Ù‚ÙŠÙ‡
Ù‡Ø§ØªÙ
##ØªÙ†Ø´Ø±
ÙˆÙ„Ø§ÙŠ
##Ø£ØªÙŠ
Ù„Ø¯Ø¹Ùˆ
##Ø§ÙŠÙƒ
##Ø§Ø³Ø±
##ÙŠÙ‚Ø±
Ù…ØªØ¹Ø±ÙŠ
ÙƒÙ„ÙŠØ¨Ø³Øª
##ÙØ­Ø©
##ØªÙ…Ù†ÙŠ
##Ù…ÙÙ‡ÙˆÙ…
##51
##Ø§Ù„Ù„Ø¹Ø¨
Ø·Ø§Ø­Ùˆ
Ù…Ø³Ø±Ø­
Ø°Ø§ÙƒØ±
Ø§Ù„Ø§Ø´Ùƒ
##Ø·Ø§Ù†ÙŠ
##ØªÙ…Ø§Ø¹
Ø§Ù„Ø§ØºØ¨
Ø¯Ø¬Ùˆ
Ø§Ù„Ø§Øµ
##Ù‚ØµÙˆØ±
ÙØ§Ù„Ù„ÙŠ
Ø§Ù„Ø§Ø®Øª
ÙØ§Ù„Ø­Ù„
Ø¨Ù†Ø¶
Ø§Ù„Ø§Ù‡
##Ù…Ø¨ÙŠÙ‚
Ø´Ù†Ø³
##Ù†Ø¯Ù†
Ù…ÙŠØ³Ø§
##Ø¨ÙŠÙ†Ø§
Ø§Ù„Ø¨Ù†ÙƒÙŠ
Ø§Ø´Ø¯
##ØªÙ†Ø§Ù‚Ø´
Ø§Ù„ØªØ²
Ø§Ø±Ø¨Ø­
ØºÙ„Ø¨
##Ø§Ø·Ù…Ø§Ø¹
ÙˆÙ‚Ø§
##ØªØ­ÙŠØ§
ØªÙÙƒÙŠØ±Ù‡
Ø§Ù„Ø³ÙˆØ¯Ø§
Ù„Ù‡ÙˆØ§
ÙŠØ´Øª
##ÙŠØ§Ø¨Ø§Ù†ÙŠ
##Ù†ØªØ¸Ø§Ø±
##Ø§Ù„Ù„Ø­Ø§Ø³Ø©
ÙŠÙˆØ¬Ù‡Ùˆ
Ù†ÙˆØ¶
##Ú¨Øµ
ÙƒÙ„Ù…ØªÙŠ
##Ø¨Ø§Ù„Ù†Ø§
Ø¨Ù‡ÙŠ
##Ù„ØµÙØ­Ø©
Ù…ØªØ´
##Ø±Ø­Ùˆ
##ØµÙŠØ±ÙŠ
Ø§Ù„Ù…Ø®Øª
Ù†ÙØ§Ù‚Ùƒ
Ù„Ø¨Ø¹Ø¯
Ù…Ø§Ø¹Ù…Ù„Øª
Ø§Ù„Ø§Ø¹Ù…Ø§
ÙŠÙ†Ø¹Ù…Ùˆ
ØªØ²ÙˆØ±
ØªØ¹Ø¯Ù„
ØªØ³ØªØ®Ø¯Ù…
ÙˆØ´Ø¯
##ØªØ­Ø¯Ø«Øª
##Ø¹Ù„Ù‚
Ø§Ø¹Ù…Ø§Ù„Ùƒ
##Ø³Ø¯ÙŠÙ†
Ù‚ÙˆØ³
Ø¨Ø´Ùˆ
Ø§Ù„Ø¥Ø¹Ù„Ø§Ù…ÙŠ
Ù…ØµØ®
##Ù‚ØªÙ„Ùƒ
##Ø¶ÙˆÙ†
Ø§Ù„ÙƒØ§Ø±Ø«
Ø§Ù†Ø³Øª
Ù„Ø§Ø§Ø§Ø§
##Ø­Ø­
##Ø³Ù„Ø·
Ù…ØµØ§Øµ
Ù†Ø§Ø¯
##Ø·ÙŠÙƒ
##Ø«Ø§Ù„Ø«
ÙŠØ±Ø§Ø¬Ø¹
##Ø­Ø±Ù
ÙŠØ¯Ø®Ù„ÙˆÙ‡
ÙÛŒÙ‡
##Ù†Ø³ÙŠØ©
##Ø±Ø§Ù…
Ø®ÙˆØªÙƒ
Ù†Ø¹Ø±ÙÙ‡
Ø§Ø¬Ù„Ù‡
##Ù„Ø§Ø´ÙŠ
##Ù…Ø§Ø¯
##Ø¨Ø§Ø±Ø¦
ÙŠØ§ÙˆØ¯
Ù‡ÙŠÙ‡
##ØªÙˆÙ‡Ù…
ÙŠØ¹Ø·ÙˆÙ‡
Ù…Ù†Ù‚ÙˆÙ„
Ø§Ù„Ø³Ø¨Ø§
ÙˆØ­Ø´Ø§
##ÙØ±Ø§Ø¯
##ÙˆØ§Ø¬Ù‡Ø§Øª
##Ù‡Ø¶Ø±
Ø¶Ø­ÙƒØªÙˆ
##ØªÙˆØ­Ø´
ÙŠÙ‚ÙˆØ¯Ù‡
##Ù‚Ø§Ù…
Ù…ØªÙˆØ³Ø·ÙŠ
##009
ØªØªØ¹
ØªÙˆÙˆÙˆÙˆÙˆÙˆ
ÙˆØªØ­Øª
Ø§Ù„Ù…ÙÙƒØ±
Ø®Ø±Ù‰
ÙˆØ´Ø±
##Ø±ÙŠØ±
##ØªØ­Ø§ÙŠÙ„
Ø§Ù„ØºÙŠ
##Ø­ÙƒÙˆ
Ø§ÙØ¹Ø§Ù„Ùƒ
ÙŠØ´ÙˆÙÙˆÙ‡
##Ø§Ù„ØªØ±Ø¬ÙŠ
ØªÙ†Ù‡
##Ø³Ø§Ø³ÙŠ
##Ù‚Ù…Ø±
Ø§Ù„Ø±Ø³Ù…
Ø£ÙˆØª
ÙƒØªØ¨ØªÙ‡
##Ù…Ø®Ø±Ø¬
Ù‚Ø§Ø³
Ø´Ø§ÙƒÙ„
ÙˆÙ…Ø±
##Ù„Ø§ÙŠÙ†
ÙˆØªÙƒØ°Ø¨
ØªØ·ÙˆÙŠ
##Ù…Ø´Ø©
ÙÙˆØ¶
##Ø¸ÙŠ
ØªØ¬Ø§
Ø§Ù„Ø¹Ù„Ø§Ù„
Ø´Ø®ØµÙŠØ§Øª
Ø§Ù„ÙØ±Ø¹
##Ø¬Ø§ÙŠ
Ø§Ù„Ø¨Ø®
Ø¨Ø³Ø·
ÙˆØªÙ†
##Ù…Ù…ÙˆÙ„
##Ù„Ø§Ø¬Ø±Ø§Ù…
Ù…ÙˆØ¬Ù‡
##Ø¤Ø§
Ø§Ù„Ø§Ø¹Ø¯Ø§
ÙˆÙŠÙ„
Ù†Ù†ØªØ®Ø¨ÙˆÙ‡
Ø¹Ø¶Ù„
ØªÙ‡Øª
ØªÙ„Ø­Ù‚
##Ø´Ø¹Ø±ÙˆØ§
##Ù„Ø¶Ø­Ùƒ
Ø§Ø­Ø°Ø±Ùˆ
Ø³ÙŠØ¨Ù†
Ù†ÙˆÙ…ÙŠ
##Ù†ÙØ¬Ø±
##Ø­Ù†ÙŠÙ†
##Ø±ÙŠÚ¨
ÙˆØ²Ø§Ø±ÙŠ
Ø§Ù†Ø³
ÙƒØ«Ø±Ùˆ
##Ø­Ù‰
##Ù…Ø±ØªÙˆ
##ØªÙƒÙˆÙ…
Ø§ÙÙ‡Ù…Ùˆ
Ø¢Ø¯
##Ø§Ø³Ù…Ùˆ
##Ø­ÙØ¸Ù‡
##Ø¹Ø§Ø¬
Ù†ØªØ®Ù„
##Ø·Ø·
##Ù†ØµØ­
##Ù…Ø­Ø§ÙØ¶
Ø´ÙÙˆ
Ø§Ø¨Ø´Ø±
Ù†ÙØ¯
##Ø­Ø·ÙˆØ§
##Ø°Ø§Ø¨
##Ù†Ø¬Ù„ÙŠ
Ù…Ø§Ø§Ø§Ø§Ø§Ø§
##Ù†Ø¸Ù†
ÙˆØ¬Ù‡Øª
Ù‡Ø²ÙˆÙ‡
ÙŠØ¨Ù†Ùˆ
ÙˆØ¨Ø­Ù…
ÙˆØ§Ø³Ø§Ù„
##Ø³Ø°Ø§Ø¬
Ù†Ø¨Ø§
ÙƒØ§Ù„Ù…
##ÙÙˆÙ‡Ø§
ØªØªÙ…Ù†ÙŠ
##Ø£Ùƒ
Ø²Ø§Ø±
Ù…Ø®Ø¨ÙŠ
##Ù„ÙŠÙˆÙ†
Ø§Ù„Ù…ØªÙ†
ÙˆÙ‚Ø§Ù„Ùˆ
##Ø®ÙŠØ¨Ø§Øª
ÙŠØ®Ø±Ø¬ÙˆÙ‡
Ø¹Ù„Ø§Ù‚ØªÙƒ
Ø§Ù„Ø²Ø¹ÙŠ
ÙˆÙŠØ¯Ø®Ù„
Ø§Ø¨Ù†Ø§Ø¦
Ø¥Ø¯Ø§Ø±ÙŠ
##Ø¨ØªÙƒÙ…
##ØªÙ‡Ù…Øª
##Ø­Ù„Ù‡Ø§
##Ù†Ø´Ø§Ø²
##Ø§Ù†Ø²Ù„
Ø³Ù†Ø§
##Ù‚Ø±Ø§Ø±Ø§Øª
Ù…ØªÙ…
ÙŠØ³ÙˆØ§
ÙˆØ§Ù„ÙƒØ³
Ø¸Ù‡
Ø­Ø§ÙˆÙŠ
ÙŠØªØ´Ùˆ
##Ø§Ù„Ø±Ù‚ÙŠ
ÙˆÙ‚ÙŠÙ…
##Ø§Ù„ØªØ§Ù„ÙŠÙÙˆÙ†
##ØªØµÙ
Ø³Ø¨Ùˆ
Ø§Ù„Ù‚ØµØ§
ÙˆØµÙ„ØªÙŠ
##ØªØ§Ø¬Ø±
Ù†Ø¹Ø§ÙˆÙ†
Ø§Ù„ØªÙ‚Ø¯Ù…ÙŠ
Ø§Ù„ØµØ§
Ø§Ù„Ù…Ø§Ø²
ÙƒØ±Ø§Ù‡
##Ù„ÙˆÙ…Ø©
##Ù†Ø¬Ø§Ø­Ùƒ
##ØªØ®Ø§Ø¨Ø§Øª
Ù‚Ø¨Ø¶
Ø³Ù„Ùƒ
##ÙˆÙŠØ³
##Ù‡Ø¨Ø·
##Ù†Ø³ØªØºØ±Ø§Ù…
Ø§Ù„Ø±Ø¨Ø§
##Ø¨Ø¹Øª
ÙŠÙ†Ø¬
##Ø¥Ø¬ØªÙ…Ø§Ø¹ÙŠ
Ù„Ù„Ù‚Ø¶
ÙŠØºÙ†ÙˆÙ‡
ÙˆÙ…Ù„Ù
##ØªÙˆØ±
##ÙƒØ§Ø¦Ø¯
##Ø¬Ø§Ø²
Ø£Ù‚ÙˆÙŠ
Ø¬Ù†Ø§Ø²
Ù†Øº
ØºÙŠØ¨Øª
##ØªÙ†Ø­ÙŠ
Ø´Ù…Ø¯Ø®Ù„Ùƒ
Ø­Ø·ÙˆÙ‡
Ø§Ù„Ù…ØºØ§Ø±Ø¨ÙŠ
##Ù†ØµØ±
##ÙÙ„ÙˆÙ‚
Ø­Ø²Ø¨ÙŠ
##ÙØ±Ø§Øº
##ÙˆÙˆÙˆÙˆÙˆÙˆÙˆÙˆÙƒ
Ù†Ø¶Ø§Ù„ÙŠ
Ù…ÙƒÙˆÙ†Ø§
##Ù€Ù€Ù€Ù€Ù€Ù€Ù€Ù€Ù€Ù€Ù€Ù€Ù€Ù€
##Ø´Ù„Ø§ÙŠÙƒ
##ÙÙÙÙÙ
##Ø¹Ø¯Ø§Ø¡
##Ø³Ø¹Ø§Ø¯
##Ø¶ÙŠ
ÙˆØªØ³Ø¹
ÙØ±Ø±
Ø§Ù„ØªØ±Ø§Ùƒ
Ù†Ø¶Ø§
Ù…Ù„Ù‡
Ø­ÙˆØ§Ù„
Ø´Ø£Ù†
ÙˆÙŠØªÙ…
##Ø®Ø§
Ø§Ø­ÙŠØ§
ÙˆØ§Ù„Ø³Ù…
##Ø´Ø§Ù„Ù‡
Ø¨Ø§Øº
##Ù„Ø¯Ø³ØªÙˆØ±
Ø£Ù‚Ø¶
Ø§Ù„Ø£Ø¬
##ÙˆØ¬Ø©
##ØªØ¹Ø§ÙˆÙ†Ùˆ
Ù…Ø­Ø¨ØªÙ‡
ÙŠØ§Ø²
##Ø³ÙˆØ¨ÙŠ
ÙˆÙ„Ù„Ù…
Ø³Ù‡
ØªØ¬Ø¯ÙŠ
Ù…Ø²ÙŠØ§Ù†Ø§
ÙˆØ´Ùˆ
##Ø¶Ø§ÙŠÙ‚
ØªØ­ØµÙ„Ùˆ
ÙˆØ¨Ù‚ÙŠ
Ø§Ù„Ø²Ø¹
Ù…Ù‡Ùˆ
ØªÙˆØ¬
ÙŠØ­Ø¨ÙˆÙ‡
Ù…Ù‚Ø¨Ùˆ
##Ù„ØµÙˆÙ†
Ù†Ø¬Ø±Ø¨
Ø¨ÙˆÙˆ
ÙŠÙƒÙ„Ù…
ÙˆØªÙ‚Ù„ÙŠ
Ø§Ù„Ù…Ø«Ø§Ù„ÙŠ
ÙˆØ§Ù„Ø¸
##ÙŠØ³Ø¹Ø¯Ùƒ
Ø§ØµÙ„Ùƒ
Ù…ØªÙ†Ø§
##ØªÙÙ‡
Ø¬Ù…Ø¯Ùˆ
Ø§Ù„Ø£Ø³Ù…
##ÙŠØ®Ù‡
ÙˆØ®Ù†Ø§
##Ø¯ÙŠØ¹
##Ø§Ø´Ø±Ø§Ø±
##ÙŠØ¸Ø§
Ø±Ù…ÙŠØª
##ÙÙ‚Ø§
Ø§Ù„Ø±ÙˆØ­ÙŠ
Ø±Ø§Ù‚
Ù…Ø³ÙŠØ±
Ø§Ø¨ÙˆÙ†
ÙˆÙˆÙØ§
##Ù‚Ø±ÙŠ
##Ø¬Ø¨Ù†ÙŠ
##ÙˆÙŠÙ‚
ÙˆØ§Ù„Ù…Ø±
ØµØ±Ø§ØªÙ„
Ø¯Ø§Ùˆ
##ÙŠÙ‡ÙˆØ¯
Ù†ÙÙƒØ±
##Ù…Ø±Ù‡
Ø§Ù„ØªØ¹Ø±ÙŠ
Ø³ÙŠÙ†
Ø³ÙŠØ±ÙŠ
Ù†Ø¶Ø¹Ø§
##Ù„Ù‚Ø¯Ø§
ÙˆØ§ÙƒÙ„
##Ù†Ø¯Ø±
##Ù‡ÙŠØ¯
Ù…Ù†Ø­ÙƒÙŠ
##Ø¬Ø¹Ùƒ
ÙŠÙ†Ùˆ
##ÙˆÙŠØ§
##Ø³Ø§ÙØ±
##ÙŠÙŠØ³
##Ø§Ù„Ù…Ø´Ø±ÙˆØ¹
ÙˆÙÙ‡Ù…Øª
Ù…Ø®Øµ
Ø¨Ø®Ø³Ø§Ø±
ÙƒÙ…ØºØ±Ø¨
ÙŠØµÙˆ
Ù†Ø§Ù‚Ù
Ø§Ù„Ø®ØµØ§
##ØªÙØ§Ø¦Ù„
Ù…ØªØ³Ù…Ø¹
##Ù…Ù†Ø¹Ùˆ
Ø§Ù„Ù‚ÙŠØ§Ø¯
Ù†Ø¸Ù…
##Ø£Ø­ÙƒØ§Ù…Ù‡
##Ø·Ø¹
ÙŠØ³Ø¹Ø¯Ù†
Ø§Ø·Ù„Ø¹
ÙˆÙŠØ­ÙŠ
##Ø¢ØªÙŠ
Ø§Ù„Ø¥Ø³ØªØ´
##Ø¬ÙŠÙ‡
##Ø§ÙØ¹Ø§Ù„
##Ù…Ø²ÙŠØ§Ù†
##Ù…ØªÙŠØ§Ø²
2000
##ØµÙŠØ¯
Ø¨Ø§Ù„Ù‡
##ÙØ±ÙŠØ¯
##Ø±Ø§Ø±ÙŠ
Ø§ØªØµÙ„Øª
Ù‚Ø§Ø¯Ù…Ø©
ÙŠØ·Ø¨Ù‚Ùˆ
##Ø§Ù„Ø¯
##Ø­Ø§Øª
ÙˆÙ†Ø¬
Ø§Ø«Ø±
Ù…Ø­Ø¨ØªÙƒ
##Ø´Øª
Ø®Ø§ÙÙˆ
Ù…Ø§Ø±
ÙˆØ§Ø¹Ù
##Ø°ÙˆØ±
Ø§Ù„Ø§Ø¹Ù„Ø§
##Ù‚Ø¯Ø§
##ÙŠÙ†Øº
ÙŠÙˆÙ„ÙŠÙˆ
##ÙƒÙ
Ø¬Ø§Ø¡Øª
ÙˆÙŠØ±Ø¬Ø¹
ÙÙˆÙˆÙˆÙˆ
ÙˆØªØµØ¯
Ù†Ø­Ø±
##Ø£Ø¬Ø¯Ø§Ø¯
##ØªØ¨Ø§Ø·
Ø³ÙˆØ¨
##Ù…Ø§Ù…Ø§
##Ø¯ÙŠØ§
##Ù„Ù‡Ø§Ø¡
##Ù†Ø¶Ø§Ø±
##Ø¹Ø¸Ø§Ù…
##ÙØ±Ù†Ø³ÙŠ
##Ø£Ø¬Ù†Ø¨ÙŠ
##Ø§ÙŠØ¬Ø§Ø¨ÙŠ
ØªÙˆÙ„Ø¯ÙŠ
Ø¯ÙˆÙ„Øª
##Ø´Ø±Ø¹
##Ø­Ø§Ù†
Ø§Ù„ØªØµØ±ÙŠØ­
ÙˆØªØ²ÙˆØ¬
##Ø·Ù„Ù‚Ù‡
Ø¨Ø§Ù„Ù‚Ø±Ø§
ÙˆØ¬ÙˆØ¯Ùƒ
##ØªØ¬Ø±Ø¨
ØªØµÙˆØª
##Ø±Ø¤Ø³
##Ø³ØªÙŠÙ†
##ÙŠØ¶Ø­ÙƒÙˆ
Ø³ÙŠØ²Ùˆ
##ÙŠØ­Ø¨ÙˆÙƒ
Ù†Ø®Ø³Ø±
##ØªØ¹Ù…Ø¯
ØªØ°Ùˆ
ØªØºØ·
##Ù„Ø­Ø¬Ø±
##ÙˆØ¬Ù‡Ø§
Ø¹Ù‚Ù„Ù‡
Ù„Ø­Øª
##Ø¬Ù†ÙˆÙ†
Ø¬Ø¯Ø§Ø§
##Ø¨ÙˆØ¬
ÙŠÙ…Ø³Ùƒ
##Ø³ØªØ¹Ù…Ø§Ø±
##Ø§Ù„Ù…Ø¶Ø§Ù‡Ø±
Ø£Ø±Ø¬ÙˆÙˆÙˆÙˆ
Ø§Ø´ÙƒØ§Ù„Ùƒ
ØªÙ†Ùˆ
##Ù‚Ø·Ø§Ø¹
ÙˆÙ…Ø±Øª
ÙØ´Ù„Ùƒ
ÙˆÙ…Ø¹Ø§
##Ø¯Ù‚ÙŠÙ‚
ÙˆØ¹Ø¯Ùƒ
Ø±Ø­Ø¨
ÙˆØªØ¬Ùˆ
Ø§Ù„Ø¨Ø¹
Ù†Ø³Ù‚Ø³ÙŠ
##ÙØ§Ø³
##Ù„Ø¨Ù‡Ø§
ÙˆÙ„Ùƒ
Ù…Ø±ÙƒØ¨Ø§
##Ù…Ù†ÙƒÙˆØ¨
Ø±ÙˆÙ…Ø§
##ØªØ²
ØªÙ…Ùˆ
Ø§Ù„Ø§Ø®Ø±ÙŠ
ÙŠØºÙ„Ø·
##Ø§Ø°Ø¹
Ø£Ø®Ø·Ø§Ù†
##Ø§Ù†Ø³
ØªÙ†Ø¨Ø±
ØªØ§ÙƒÙ„Ù‡
ÙŠØµÙˆØ±
ÙŠÙ‚Ø¯
ØºØ¯
120
##Ø­ÙŠØ§Øª
Ù„Ù„Ø¹Ø§Ø¦Ù„
Ø¶ÙŠÙˆÙ
Ù‡Ø±Ø¨Ùˆ
Ø§Ù„Ù…ÙˆÙ„Ùˆ
##Ù‡Ù†ØªÙ„
##ÙŠØ¯Ù‡Ø§
Ø¹Ù„Ø§Ù…
Ø®Ø¬Ù„
Ø¨ÙƒÙ„Ø§Ù…Ù‡
##Ù„Ø£ØºÙ†ÙŠ
##Ø¥ØªØµØ§Ù„
Ø§Ù„Ø³ÙŠØ³
##ØµØ­Ø§ÙÙŠ
##Ø§Ø¨ÙŠÙ†
Ø§Ù„Ù…Ù†Ø¶
Ø°Ø¨Ø°
##ÙØ§Ø³Ø¯
Ø¨Ø¹Ø¯Ù…
ØªÙ†Ùƒ
Ø¨Ù‚ÙŠØªÙˆ
ÙŠØ°
##ÙƒÙˆØ²
ÙˆØ§Ø¹Ù…Ù„Ùˆ
##Ø¨Ø±Ù†Ø§
Ø¯Ø±Ùˆ
##Ù…ØªØ§Ø¹
Ù‡Ø§Ø°ÙŠÙƒ
##Ø§ÙŠÙ…
##Ù„ØªØ³ÙŠÙŠØ±
Ø§Ù„Ù‡Ù†Ø¯
##ØªÙŠØ´
##Ù„Ø¢Ù…
##ØªØ¯Ù…ÙŠØ±
Ù„Ø¹Ø¬Ø¨
ØªØµÙ†
##ØµØ§Ø­Ø¨ÙŠ
Ø§Ø±Øª
Ø§Ø´Ø¨Ù‡
##Ø®Ø¯Ø¹Øª
##Ø§Ù„Ø¬
##Ø§Ø­Ù†Ø§
Ù„Ø¹Ø¨Ù‡
##ØªØ­Ø·
Ø¥Ù‚ØªØµØ§Ø¯
ØªØ¯Ø¹Ù…
Ø§Ù„Ù‡Ø±
##Ù„Ù…Ù‡
ÙˆØ§Ù„ØªØµØ¯
Ù†Ø¸Ø±ÙŠØ§
##Ø¬Ø­
##Ù…ÙƒØ´ÙˆÙ
Ø§Ø¨ÙƒÙŠ
Ø§Ù„Ø¶Ø§Ø±
Ø§Ù„Ø­ÙŠÙˆ
##ÙØ§ÙŠØ§
##Ø­Ø´Ù…Ùˆ
Ù…Ø§ØªØ³
ØªÙ…Ø³Ø®
##Ø·ÙÙˆÙ„Ø©
Ø­Ø·Øª
ØªØµØ·
##Ø±ÙˆÙŠÙƒ
##ÙØ±Ø§Ù†
Ø¨Ø§ÙŠØ±
Ø§Ø¨Ù‡
ÙˆØ±Ø§Ù‚ÙŠ
Ù„Ø¨Ø±
##Ù†Ø³Ø¨Øª
ÙˆØ¯Ù„Ø§Ù„
ØªØ³ØªØ­Ù‚Ùˆ
ÙŠØ§Ø¯ÙˆÙ„
##Ø±Ø¨Ø§Ø·
##ÙˆØ¬ÙŠÙ†
##Ù†Ø§Ø¸Ù„
ÙˆÙÙƒ
Ø§ÙŠÙˆØ§
Ù†ÙŠÙ
ÙƒÙ„ÙŠØªÙˆ
Ø­Ù„ÙˆÙˆÙˆÙˆÙˆ
##Ø­Ø«
ÙŠÙƒÙÙŠÙƒ
Ø§ÙˆÙŠ
##Ù†Ø§Ø¦Ù‡
##Ù‚Ø§ØªÙ„Ø©
##Ù‚Ø±Ùˆ
Ø§Ù„Ø­Ù…Ø±Ø§
ÙˆØ§Ù„Ø§Ù‚ØªØµØ§Ø¯
Ø§Ù„Ø­Ø¬Ø§Ø±
ÙˆØ§Ø¶Ø±Ø¨
##ÙŠØµÙŠ
ÙˆØªØªÙ„
##Ø¨Ø¯ÙŠØ¹
Ù…Ø§ØªØ³Ù…Ø¹
##Ø¯Ø¹ÙŠÙ†
##ÙØ±Ø²
##Ø®Ø§Ø±Ø¬
##Ù„ØªØ²Ø§Ù…
Ø§Ù„Ø§Ø¬
##ØªØ®Ø±Ø¬
Ù†Ø±Ø¯
ÙƒØ¯
Ø¥ØªØ®Ø§
ØªØµÙŠ
##Ø¨Ø¹ÙŠØ¯
Ø¨ÙƒØ±Ø§Ù…
##ØªØªØ¨Ø¹
##Ø³Ø§Ù„Ùƒ
ØªØ¬Ø±
##Ù„Ù…ØºØ§Ù„Ø·
##Ø¹Ø·ÙŠÙ‡
Ø§Ù„Ù…Ø­Ø±Ùˆ
##Ù…Ø¨Ø¯Ø¹
##Ù„Ø³ÙŠØ¯
##Ø±Ø§Ø©
##Ø§Ø³Ø±Ø§Ø±
ÙˆØ§Ù„Ø³ÙŠ
Ø§Ù„ØªÙ‡Ø§Ùˆ
Ø§Ù„ØªÙ†Ù‚
Ø·Ø¨ÙŠ
ØªØ´Ø¨Ø¹
Ø¬Ù…Ø¹ÙŠØªÙ‡
ÙŠØ§Ù‚Ù†
##ÙŠØ¯Ø§ÙˆÙŠ
##Ø³Ø£Ù„Ùƒ
ÙˆØ§Ù„ÙˆØ·Ù†
##ÙˆØ±ÙƒÙ…
Ù„Ø£Ø­
##ÙˆØ³Ø§Ø®
Ø§Ù„ÙˆÙ„ÙŠØ¯
##Ø¯ÙŠØ§Ø«
Ø¨Ø´Ø±ØªÙ‡
Ø´Ø¬Ø¹Ùˆ
Ø¨Ø¶
ÙˆÙ„Ø¯ÙŠÙ‡
Ù„Ø¨Ø³Ù‡
ÙŠÙÙ‚
##Ø±ÙØª
##ÙˆØ­Ø¯Ùˆ
Ø§Ù„Ø·Ø§Ø¦
##Ù…ØºØ²
##Ø«Ø§Ù†
##ÙŠØ§Ø±Ø¨
Ø­Ø¶ÙˆØ±
##Ù…ÙˆØ³ÙŠÙ‚
ÙØ±Ùˆ
##Ø­ØµØ¯
##Ù„ØªÙˆØ§Ù†Ø³Ø§
Ø¨Ø­Ø³
##ØªØ¯
ØºØª
##Ø«Ù…Ø§Ù†
##ÙÙŠØ°
Ø§Ø¬Ø±Ø§
##Ø§Ù„Ø£
##Ø§ÙŠØ´ÙŠ
ÙˆØ¬Ù‡Ù‡
##ÙŠØ§Ø¯
##ØªØ²Ø¨Ø±
Ø§Ù„Ù…Ø¹ØªÙ‚
Ø¹Ø²ÙŠÙ…
##Ø§Ù„Ø£Ø³Ø§Ø³
Ù…Ù„Ø§Ùƒ
ÙƒÙ„Ù
##Ø¯Ø§Ø¯
ØªÙ‚Ø³
Ø¨Ø§Ø³Ù…Ùƒ
Ø³Ù…Ø­Ù†
ÙŠØªÙ†Ø­
Ø¨Ø§Ù„Ù‚Ø¯
##Ø£ÙƒØ¯
Ø§ØºØ±
##Ø§Ù„ÙˆØ¶Ø¹
Ø§Ø³Ø³
##Ø¥ÙŠÙ‚Ø§Ù
ÙŠÙ…Ø³Ø®
ÙŠØ¹Ù„Ù‚
##Ø¯ÙŠÙˆØ§ØªÙƒ
Ø§Ù„Ø¥Ø³ØªÙ‚
##Ø§Ø±ÙŠÙˆ
##Ø§Ø¨Ù‚
Ù…Ø±Ø§Ø¡
##Ø­Ø¯Ø¯
Ø¨Ù…Ø´Ø±ÙˆØ¹
##Ø¯Ù„Ùƒ
##ÙŠÙ…Ø§Øª
##Ø±ÙƒÙŠØ²
Ø¨Ø§Ù„Ø§Ù†
Ù„Ù…Ø¹
##150
##Ø¨Ù„Ø©
Ø§Ù„Ø¨Ø±Øª
Ù†Ù…Øª
##Ù„Ø­Ø¯
##Ø±Ù…Ø§Ø¯
##Ø­ØµÙ„
##Ø¶Ù„Ù…
##Ø¥Ù‚ØªØ±Ø§Ø­Ø§Øª
##ØµÙŠØª
Ø´Ø¹Ø±Ù‡
##Ø§Ù„Ø´Ø±Ù‚
198
##Ù„Ø¨Ø­Ø±
##Ø¥Ø³ØªØºÙ„Ø§Ù„
##ØªØ«Ù‚Ù
##Ù…Ø²
##Ø¶Ø­Ø§ÙŠØ§
##Ù„Ù…Ø§
Ù„Ù„Ø¯Ø¹Ø§
##Ø´Ø®
Ø¨Ù…Ø­Ø§
##Ø¯ÙŠØ³Ù…Ø¨Ø±
Ø­Ù…Ø¯Ùˆ
##Ø¯Ø§Ø®Ù„ÙŠ
##Ø§Ù†Ø¨Ø·Ø§Ø­
##Ù…Ø±Ø¯
Ø¨Ø§Ø¨Ø§Ø±Ø§
Ø¨Ø§Ø®
##Ø¶ÙŠÙ†
##Ù…Ù†Ø§Ù‚Ø´
Ø§Ù„ÙƒÙŠØ§
Ù…Ø­Ø¶
##Ù…Ø§Ùƒ
##Ù…Ø§Ø±Ø§
Ø¯Ø§Ø®
Ø§Ø­Øª
##Ø¨Ø§Ø°Ù†
Ø§Ø³ØªØ·Ù„
Ù‚ÙˆÙ„ØªÙ‡
Ø¥Ø¨ØªØ³
Ù…Ø²Ø±ÙŠ
Ù„Ø´Ø¹
ÙŠÙ‚Ø·Ø¹Ùƒ
##Ú¨Ø¹Ø±
##ØªÙŠÙ‡Ø§
Ù†Ù…Ø´
Ø£Ù†ÙˆØ§
##Ø®Ø¨ÙŠØ«
##Ø¯Ø³
Ù‚Ø¨Ù„Ùƒ
Ø±Ø§Ø¹ÙŠ
Ø¨ÙˆØ¬Ù‡
Ù„Ù‚ÙŠØªÙ‡
##Ø·Ø¹Ù†
##ÙˆØ«Ø§Ø¦Ù‚
##Ù†Ù‚Ø´
##Ø¹Ø¨ÙŠØ¯
##Ø³ÙˆØ±Ø¯
ØºØ§Ø´
##Ø§ÙŠØ¯
Ø¨Ø°Ù„
Ø§Ù„Ù…Ø±Ø¬
ÙˆØªØ±Ø¯
Ø§Ø§Ø¯Ùˆ
Ø£Ø³Ø·Ùˆ
##30
##ØªÙØ§ØµÙŠÙ„
ÙŠØ¬Ùˆ
##Ø§Ù†Ø¶Ù…Ø§Ù…
##ÙˆØ¨ÙŠÙ†ÙŠ
##Ø¨Ø±ÙƒØ§Ø¬
Ù‚ØªÙ„Ù‡
ÙÙ†ÙŠØ§
##Ø§Ø­Ù„
Ø§Ù„Ø£Ø³Ø§Ø³
Ø£ÙƒÙ†
##ØªØ¬ÙˆØ¨
##Ø¨Ù‡Ø§ÙŠ
##Ø´Ø¦
##Ø¥ÙŠØ§Ù‡
##Ù…Ø³Ø®Ø±
##Ù„Ø³ÙŠ
##Ù‚ÙŠÙ„
##Ø¥ØµØ±Ø§Ø±
##Ø¨Ù†Ø§Ø¦Ù‡
Ø³ÙŠÙ†ÙŠ
ÙŠØ®ØªØ§Ø±
##Ù…Ø³Ø®
##Ø´Ø±Ø§Øª
Ø§Ù„Ø£ÙØ¹
##Ù…Ø³Ø±ÙˆÙ‚
Ø§Ù…Ø§Ø§Ø§
##Ù‚ØªÙ„Ù‡Ù…
##ÙŠØ­ÙŠ
Ù…ÙØ§Øª
##ØªÙ†Ø¬Ù…
##Ø§ÙƒØªØ´ÙØª
Ø§ÙØ±ÙŠÙ‚
##ØªÙƒØªÙŠÙƒÙŠ
##Ù‡Ø§Ù„Ùƒ
##Ø¨Ù‡Ø§Ù…ØªÙƒ
Ø¹Ø±ÙÙ‡
##ÙØ±Ø­ØªÙ„Ùƒ
##ØªØ±ÙŠ
##Ø§Ù„Ø­Ø¯ÙŠØ«
##Ù‚Ø§ØµØ¯
ÙˆÙ…Ù…
##Ù„ØªØ¹Ù„ÙŠÙ…
Ø§Ù„Ø´Ù…Ø§
Ø§Ù„Ø³Ù„Ø§
##Ø¬Ù…Ø§Ù„
Ø§Ù„ØªØµØ±Ù
ÙŠØªØ¬Ø±
##ØºØ§Ù…Ø¶
Ø®Ø§Ù†Ùˆ
##Ù…Ø§Ø´ÙŠ
ÙˆØ³Ùˆ
##Ù„ØªØ±Ø§
##Ø§Ø±Ù…Ø§Ø³
##ØªØ±ÙŠÙƒÙˆ
ÙŠØ­Ø¨Ùƒ
ÙŠØ§Ø²Ø§Ø²
Ø¯ÙˆØ±Ùƒ
##ÙŠØ§Ø±Ø©
##ØªÙˆØ­Ø´Ù†Ø§
Ø§ÙÙƒØ§Ø±
##Ù†Ø§ÙŠØ©
##ÙŠØ±Ø§
##Ø²Ø²Ø²Ø²
Ø±Ø¬Ø§Ù„Ù‡
Ø³ÙŠØ§Ø³ØªÙƒ
Ù…Ø¹Ø´
##Ø«Ù…
150
ØªÙ†Ø´Ø±Ùˆ
ÙŠØ±Ùƒ
Ø®Ø°Ø§
##Ø§Ù„ØºÙ†Ø§ÙŠØ©
ØµØ­Øª
##ÙˆÙ…Ù‡
##Ø¨Ø±Ø´
Ø¹Ø§Ù…Ù„ÙŠ
##Ù†Ø´Ø£
Ø§Ù„Ø§Ù†ØªØ¯
##ØªØ§Ù…ÙŠÙ†
Ø§Ø¹Ù„ÙŠÙ‡
Ù„Ø¬Ù‡
Ø§Ù„ØªÙ‡Ù…
Ø§Ù„Ù…Ø§Ø³
Ø§Ù†ØµØ­Ùˆ
##Ø§Ù„Ù…Ø³Ø§Ù†Ø¯Ø©
##Ø´Ù‡Ø±ÙŠØ§
##ØºØ±Ø§ÙÙŠ
Ù†ÙŠÙƒÙˆ
Ø³ÙŠØª
ÙˆØ¹Ù…Ø§
Ø¨Ø¹Ø°
ÙˆÙŠÙ†Ø¹Ù…
Ø§Ù„ØªØ­Ø±Ùƒ
##Ù…Ø³ØªØ¹Ø¯
Ø§Ù†Ø®Ø±Ø§
##Ù†Ø±Ø¬Ø³ÙŠ
Ø§Ù„Ù…Ù
##ÙˆÙˆÙˆÙˆÙˆÙˆÙˆØ±
ØªÙ„Ø²
Ø§Ù„Ù„Ø­Ø§Ø³
##Ù„ÙˆÙ‡
ÙˆØ£Ø´
ØªØªØ­Ø±
##Ø³Ù†ÙØ±Ø§
Ø³Ø¨Ù„
##Ø§Ù„Ø¬Ø¨Ø§Ù„
##ÙƒÙ…Ù†ØªØ±
ÙˆØ¨Ø´
##Ù‡Ø§Ù‡Ø§Ù‡Ø§
ÙˆÙ†Ø¯Ø¹
Ù‡Ù‡Ù‡Ø®Ø®
Ø§ØµØ¯Ù‚
ØªØ´ØªØ±Ùƒ
Ø¥Ù†ØªØ®Ø¨
##Ø§Ù„Ø§Ù†ØªÙ…Ø§Ø¡
ÙŠØ®Øª
ÙØ·Ø±
##Ø­Ø°Ø§Ø±
Ø§Ø²Ø¨
##ÙŠØªØ¨Ø¹Ùˆ
ÙˆÙ„Ø¹Ù„
Ù†ØºØ±
##Ù„Ø¹Ù‚ÙˆØ¨
Ø§Ù„Ø´Ùˆ
##Ø³Ø§Ø¤
##ÙƒØ¨Ø±ÙŠØ§Ø¡
##ØªØ³ØªØ­Ù‚
Ù†Ø³Ù‚Ø³
Ù„Ù„ØµØ­
ÙŠØºÙ„Ø·Ùˆ
Ø§Ù„Ø²Ù„Ø§
##Ù†ØªÙ‡
##Ø³ØªØ«Ù…Ø±
##ØªÙˆØ¬Ù‡Ø§Øª
Ø§Ù„Ø§Ø®ÙˆØ§Ù†
##Ù†Ù‡Ø§Ø¦ÙŠ
Ø§Ù„Ø¬Ø²Ø§Ø¦
##Ù…Ø§ØªØ®Ø§Ù
ÙŠÙ†Ø§Ø¯
ÙØ²Ø¯
Ø§Ù„Ø¥Ù†Ø³
Ø±Ø±Ø±Ø±Ø±Ø±Ø±Ø±Ø±Ø±Ø±Ø±Ø±Ø±Ø±
##Ø§Ø³ØªØ¹Ù…Ù„Øª
Ø¬Ù†Ø§
##Ø§Ø­ÙŠØ§Ø¡
##Ø¹Ù†Ø¯Ù†Ø§
Ø§Ù„Ø£ÙØ±ÙŠ
##Ø¬Ø°ÙˆØ±
##Ù‚ØµØªÙ‡
##ÙƒÙˆØ§Ø±Ø¬ÙŠ
ØªÙ„Ù‚ÙŠ
##ØªÙˆØ©
##ØªÙ„Ù‚
Ù…Ø¹Ù†ÙˆÙŠ
##Ø±Ø¨Ù†Ø§
ÙŠÙÙŠÙ‚
##Ø¹ÙŠÙˆØ¨
ØµØºÙŠØ±Ù‡
##Ø§Ù„Ø¹Ø²ÙŠÙ…Ø©
ØªÙØµ
Ù„Ù„Ø³Ù…Ø§
Ø®Ø§ØµØª
##Ù†Ø§Ù…Ø¬
ÙŠØªÙ‚Ø§
##Ø­Ù…Ù„ØªÙƒ
##Ù‡Ø§Ø±
##Ø³ØªÙØ²Ø§Ø²
##Ø£Ø³Ù„ÙˆØ¨
##Ø¸Ø§Ø±
##ØµÙ†ÙŠØ¹
##Ø¬Ø¬Ø¬
##Ø§Ø­ØªÙŠØ§Ø·
##Ù…ÙƒØ§Ù†Ùƒ
##Ù„Ø£Ù†Ù‡Ø§
##Ù„Ø®Ø¯Ù…
##Ø¤ÙˆØ³
Ù„Ù„Ø®Ø·
ØªÙ„Ø§
Ù†Ù…ÙˆÙˆÙˆÙˆÙˆ
ØªØ²Ùˆ
##Ø­ØªØ¬Ø§Ø¬Ø§
ØµØ§Ø­Ø¨Ù‡
##Ù…Ø²Ø¨Ù„
##Ø§Ù…Ø¬
Ù†ØªØ­Ø¯
Ø³Ø§Ø¹Ø¯Ù‡
Ø·Ø§Ø±Ùˆ
##Ù„ØªØ­Ø¶ÙŠØ±
##Ø±ÙÙŠÙ‚
Ø§Ù„Ø¬Ø±Ø¨
##Ø³ØªÙ‚Ø¨Ù„Ùƒ
##Ø³Ù…Ø­Ù„ÙŠ
##Ø´Ø¬Ø¹ÙˆÙ†
Ø§Ù„Ù…Ø¹Ø¬
Ù…Ø³ØªÙ‚
Ø§Ù„ÙƒÙ‡
ØªÙˆÙ†Ø³ÙŠØ§
Ø¥Ù…ÙƒØ§Ù†ÙŠ
Ù…Ø±Ø±Ø±Ø±Ø±Ø±
Ø­Ø¶ÙŠ
Ø®Ù†Ø§
ÙˆÙ…Ø³Ø¤ÙˆÙ„ÙŠ
Ø¨ØªÙˆ
ÙˆØªØ¨ÙŠ
##Ù†Ø¨Ù†ÙŠ
##ØªØ­ÙŠ
ÙˆÙ‚Ø·Ø¹
##ØµØ§Ø¯
##Ù…Ù†Ø§ÙÙ‚
Ù†ÙØ±Ø­
##Ø¯Ø¨Ø±
Ù…Ù„ÙƒÙƒ
Ø§Ù„Ø«Ù‚Ø§ÙÙŠ
##Ø±Ù‡Ø¯Ø§Ù†
##Ø¬ÙˆØ§Ù†
##Ù„Ù…Ø§Ø¡
ÙˆØ²Ø±
##Ù†Ø¬Ø§Ù†
##ØªØ¹Ø¨Øª
##Ø§Ù„Ù…Ø°ÙŠØ¹
Ø¯Ø¨Ø§
##Ø®ÙŠØ±Ø©
##Ù†Ø¶Ø±
##ÙˆÙˆÙˆÙˆÙˆØ±
ÙˆØªÙƒÙ„Ù…
##ÙˆØ³ÙŠ
##Ù„Ù‚Ø§Ø´
##Ø§Ù„Ù…Ø±Ø§ÙˆØº
Ù„Ù…Ø§Ø°
Ù‚ØµØª
Ø­Ø³Ø§
Ø§Ù„Ø¹Ø§Ø¦Ù„ÙŠ
ÙŠØ­Ù…Ø¯
##Ø¨Ø±ÙŠØ§Ø¡
Ø§Ù„ØªØ­ÙÙˆ
##Ù‚ØªÙ„ÙˆÙ‡
##Ø§Ù„Ø¯Ø±Ø¨ÙˆÙƒ
Ø®Ø±ÙˆØ¬Ùƒ
Ù†Ø³Ø±
Ø§Ù„Ø²ÙŠ
Ù…Ø¹ØµÙŠ
ØªÙ„Ø§Ù
##Ù…Ù‚Ù‡ÙˆØ±
##Ø·Ù„Ø¹Ùˆ
##Ù„ØªØ´Ø±ÙŠØ¹ÙŠØ©
Ø¥Ù†Ù‡
Ù…Ø±Ø¶Øª
##Ù‚Ù†Ø§Ø¹Ù‡
##Ù…ØµÙ†ÙˆØ¹
##Ù„Ø¨Ùˆ
Ù…Ø¤Ù‚
Ø¥Ø³ØªØ±Ø§ØªÙŠØ¬
Ø§Ù„Ø§Ù…Ø§Ø²ÙŠØºÙŠ
Ù„Ù„Ø®ÙˆØµØµ
Ø§Ø³ØªØ­Ù„ÙÙƒ
Ø§Ù„Ø§Ø­ØªØ¬Ø§Ø¬
Ø§Ù„ØµÙ†Ù‡Ø§Ø¬ÙŠ
Ø§Ù…Ø²ÙŠØºÙŠ
##Ø¹Ø¹Ø¹Ø¹Ø¹Ø¹Ø¹Ø¹Ø¹Ø¹Ø¹Ø¹Ø¹Ø¹Ø¹Ø¹
Ø§Ù„ØºØ°Ø§Ø¦ÙŠ
Ù„Ø§Ù†Ø³ØªÙ†ØºØ±Ø§
ÙˆÙ†Ø³ØªØ§ÙØ¯
Ù…Ø­Ú¨ÙˆØ±
##Ø¸ØºÙˆØ·
Ù‡Ø¹Ù‡Ø¹Ù‡Ø¹
Ø§Ø¹ØªØ¨Ø§Ø·ÙŠ
ÙˆÙ…Ø¨Ø±ÙˆÙˆÙˆÙˆÙˆÙˆ
Ø§Ù„Ù†Ø±ÙØ²
Ø§Ù„ØªÙ‚Ø§Ø±ÙŠØ±
Ø§Ù„ØªØ³Ø§Ø¤Ù„
Ù†Ø­Ø§ÙØ¶Ùˆ
Ø´Ù‚Ù†ÙˆØ³
ÙˆØ¥ÙØ´Ø§Ù„
ÙÙ„ØªØ­Ø§ÙØ¸
Ø¬ÙŠÙ†ÙŠØ±Ø§Ù„
Ù†Ù…ÙˆØ°Ø¬
Ø²Ù…Ù„ÙƒØ§ÙˆÙŠ
Ø§Ø³ØªØ¹Ø¬Ø§Ù„
Ø·Ø±ÛŒÙ‚
Ø§ÙØªÙ‚Ø¯Ù†Ø§
ÙƒØ«ÙŠÙŠÙŠÙŠÙŠÙŠÙŠØ±
Ù„Ø£Ø®ÙˆØ§Ù†
Ø§Ù„Ù…ØºØ´ÙˆØ´
ÙƒØ§Ø±ÙŠØ§Ø±Ùˆ
Ø§Ø³Ø·ÙˆÙˆÙˆÙˆØ±
Ù…Ø§ÙŠØ³ØªÙ‡Ù„
Ø¥ØªØ¨Ø§Ø¹Ù‡
Ø¹ÙŠÙØªÙˆÙ†
##ÙØ±ÙÙˆØ±ÙŠ
Ù…Ø¨ØªØ¯Ø£
ØªØ´Ø®ÙŠØµ
Ù„ÙˆØ³Ù…Ø­Øª
Ù…Ø­ÙÙˆØ¸
ÙˆØ§Ù„Ù…Ø±ÙÙ‡
Ù…Ø§Ø´Ø§Ø§Ø§Ø¡
Ø±Ø§Ø§Ø§Ø¦Ø¹
ÙˆÙ…ÙˆØ¸ÙÙŠ
Ø§Ù„Ø¨Ø±ÙˆØªÙˆÙƒ
ÙˆÙØ®ÙˆØ±
Ø²Ø¹ÙØ§Ù†
##Ø³ØªØ­ÙˆØ°
ÙŠÙ‡Ø¨Ø¨Ø¨Ø¨Ø¨
ÙŠØªØ¬Ø±Ø¤
Ø§Ù„Ø±Ø¹ÙˆØ§Ù†ÙŠ
ØªØªØ±Ø§Ù‚Øµ
Ø±Ø§Ø¶Ø¹ÙŠÙ†
##Ø¥ØªÙØ§Ù‚ÙŠ
##ØªÙ‚Ø±Ø¹ÙŠØ¬
ÙŠÙ„ØªÙ‚ÙŠ
Ø§Ù„Ù†Ù‡Ø¶Ø§ÙˆÙŠ
ÙˆÙ†Ø¹ØªØ²
Ù…Ø§ÙŠÙ‚Ù„Ù‚Ùƒ
ÙˆÙ…Ø§Ù„Ù‚ÙŠØª
Ø§Ù„Ù‚Ø±Ø¬ÙˆÙ…
Ø§Ù„ØªÙ†Ø§Ø³Ù„ÙŠ
Ù†Ø¨ØµÙ…
Ø£Ø¬Ø³Ø§Ø¯
Ù…Ø¨Ø¯Ø¦ÙŠ
ÙˆØªÙ…Ø³ÙƒÙ‡
Ø¥Ø®ØªÙ„Ø§Ù
Ø¨Ø£Ø­Ù„Ø§Ù…
ØºØ§ÙŠØ¶Ù†
Ø¨Ø§Ù„Ø¥Ø³ØªÙ‚Ø§
##Ø³ÙØ³Ø§Ø±ÙŠ
Ù‡Ø§Ù†Ù†Ø¯Ø¨
ÙˆØ§Ù„Ù…Ù†Ù‡ÙˆØ¨
##Ù„Ø§Ø­Ù‚ÙˆÙ†
Ø¹Ø±ÙˆÙØ§ØªÙƒ
ÙˆØ£Ø±Ø³Ù„
Ø£Ø­Ø§Ø³ÙŠØ³
Ù…Ø§ÙŠØ¹Ø¬Ø¨Ù‡Ø§
Ø§Ø·Ø¹Ø§Ù…
Ø§Ø¹Ø·Ø§Ø¦Ù‡
ØªØ«Ù…Ø±
196
Ø§Ø³ØªØ³Ù…Ø­
Ø¬Ø«Ø«
Ù…ÙŠÙ„ÙŠØ´ÙŠØ§Øª
Ø§Ù†ØªØ²Ø§Ø¹
##ØªØµØ§Ø±ÙŠØ­
Ù„Ù‚Ù†Ø§Ø¹Ø§Øª
Ø§Ù„Ø¨Ù„Ø¬ÙŠÙƒÙŠ
Ø§Ù„ÙØ±ÙŠØ¬ÙŠØ¯
ØªÙØªÙˆÙ
ÙˆØ§Ù‡Ø¬Ø±ÙˆÙ‡
Ø§Ù†Ø¯Ø«Ø±
Ø§Ù„Ø³Ø®ÙŠÙ
ØªØ¹Ù‚ÙŠØ¨
Ø¨Ø§ØªÙŠØ³Øª
Ø§Ø³ØªÙ‚Ø¨Ø§Ù„
Ù‡Ø¬ÙˆÙˆÙˆÙˆÙˆÙˆÙˆÙˆÙˆÙˆÙˆÙˆ
ÙˆØ±Ø¨ÙˆØ®
Ø§Ø¬Ø¨Ø±Øª
##108
Ù…Ø´ØªØ±ÙŠÙƒ
ÙˆØ§Ù„Ù…Ù‚ØªØ±Ø­
Ø§Ù„Ù…ÙØ±Ø·
Ø¢Ø°Ø§Ù†
ÙƒØ±Ø§Ø±Ø²
Ø§Ù„Ø­Ø±Ù‚
Ù…Ù‚Ø·ÙˆØ¹
Ù…Ø¬Ø§ÙˆØ¨Øª
Ù„Ø§Ø²Ù…Ù„Ù‡
ÙˆÙ…ØºÙŠØ¨
ÙˆØ§Ù„Ù†ØµØ§Ø±
ÙˆØ§Ù„ØªØ®ÙˆÙŠ
##Ø³ÙŠÙ†Ù…Ø§Ø¦ÙŠ
Ù…Ø±Ø¹ÙˆØ¨
ÙˆØ­Ø§Ø´ÙŠØªÙ‡
ÙŠØ³ØªÙ†ÙØ¹
Ø§Ù„Ø¥Ø´ÙƒØ§Ù„
##Ù„ÙˆØ¬Ø³ØªÙŠ
Ù‡Ù‡Ù‡Ù‡Ù‡Ø®Ø®
##ØªØ¯Ù‡ÙˆØ±
Ø§Ù„Ø§Ø±ÙˆØ¨ÙŠ
Ø§Ù„Ø¬Ù…Ø¹ÙŠØ§ØªÙŠ
Ø¨ÙˆØ±Ù†Ùˆ
Ø¬ØºØ±Ø§ÙÙŠ
Ù„Ù„Ù…Ø¯Ø±Ø³
##Ø¥Ù‚Ù„ÙŠÙ…ÙŠ
ØªØ¶Ø®ÙŠÙ…
ÙˆØ§Ø²Ù„Ø§Ù…Ù‡
Ø§Ù„Ù…ØªØ±Ø¯ÙŠ
##Ø¨ÙˆÙ‚ÙˆØµ
ÙˆØ£Ø´Ø±Ù
Ø±ÙƒØ­Ù„Ù†
Ø§Ø¨ØªÙƒØ±
Ù‡Ø¹Ø¹Ø¹Ø¹
ÙˆØ§Ø³ØªØºÙ„ÙŠØªÙˆ
ÙˆØ§Ù†ØµØ±ÙÙˆ
ÙˆÙˆÙ‚Ø§Ø­
ØªØ±Ø±ÙƒÙˆ
ÙÙˆØ´ÙŠÙƒ
2006
Ø§Ù„Ø§Ø®ØªØ±Ø§Ø¹
Ù…Ø¨Ø±Ø±Ø±Ø±
Ù…ØºÙ…ÙˆØ±
Ø¥Ø³ØªØ¯Ø¹
##Ù…Ù„Ø§Ø­Ø¸Ø§Øª
Ù„ØªØ¨Ø±Ø£
##ØªÚ¨Ø¹Ø¯
Ø«Ù„Ø«
2004
ØªØºØ±ÙŠÙƒÙ…
ØªÙ‚Ù†Ø¹Ù†
ÙˆØ§Ù„Ø¨ÙŠØ¦
Ø§Ù„Ø´ÙŠÙˆØ¹ÙŠ
ÙˆÙŠØ­Ø±ÙƒÙˆ
Ø§Ø¨Ø¯Ø§Ø§Ø§Ø§Ø§Ø¹
ØªÙ†Ø§ÙÙ‚Ùˆ
194
Ø§Ù„Ø§Ø³ØªØ´Ø±Ø§
Ø·Ø¨Ø§Ø®
Ø¨Ø£Ù†ÙˆØ§Ø¹
Ø¯Ù…Ø§Øº
ØªÙ†ÙØ±Ø¬
Ø¨Ù‡Ù„ÙˆØ§Ù†
##Ù…Ø³Ø¦ÙˆÙ„ÙŠ
Ø±Ù…Ø¸
Ù„ÙŠØ¨ÙŠØ±Ø§Ù„
Ù„ÙŠÙ…Ø²Ø§Ù„Ùˆ
Ù…ØªØ¬Ø§Ù†Ø³
##Ø§Ù†Ø­ÙŠØ§Ø²
Ø§Ù„ØªØ´Ù†Ø¬
Ù„Ù„ÙÙ„Ø§Ø­
##Ø¥Ù†Ø¶Ù…Ø§Ù…
ØªØ±ØªÙƒØ¨Ù‡
ØªÙØ¶ÙˆÙ‡Ø§
Ù…ØºÙ„Ù
Ù…Ø®Ø·ÙˆØ¨
Ø£ÙˆØ·Ø§Ù†
##Ù…Ø±Ø§Ù‡Ù‚Ø©
##ØªÙ…Ù‚Ø¹Ø±
##Ø±ÛŒØ®
Ø¥Ù†Ø¸Ù…Ùˆ
ÙƒÙ„Ø¨Ø³ØªÙŠ
Ø¹Ø°Ø¨ØªÙˆÙ‡
Ù†Ø®Ù„ÙŠÙˆÙ‡Ø§
Ø§Ù†Ø¨Ù‡Ø±
Ø§Ù„Ù…Ø³ÙŠÙŠØ±
Ø§Ø³ØªØ¹Ù…Ø±Øª
##Ø·Ø±ÙˆØ­Ø§Øª
Ø²Ø§Ø¯Ùˆ
ÙƒØ¨ÙŠÙŠÙŠÙŠÙŠØ±
Ø¨Ø±Ø§Ø§ÙÙˆÙˆ
Ø§Ù„Ø¥ÙŠØ¬Ø§Ø¨ÙŠ
Ø¨Ø§Ø®ØªÙ„Ø§Ù
Ù…Ø­Ù„Ø§Ø§Ø§Ø§Ø§Ø§
Ù†Ø³ØªÙ‡Ù„Ùƒ
ÙˆÙ…ØªØ­Ø§ÙˆÙ„
Ø§Ù„Ù…ØªØ®Ù„
##Ø³ØªØ®Ø§ÙŠÙ„
140
Ù†Ù†ØªØ®Ø¨Ùƒ
Ø§Ù„Ø´Ø§ÙØ¹
ÙŠØªØ­Ø³Ø±Ùˆ
ØªØºÙ„Ø¨Ù†
ÙˆØªØ¹Ø§
ÙˆØ§Ù„Ø£Ù…
Ù…ØµÙØ§Ø±
ÙŠØªÙƒØ§Ø«Ø±
Ø®Ø±Ø¨Ø´Øª
ÙŠØ¨Ø±ÙƒÙˆ
Ù†Ù‡Ø¯Ù…Ùˆ
##ÙØ§Ø¹
ÙØ§ÙŠØ¯Øª
Ø¨Ù…Ø¹
Ù…Ø°Ø§Ø¨ÙŠÙ†
Ø§Ù„ØºØ²Ø§Ù„
Ù…ØµØ­ÙˆØ¨
Ù†ØªÙ‚ÙŠØ§
Ù…Ø¶Ø±ÙˆØ¨
##Ù„ØµØ§Ø¨Ø±
ÙØ§Ù„ØªÙ„ÙØ²
ÙŠØ®Ø³Ù
Ø³ÙƒØ§ØªØ´
Ø³ØªØ§Ù†Ø³
Ù†ØªØ­Ø§Ø³Ø¨Ùˆ
Ø§Ø³ØªØ¨Ø§Ù‚
Ø§Ø®ØªÙ„Ø§Ø³
ØªØ¶Ø®
Ø§Ù„Ù…Ø­ØªÙ…Ù„
##Ú¨Ø§Ø¨Ø³ÙŠ
##Ø¨Ù„Ø§Ø·Ùˆ
Ø§Ø¬Ù‡Ø¶
##Ø·Ù„Ø§Ø¦Ø¹
Ø§Ù„Ù…ÙŠÙ„Ø§Ù†
Ú¨Ø±ÙˆØ¨
ÙˆØªØªØ­Ø§Ø³Ø¨
Ù…Ø­Ù„Ø§Ø§Ø§Ø§Ø§Ø§Ø§Ø§Ø§
ÙˆÙ…Ù†Ø·Ù‚ÙŠ
##ØªØ´ØªÙ‡Ø±Ùˆ
Ø·ØºÙŠØ§Ù†
ÙŠÙˆÙˆÙˆÙˆÙˆÙˆÙŠÙˆÙˆÙˆÙˆÙˆ
ÙŠÙØ±ÙƒØ³
ÙŠØªØ¨Ø±Ø¹
Ø§Ù„Ø§Ù‚Ù†Ø¹
Ø¨ØªØ¹Ù‡Ø¯Ø§ØªÙ‡
##Ø§Ù„Ù…Ø­Ø³ÙˆØ¨ÙŠ
ÙˆØ§Ù„Ø­ÙŠØ§
ØªØªØ´Ù‡Ø±
ÙŠØ«Ù…Ø±
Ø¨Ø­Ø¨ÙˆØ­
Ø³Ø§Ø§Ø§Ø§Ø§Ø§Ø§Ù…
Ù†ØµÙˆØªÙˆÙ„Ùƒ
ÙŠØªÙ„ÙØª
Ù…Ø­Ù†ØªÙˆ
Ø§Ù„Ù…Ø¬Ù†ÙˆÙ†
Ù…Ø§ÙŠØ¬Ø±ÙŠ
##ÙƒØ±ÙˆÙ†ÙŠÙƒÙˆ
Ø§Ù„Ø¹ÙÙŠÙ
ÙŠØ§Ø®Ø³Ø§Ø±
ØªÙ…Ø±Ù…Ø¯
Ø¥Ù‚Ù†Ø§Ø¹
##Ù„Ø²Ù…Ø§Ù†
Ù‡Ø§Ù„ØºÙŠ
Ù…Ø¶Ø§Ø¬Ø¹
Ù„ØªÙ…ÙƒÙŠÙ†
Ù…Ø§ØªØ­Ø´Ù…Ùˆ
ÙŠØ¬Ø§Ø²ÙŠ
ØªØ³ØªØ±Ø¬Ø¹
Ù„ØªØ­ÙŠÙŠØ¯
Ù…Ø§Ø®Ù„ÙŠØª
##612
Ø£ØªØ­Ø¯Ø§Ùƒ
ÙˆØ§Ù‡Ù…
ÙØ§Ù„Ø´Ù‡Ø±
##Ù„Ù…Ø±Ø²ÙˆÙ‚
##Ù†Ù†ØµØ­Ùƒ
##ØªØ¢Ù…Ø±
Ø¨Ø§Ù„Ø¶Ø±ÙˆØ±
##Ø¹Ø¹Ø¹Ø¹Ø¹Ø¹Ø¹Ø¹Ø¹
Ø£ÙŠØ¯ÙŠÙˆÙ„ÙˆØ¬ÙŠ
Ù‡Ø¹Ø¹
ØªØ³ØªÙ‡Ø¯Ù
Ø§Ù„ÙˆØµØ§
Ù…Ø§Ø´Ø§ÙÙˆÙ†ÙŠ
Ø³ØªØ®Ø³Ø±
ØªØµÙˆØ­Ø¨
Ù„Ø¯Ø±Ø§Ø³
Ø§Ù„Ù…ÙˆÙ‚Ø±Ø©
ÙˆÙ…Ù‚Ø§
Ø§Ù„Ù…ØªÙ†Ø§ÙØ³
Ø¬Ù…Ø¯Øª
##ØªØ±Ø¶
ÙØ§ØºÙØ±
ÙŠØ§Ø­Ù†Ø§Ù†
Ø¥Ø¨Ø¯Ø§Ø¡
Ù„Ø¹Ù…Ù„Ù‡Ù…
ÙŠØ­Ø§Ùƒ
Ø§Ø¬Ø±ÙŠÙŠ
ØµØ¨ÙŠØ­
Ø§Ù„ÙƒÙˆØ¬ÙŠÙ†
##Ø§Ù„Ù‚Ø¨Ø§Ø¦Ù„
ØªÙ‚Ø§Ø¨Ù„Ù†
ØªØ±Ø³ÙŠÙ„Ù†Ø§
ÙŠØ­Ø±Ø²
Ù…Ø®Ø¬Ù„
Ø³ÙŠØ³Ø£Ù„Ùƒ
Ø¶Ø§Ù„Ù…ÙŠÙ†
Ø§Ù„ÙˆØ¶Ùˆ
Ù…Ø¹Ù„Ù„Ù„Ù„
Ù„Ø§Ø¹Ù„Ø§Ù‚
Ø§Ù„Ù†Ø³Ø®
Ø±ÙƒØ§ÙŠØ¨
##ÙƒÙˆÙ…ÙˆÙ†ØªØ§Ø±
Ø¬Ù…Ø§Ù‡Ø±ÙŠ
Ø§Ù„Ù…ÙØ´Ø®
ÙˆÙ…Ø§Ø¬ÙˆØ±
Ø¨Ø±Ù†Ø§Ù…Ø¬Ù‡
Ù„Ø®Ø²ÙŠÙ†
Ø§Ù…ØªØ§Ø¹
Ù„Ø¹Ø§ÙŠÙ„Øª
ÙˆØ®ÙŠØ§Ù†ÙŠ
Ù…Ù†Ø­Ø§Ø²
ÙŠÙˆØ±Ø«
Ù…Ø±Ø§ÙÙ‚
ÙˆÙŠÙØªØ­
Ù†Ø·ÙŠÙ‚
ÙˆØµØ§Ø­Ø¨
Ø¨Ø®Ø´Ù…
ØªÙ„Ø¨Ø²
ÙˆÙØ§Ø±Ø­
##Ù„Ø§Ù†Ø³ØªÙ‚Ø±
ÙŠØ­Ø§ÙŠÙ„
##Ø¬ÙˆÙ…ÙŠ
Ù…Ø¯ÙˆØ®
##Ø¯Ø±Ø§Ø´Ù†Ùˆ
ÙŠØ®Ø±Ø§Ùˆ
Ø´Ø±ÙŠØ¨ØªÙƒ
Ø§Ù„Ø¥Ù„Ù‡ÙŠ
Ø£Ø¯Ø¹ÙŠÙˆ
ØªØ´Ø§Ø±Ùƒ
Ù…ØªØ´ÙˆÙ‚
ÙŠØ¬Ù…Ø¯Ùˆ
Ø§Ù„Ø§ÙŠØ­Ø§Ø¡
Ø¹Ø§Ù„Ù‚
Ù„Ù„Ù…Ù‚Ø§Ø¨Ù„
ÙƒØ§Ø§Ø§Ø§Ø´ÙŠ
Ø§Ù„Ù…Ø³Ø§ÙƒÙ†
ØªØ®Ù†Ù‚
Ø§ØªØ¨Ø¹ØªÙŠ
ÙŠØ¨Ù‡Ø¯Ù„
##Ø§Ø³Ù‡
ÙŠÙØ³Ø±
Ù†Ø¯Ù„Ù„
##Ø¯Ø¨Ø¯ÙˆØ¨
##Ø¸Ø±Ùˆ
Ø¶Ø¨Ø¹
Ø¨Ø§Ø®ØªØ±Ø§Ù‚
Ø§Ù„ØµØ¨ÙŠØ§Ù†ÙŠ
Ø£ÙØ¶Ø­Ù‡
Ø®Ù„Ù‚Ùƒ
Ø£Ø­Ù‚Ø±
Ø³Ø¨ÙˆÙ†Ø¬
Ù…ØªØ³Ø§ÙˆÙŠ
Ø§Ø¯Ø±Ø§Ùƒ
ÙŠØ³ØªÙ‡Ø¨Ù„
ÙŠØªØ¨Ø§ÙƒÙˆ
Ù‚ÙŠÙˆØ¯
Ø§ØµØ·Ù†Ø§Ø¹ÙŠ
Ø§Ù„Ù‡Ø§Ù†
Ø±Ø¦Ø³Ù‡
Ù…Ø§Ù†ØªØ¨Ø¹
Ø´Ù†ÙƒØ±Ù‡Ø§
Ø¬Ø±Ù…Ø§Ù†
Ù„Ø¥Ø¹Ø§Ø¯
ÙŠÙ†Ø¶Ù…Ùˆ
##Ø³Ø§Ù†Ø¯Ù†Ø§Ùƒ
##Ø¶ØºÙˆØ·
ÙˆØ§Ù„Ù…Ø¯Ø§ÙØ¹
Ø¥Ø³Ø£Ù„
Ø¨Ø®ØµÙˆØµÙŠØ§Øª
Ù…Ù†Ø¹Ø²Ù„
##Ø³Ø³Ø³Ø³Ø³Ø³Ø³Ø³Ø³
ÙÙŠØ¯ÙˆÙ‡Ø§Øª
Ù„ØµØ§Ù†Ø¹
Ù…Ø¬Ø¨ØªÙŠ
##Ø³Ù„Ø§Ù…ÙŠ
Ù…ØªÙ†Ø²Ù„
ÙˆØªØ±Ø²Ù‚
Ù…ÙÙ„Øª
Ø­ÙˆÙŠØ¬
Ø¥Ù‚Ø±Ø§Ø±
ÙˆØ§Ù„Ø±Ø¬
##Ø§ÙƒÙ„
Ù„Ø§ÙˆØ§Ù„Ùˆ
Ø§Ù„Ø§Ø®Ø¨Ø§Ø±
Ø¨ØªØ³ÙˆÙŠ
ØªÙØ§Ø±Ù‚
Ø§Ù„Ù…Ø¬Ø±ÙˆØ­
Ø¨Ø§Ø¬Ø±Ø§Ø¡
##ÙŠØ¨Ù†Ø¯Ø±
ÙˆØ§Ù„ÙˆØ§Ù„Ø¯
Ø³ÙŠØµØ¨Ø­
Ø§Ù„ÙƒØªÙŠØ¨
##Ù…Ø´Ø±ÙˆØ¹
Ù‚Ù†Ø¯Ø³
Ù„Ù„Ø¥Ø³Øª
ÙˆØ§Ù„Ù†Ù‚Ø§Ø¨
ÙŠØ­ØµØ¯
Ù…ØºØ·ÙŠ
ØµÙ…
Ù…ØªØ·Ø§Ø¨Ù‚
Ø¨Ù…Ø­Ø§ÙƒÙ…ØªÙ‡
Ø¨Ø¹Ù„Ùˆ
ØªÚ¨ÙˆÙ„
Ø®ØªÙ…Øª
ÙŠØ³ÙƒØ±ÙˆÙ‡Ø§
Ø§Ù„Ø¹Ù†ÙŠÙ
ÙŠØ·Ù…Ø­
Ø§Ù„Ù†Ø§ØµØ­
##ØºÙ…Ø¸
Ù…ØªØ¯Ù‡ÙˆØ±
Ù…ØªØ¹Ø§Ø±Ùƒ
Ù…Ø¨Ù„Ø¹
ØªØ²Ø¹Ù…
Ù‡Ø±Ù…ÙˆÙ†
Ø¨Ø§Ù„ØµØ§Ø¯Ù‚
Ø¨Ø¹ÙÙˆÙŠ
Ø§Ù„Ù…Ù‚ØªØ±Ø­
Ø¯ÙŠÙÙˆØ§
Ù„Ù…ÙŠØª
ÙˆØ§Ù„Ø´Ù†ÙŠØ­
ÙˆÙ†Ø§Ø¹Ù…
##Ø§ØµØ¨Ø­Øª
Ù…Ø¹Ø§Ù‚
ÙˆØ£Ø®Ø±Ø¬
##Ù‚Ù„Ø§Ø¨
Ø¨ÙŠÙˆÙ†Ø³ÙŠ
ØªØµØ¯Ø±Ùˆ
##ØªÙˆØ§Ù†Ø³
##Ø¥Ø®ØªØµØ§Øµ
Ø§Ø¹Ø¹Ø¹Ø¹Ø¹
ÙƒØªÙ„ØªÙ†
##ÙŠÙ‚Ø±Ø¨Ø¹
Ù†Ù‚ÙŠÙ…Ùˆ
Ù„Ø£ØµØ­Ø§Ø¨
Ø¨Ù…Ø¬Ù‡ÙˆØ¯
##Ø§Ø±Ø¬
Ø¥ÙƒØ´Ù
Ù†Ø´ÙÙˆ
##ØªØ£Ù‡Ù„
ÙˆÙŠØ¹ØªØ¨Ø±ÙˆÙ†
##Ù…ÙØªØ¹Ù„
##Ø¨Ù„ÙˆÙƒÙŠÙ‡
##Ø£ÙˆØ§Ù…Ø±
ÙƒØ¹
Ø¨ØªØµØ±ÙØ§Øª
Ù…ÙŠÙ„ÙˆÙ…
Ø¥Ø¹ØªÙ‚Ø§
ØºØ§Ø¦Ø±
Ù†ØªØ¬Ø§ÙˆØ²
ÙˆØ¹Ù‚Ù„ÙŠØª
ÙŠÙ‡ÙŠØ¬
Ø§Ù„Ù…ÙˆØ±ÙŠØªØ§Ù†ÙŠ
##Ø§Ø¯ÙŠÙƒ
Ù…ØªÙØ±Ø­
Ø§Ù„Ø¥Ø³ØªÙ…Ø±Ø§Ø±
##Ø§Ø§Ø§Ø§Ø§Ø§Ø§Ø³Ø·
##Ø¶Ù…Ø§Ø¦Ø±
##Ù…Ù†Ø¨ÙˆØ°
Ø¥ØªØµÙ„Øª
##Ø³ÙØ§Ù‚Øµ
Ù„Ø±ÙØ¶
Ù…Ø§Ø³Ù…Ø¹Øª
Ø§Ù„Ø¨Ø§Ø­Ø«
ØªÙ…Ù„Ù‚
Ù…ÙØ§ÙˆØ¶
Ø§Ù„Ù…ØºØªØµØ¨
ÛŒØ±Ø­Ù…
ÙˆØ§Ù„Ù…Ø¹Øª
ÙˆØ§Ù„Ø±Ù‚Øµ
Ù„Ù„Ø®Ù„Ùˆ
Ø¨Ø§ÙˆØ±Ø§Ù‚
Ø¨Ø§Ù„ØºØ§Ø²
Ù…Ø³ØªÙ†Ø¯Ø§
ÙŠÙ†ÙˆØ¶
##Ø´ØªØºÙ„
ÙˆØ§Ù„Ù…ØµÙŠØ¨
##Ø¹Ø´Ø±
##500
Ø¨Ø§Ø³Ù‚Ø§Ø·
##Ø¨Ø®Ù„
Ø¨ØªØªÙƒÙ„Ù…
Ù„Ù…Ù†Ø¸Ù…
##ØªØ§Ù„ÙŠ
Ù†Ø­Ø¨Ø¨Ø¨
Ù…ØªØ¬Ø§Ù‡Ù„
##ÙŠØ¨Øª
Ø§Ù„Ù…Ø³Ø¨Ù‚
ØªØµÙÙ‚
ÙØ·ÙˆØ±Ùƒ
##Ø§Ù„Ù…Ø§ÙÙŠØ§
Ø§Ù„ØªØ¹ÙˆÙŠØ¶
##ÙØ¹Ø§Ù„
Ø²ÙŠÙ†Øª
Ù…Ø¬Ø¨ÙˆØ±
ÙŠØ­ØªØ°
Ø§Ù„Ù…Ø§Ø¬ÙˆØ±
Ù„Ø§ØµØ·
Ù„Ø§ÙŠØ¯Ø®Ù„
Ø¨Ø§Ù„Ø·
##Ù„Ø¨ÙˆÙ‚
Ø¹Ù…Ù„ØªÙŠÙ‡
ØªØ³Ø®Ø§ÙŠÙ„
Ø¨Ø§Ù„Ø¯ÙˆÙ„Ø§Ø±
Ø§Ù„Ø¯Ø§Ù†Ø¬
##6000
ÙˆÙ…Ø§Ø¹Ø§Ø¯
Ù…ÙŠÙˆÙØ§
Ù…Ø²Ø¹Ø¬
Ø¨Ø®Ø¯Ù…Ø§Øª
Ø³ØªÙ†ÙŠØªÙ‡Ø§
Ø§Ù„Ø­Ù†Ø¸
Ù…Ù„ÙŠØ¦
Ù‡ÙŠØ£Øª
ÙŠØ¨Ø±Ø¯
ÙŠØ¬Ù‡Ø±
Ù…ØªØµØ¯Ù‚
ÙƒÙ…ÙŠÙˆÙ†
Ø§Ø²Ø§Ø­Øª
Ø§Ù„Ù‚Ø¨Ø§ÙŠÙ„
ÙŠØªÙ‚Ø·Ø¹
ÙˆØºØ¯Ø±Ùˆ
##Ù‡Ø¹Ù‡Ù‡Ù‡
Ø§Ù„Ù†ÙˆÙˆÙŠ
Ø§Ù„Ø¯Ø²ÙŠØ±
##ØªØ¯ÙˆÙŠÙ†
ÙØ§Ù„Ù…Ø³ØªÙˆ
Ø§Ù„Ù…Ø°ÙƒÙˆØ±
ÙˆÙ…ÙŠÙ‡Ù…Ù†
ØªÙ†Ù‚Ø¶
##Ø¤Ø«Ø±
##ØªÙ…Ø±Ø¬ÙˆÙ‡
##Ø­ÙŠÙ„ÙˆÙ‡
Ø§ÙÙÙÙ
Ø¹Ø§ÙˆØ²
Ø§Ø³Ù…Ø¹Ø¹Ø¹Ø¹Ø¹
ÙŠØ¶ÙŠÙ
ÙŠÙ†Ù‚Ù„Ø¨
ÙŠÙ…Ø¯Ø­
Ø§Ù„Ø£Ù†Ø«
Ù„Ø§Ù†Ø±ÙŠØ¯
ÙØ§Ù„Ø³
##ÙØ§Ø¸
ÙŠÙ…Ù‡Ø¯
Ø¨Ø±Ø¶Ø§
Ù…ÙŠØ±Ø³ÙŠ
ÙˆØ§Ù†ØµØ­Ùƒ
Ù‚Ø±Ù‚Ù†
Ù…Ø¹Ù„Ø¨Ù„
Ù…Ù„Ø§Ø¦Ù…
Ù…Ø§ÙŠØ®Ø±Ø¬
ÙˆÙ„Ø­Ø§Ø³
ØªÙ„ÙÙˆÙ†Ø§Øª
Ø¨Ø§Ù„Ø·Ø§Ø¹
Ø¨Ø²ÙŠ
Ø§Ù„Ø®Ø¸
Ø§Ù„Ù…ØªØ®Ø±Ø¬
Ø±Ø´Ø­Øª
Ù„Ø·Ù…ÙˆØ­Ø§Øª
##ØªØ³Ø¨Ø¨
Ø§Ù„Ø­Ø³ÙˆØ¯
Ø¨Ø§Ù„Ø²ÙŠØ§Ø¯
ÙˆÙ…ØªØ¹Ø¨
Ø³ÙŠØ±Ù…ÙŠ
ÙØ·ÙˆÙ…
Ù…Ø¯Ø¹ÙˆÙ…
ÙØ±ÙˆÙ†Ø³
Ø§Ù„ØµÙŠØ¯Ù„ÙŠ
Ù…Ø®Ø±Ø¬ØªÙˆ
Ø²Ø¹Ù„Øª
ÙˆÙŠÙˆÙ…ÙŠØ§Øª
Ø¬Ø«ØªÙ‡
Ù…Ø§Ù†Ø³Ù…Ø­Ù„
Ø¨Ø§Ù„Ø²Ø¨Ø¯
Ø±Ù‚Ø§Øµ
Ù„Ù…ÙƒØ´Ø®
Ù…Ø­Ø¨Ø°
ØªØ­Ø±ÙŠÙ
Ù‚Ù„Ù‚Ù‡Ù…
Ø³ÙŠÙ†Ù…Ø§
Ù…ØªØ¹Ø§ÙˆØ¯
##Ù†Ø­Ø¨ÙˆÙƒ
Ø§Ù„Ø¯ÙŠÙ…Ø®Ø±Ø§Ø·ÙŠ
350
ØªÙÙ„Ù‚
Ø§Ù„Ø§Ø¹ØªÙ…Ø§Ø¯
Ø§Ø³ØªØ¹Ø§Ø¯
Ù„Ù„Ø³Ù„Ø·
Ù…Ø§ØªÙ‚Ø¯Ø±
Ø§Ù„ÙÙÙÙÙÙ
Ù„Ù„ØªØµÙˆÙŠØ±
##ÙƒÙˆÙ…ÙŠØ¯ÙŠØ§
Ù…ØªÙÙŠÙ‚
Ù…ØªÙ‚Ù„Ù‚
##Ù„Ù…Ù„Ø§Ø¹Ø¨ÙŠØ©
ÙˆÙŠØ±Ø¹Ø§
##Ø£Ù‚Ù†Ø¹
Ù…ØªÙ†ÙˆØ¹
Ù…Ø§ÙŠØ´Ø¯
Ø°ÙƒÙˆØ±
Ø§Ù„Ø¶Ù…Ø§Ù†
ØªØªØ±Ø¬Ù…
ÙŠÙ†Ø¨Ø±Ùˆ
Ø§Ù„Ù…Ù†Ø´ÙˆØ¯
##Ø¹Ø¶Ø§Ø¦Ù‡
##Ù„ÙÙŠØ¯ÙŠÙˆØ§Øª
Ø§Ù„Ø¨Ø±ÙˆÙŠØ·
Ø§Ø³ØªØ³Ù„Ø§Ù…
Ø³Ø§Ø­Ù‚
ÙˆØ§Ù†ØµØ§Ø±
Ø¨Ø§Ù„Ù†Ù‚Øµ
Ø¹Ø¨ÙŠØ·
Ø¨Ø²ÙŠØ§Ø±
##Ù…Ø¹Ùƒ
##Ø³ÛŒØ§Ø³
##ØªØªØ±Ø¬Ù„
ÙŠØªÙƒÙŠÙ
Ù„Ø¥Ø²
Ø®Ø§Ø¦Ù
##Ù…ØµØ±ÙˆÙ
ÙŠÙØ¯Ù„Ùƒ
Ø§Ù„Ø§Ø¯
ÙŠØ®Ø±Ø¨Ø´
Ù…ÙŠÙ‚Ø¯Ø±
##Ø±Ø´Ø§
Ù…Ø¹Ø§Ø§Ø§Ø§Ø§
##ØªØ£ÙˆÙŠÙ„
Ø§Ù„Ù…ÙÙ‚Ø±
Ø§Ø®ØªØ±Ø¹
Ø§Ù„Ù†Ø§ÙØ°
Ø§Ù„Ù…Ø¹ØªÙˆÙ‡
ÙŠÙ…ØªÙ„Ùƒ
Ù†ÙˆØ§Ù…Ø±
ØµØ¨Ø§ÙŠØ§
Ø§Ù„Ø±Ø¤Ø§Ø³
ØªØ­Ø§ÙØ¸
##Ù†Ø§Ø§Ø§Ø§
##Ù„Ø§Ø³ØªØ¨Ø¯Ø§Ø¯
Ø§Ù„Ø§Ù†Ø¶
ÙˆØ§Ù„Ù…ØªØ§Ø¬Ø±
Ù…Ø§ØªØ¨ÙƒÙŠ
Ù†ØªØ­Ø¯Ø§Ùƒ
##Ø§Ù†ØªÙŠØ®Ø§Ø¨Ø§Øª
##Ø§Ø¹ØªØ°Ø±Øª
Ø§Ù„Ø§Ø³ØªÙ…Ø±Ø§Ø±
Ø£Ù‡Ø¯ÙŠØª
Ù…ØªØ¹Ø¯Ø¯
Ø¨Ø§Ù„ØªÙ„Ø§Ù…
Ù„ØªØ­Ø³
##Ù„ØªØ­Ù‚
00000
##ÙˆÙ„ÙƒÙ†
Ø£Ø¹Ø¯Ø§Ø¦
Ù…Ø³Ø§Ù…Ø­
Ù†Ø´ÙŠØ®
ÙˆØ§Ù„Ø§Ø±ØªØ¬Ø§Ù„
Ø§Ù„Ø³ÙˆÙŠØ­
Ø¨Ø­Ø§Ø¯Ø«
Ù‚Ø­Ø·
Ø£Ù‚Ù†Ø¹Ù†ÙŠ
Ø´Ø§Ø±Ù
##ÙŠÙˆØªÙŠÙˆØ¨ÙˆØ²
##Ø¯Ø±Ø§Ù‡Ù…
##Ù„Ù…ÙˆÙ‡Ù…
Ø®Ø§Ø±
Ø£Ù†Ù‚Ø°
ÙŠØªÙ‚Ø±Ø¨
ØªØ³Ù…ÙˆÙ†Ù‡
##Ø´ÙŠØ¦Ø§
Ù„Ù„Ù‡Ø±ÙŠØ³
Ø§Ù„Ù…Ø¤Ù„Ù…
Ø¨Ø´ÙˆÙ
##Ø¬Ø§Ù„Ø§Øª
Ù†Ø·Ø§Ù‚
Ø¨Ù†ØµÙŠØ¨
Ù‡Ø§Ù‡Ø§Ù‡Ø§Ù‡Ø§
Ù†Ø·ÙŠØ¨
Ø¸Ø¹Ù
Ù†ÙƒØ³Ø±Ùˆ
Ø§Ù„Ø´Ø§Ù…Ù„
ØªÙ‚ØªØ±Ø­
Ø§Ù„Ø·ØºØ§
ÙˆÙ…ØªØ«Ù‚Ù
Ø§Ù†Ø²Ø§Ø¯
Ù…ØªØ¯ÙŠ
ÙˆØ§Ù„Ù…Ø­Ø§Ù…ÙŠ
Ù‡Ø§Ø¸Ø§
Ø£Ù†ØµØ§Ø±
##ØªØ¨Ø§Ø±Ùƒ
ÙŠÙ‡ÙŠÙ†Ùˆ
Ø§Ù„Ù…ØªØ­ÙƒÙ…
Ù†Ø­ØµÙ„
Ù„Ø³Ù†ÙØ§Ø±
ÙˆØ§Ù„Ù…Ø¯ÙŠØ±
Ø§Ø¨Ø¹Ø¯Ùˆ
ØµÙˆØ§Ù„Ø­
Ù„Ù†Ø­Ø¨Ùˆ
Ù…Ú¨Ø±
ÙˆÙ…Ù…ØªÙ„
Ø§Ù„Ø§Ø­ØªÙŠØ§Ø·
##ÙˆØ§Ø·
Ù…ÙŠØ¹Ø±ÙÙˆÙ‡
Ø¥Ù†ØªØ®Ø¨Ù†Ø§
Ù‡Ø¯Ø¦
ÙˆØ£Ù†Ø¸Ø±
Ø³Ø®Ø§Ù
Ø±Ø§Ø¤
Ù„Ø¹Ù„Ø§Ø¬
##Ø¨Ø§Ù„Ø·ÙŠ
##0535
Ù…Ø³ØªÙ‡Ø¯Ù
##Ø¬Ù†Ø¯
##Ø¡Ø°
Ø§Ù„Ù‚Ø¨Ù„ÙŠ
Ù‚Ø³ØªÙ‡Ø§
ØªØªØ°ÙƒØ±
Ù„Ù„Ù…Ø§ÙÙŠØ§
Ø¨Ø§Ù„Ù‡Ø§
Ù‚Ø¹Ø±
ÙˆØ§Ø«
##ØµØ§Ø¨Ø§Øª
Ù…Ø­Ø¯Ø¯
Ø§Ù‚Ù„ÙŠÙ…
Ø§Ù„Ø¨ÙŠÙˆÙ„ÙˆØ¬ÙŠ
Ø­Ø¬ØªÙ‡
##ÙŠØ¯ÙŠÙˆÙ„ÙˆØ¬ÙŠ
Ø§Ù„Ù„Ø¨Ù†Ø§Ù†ÙŠ
ØªØ±ÙØ¶
Ø§Ù„ÙˆØ³Ø§Ø®
Ø¨Ù„ÙˆÙƒÙŠ
Ø¨Ø§Ù†ØªØ¯Ø§Ø¨
ÙØ§Ø­Ø´
ÙŠÙƒÙ„Ù
Ø²Ù…ÙˆØ±
Ø§Ù„Ø¹Ø§Ø·Ù„
Ø§Ù„Ø®Ø§Ø¡Ù†
Ø¶Ø§Ù…Ø±
Ø§Ù„ØªØ­Ø¶Ø±
Ø¥Øµ
ØªØªÙƒÙÙ„
Ø¶Ø§Ø¨Ø·
Ø§Ù„Ù…Ø¤Ø«Ø±
ÙˆØ¹Ø´Ù†Ø§
Ø¨Ù…Ø±Ø´
ÙŠØ³ØªØ´Ù‡Ø¯
ÙŠÙØªÙ†Ùˆ
##ÙŠÙˆÙÙ‚Ùƒ
ÙŠØ³ØªØ¯Ø¹Ø§
##Ù…Ù…Ø§Ø·Ù„
##ØºØªØ§Ù„ÙˆÙ‡
Ø§Ù„Ù…ØµÙ†ÙˆØ¹
Ø¯ÙÙˆ
##Ù„Ø£Ø±Ø§Ø¶ÙŠ
Ø³ØªÙˆÙƒ
Ù…ÙÙ‚ÙˆØ¯
ØªØ¨Ø·Ø§
##Ø³ØªÙ†ØªØ¬Øª
Ø§Ù„Ù…Ø¹Ø¨Ø±
Ø§Ù„Ø§Ø³ØªÙ‡Ø§Ù†
Ù„Ù„Ø§Ø³ØªÙ‡
ÙŠØ³ÙƒØ±Ùˆ
ØªØ®ØªØµØ±
##ØªÙ‚Ø§Ø¶Ø§
##ÙŠØ¹Ù„Ù…Ùˆ
ÙˆØ¨Ø§Ù„Ø£
Ø£Ø¬Ø¹Ù„
Ù†ÙØ®
ÙˆÙ†Ø³Ø§Ø¹Ø¯
Ù…ØªÙˆØ§Ø·Ø¦
Ù…Ø¨ØªØ¯Ø¦
Ø¥Ø³ØªÙ‚Ù„Ø§Ù„
Ø§Ù„Ù…ØªØ¹Ø§Ù…Ù„
##Ù„Ø¯Ø§Ø®Ù„ÙŠ
Ù…Ù‚ÙˆÙ…Ø§Øª
ÙˆØ§Ù„Ø±Ø¬Ø¹ÙŠ
##Ø¶Ù„Ø§Øª
Ù‡Ø¯ÙˆÙˆÙˆ
ÙˆÙ†Ø·Ø§Ù„Ø¨
Ø§Ù„Ø·Ø¨ÙˆÙ†
Ù…Ø¶Ø±
Ù†Ù‚Ø§Ø±Ù†Ùˆ
ÙŠØ³Ù‚Ø³Ùˆ
Ø®Ù„Ù‚Ù‡
Ø£Ø¹ØªØ¨Ø±
Ø§Ù„Ø³Ø­Ø±
Ø¹ÙˆØ§Ø·Ù
Ù…Ø®Ù„Ø§Øª
Ø¢Ø®
Ø§ÙƒØªØ´Ø§Ù
##Ù…Ø¹ØªÙ…Ø¯ÙŠØ§Øª
##Ø£Ø³Ø§Ù„ÙŠØ¨
##ÙŠØ´Ø±ÙŠ
##Ø¨Ø®ÙŠØ±
Ø§Ù„Ø´Ø·Ø±
Ù†ØºÙŠØ±
ÙˆØ§Ø±ÙØ¹
Ø§Ø³ØªÙ‡ØªØ§Ø±
Ù„Ø³ØªØ¹Ù…Ù„Øª
Ø´ÙƒØ±Ø§Ø§Ø§
Ù…ÙŠØ³ØªØ­Ù‚
Ø³Ù„Ø§
Ø§Ù„Ø±Ù‡Ø¯Ø§Ù†
##Ø¨Ø±ØªÙ‚Ø§Ù„
ØªÙÙ„Ø³ÙŠÙ
Ø¥Ù„Ø®
ØªØ­ÙÙŠØ²
ØªØºØ´
Ø§Ø³Ø·
ÙˆÙŠØ¨ÙƒÙŠÙˆ
ÙˆÙ…Ø¹Ø§Ø¯
Ù„ÙŠØ´Ø§Ù
Ù…ÙƒØªÙÙŠ
ØªÙƒØ±ÙƒØ±
Ù†Ø­Ø¨Ø¨Ùƒ
Ø§Ù„Ø­Ø¯Ø§Ø«ÙŠ
Ø¯Ù…Ø§Ø¤
Ø§Ù„ÙØ±Ø·
ØªØ·Ù…Ù†
Ø§Ù„Ù…Ø²Ø±
Ø¥ÙŠÙ‚Ø§Ø¹
Ø³ÙˆØ¤Ù„
Ø¯Ø§Ø¹Ù…ÙŠÙ†
Ø­ØµØ§Ù†
ÙŠØ­ØªÙ‚Ø±
Ø§Ø³ØªØ¹Ø¯Ø§Ø¯
ÙˆØªØ®Ù„Ù‚
Ù„Ù…Ø±ÙŠØ¶
Ø¨Ø§Ù„ØªÙ„Ø­ÙŠØ³
Ø§Ù„ØµÙ‡Ø±ÙŠ
ÙˆÙ…Ø¹Ø§Ø±Ø¶
##Ø­ÙƒÙˆÙ…ØªÙ‡
ØªØ®ÙŠØ´
Ø£ÙÙ‚
ØªØ¹ÛŒØ´
##Ø¥Ø¶Ø±Ø§Ø¨
Ø§Ù„Ø±ÙŠØ§Ø¸
ÙŠØ®Ø²Ø±
##Ù‡ÙŠØ¯Ø´ÙˆØª
##Ø±Ø­Ù…Ùƒ
Ø§Ù…Ù…Ù…Ù…
Ø§Ù„ØµØ¹ÙŠØ¨
##Ø£ÙØ±Ø§Ø¯
##Ø§Ø³ØªØºÙ
ÙˆØ§Ù„ØºØ§Ø²
Ø¨ÙˆØ³Ù„ÙŠÙ…
ÙˆØ§Ù„Ø«Ù‚Ø§Ù
Ø±Ø­Ø§Ø¨
ÙˆÙ‚Ø¶ÙŠØª
##ØªØ§Ø¹Ùˆ
##Ø¨Ø·ÙŠØ¦
Ø§Ø§Ù…Ù„Ø§Ø¹Ø¨ÙŠ
ÙŠÙØ¶Ø­Ùˆ
ÙŠÙ†Ø³Ø­Ø¨
Ø­Ø±Ø§ÙŠÙ…ÙŠ
Ø§Ø­ØªØ±Ø§ÙÙŠ
Ø¨Ø±Ø´Ø´Ø´
##Ø¥Ø³ØªÙØ²Ø§Ø²
Ù‡ÙƒØªØ§Ø±Ø§
Ø§Ù„ØªÙ‡Ø¯ÙŠØ¯
Ù†ÙˆÙÙ…Ø¨Ø±
Ø±Ø¡
Ø§Ù„Ù…Ø¯Ø±Ø³ÙŠ
Ù„ØªØ­Ø±
ØªÙ‚Ø¯Ø³
ÙˆØºÙ†Ø§Øª
Ø§Ù„Ù…Ø§ÙƒÙŠÙ†
Ù…Ø¶Ø§Ø¹Ù
Ø§Ù„Ù…ØµÙˆÙ†
Ø³Ø§Ù†ØªÙˆ
Ø§ØµÙ†Ø§Ù
Ù…ÙŠØµÙ„ÙŠ
ÙˆØ§ÙˆÙ‚Ù
##Ø²ØºØ±Ø¯
##ØªÙØ¬ÙŠØ±Ø§Øª
ÙˆØ²Ù…Ù„Ø§Ø¦
Ù…Ù†Ø­ÙˆØª
ÙŠØªÙ„Ø§Ø¹Ø¨
Ø¨Ø±ÙŠÙ‚Ù‡
Ø§Ø®ØªØ±Ø§Ø¹
Ù…ØªØ®Ù„Ù‚
Ù„ØµØ­Ø§Ø¨
##Ù†Ø³ØªÙØ§Ø¯
Ø±ÙˆØ§ØªØ¨
Ø§ÙˆØ¬Ø§Ø¹
Ø§Ù„Ø³Ø±ÙŠØ¹
Ø¹Ù…Ø§Ù…
Ø¨Ø±Ø§Ø§Ø§Ø§Ø§ÙÙˆÙˆÙˆ
Ù…Ø³ÙˆÙˆÙ„ÙŠÙ†
Ù…Ø®ØªØ±Ø¹
##Ø¸Ø§Ù
ÙˆØ®Ø§ÙŠÙ
Ù„Ù„ÙÙ†
##Ø§Ù†ÙˆØ«
##Ø·Ø§Ù
Ù…Ø¹ØªØ¯
ØªØ³Ø¹ÙŠÙ†
Ù…Ø§Ø­Ø¨ÙŠØª
Ø°Ù‡Ù†ÙŠ
Ø¢Ø®Ø°
##Ø¯ÙŠØ²Ù„
ÙˆØªØ¨Ø±Ø¹
Ù„Ù„Ø¢Ø®Ø±
ÙŠØºÙ„Ø¨
##Ø­Ø¸Ø©
ØªØªØ·Ù„Ø¹
##Ù†Ø¹Ø±ÙÙˆ
Ø§Ù„Ø°Ø¡
ØªØµÙ„ÙŠØ­
ØªØ®Ø¶Ø¹
Ø§Ø¹Ø¯Ø§Ø¦
Ø£ØµØ§Ø¨
Ø§Ù„Ù‡Ù„Ø§Ù„ÙŠ
Ø§Ù„Ø£Ø¬Ù†Ø¨ÙŠ
Ù…Ø±Ø±Ø±Ø±
Ù„Ø¨Ù†ÙŠ
Ø§Ø³ØªÙ…Ø¹
##ØªÙ‡Ø¯Ø±
Ù„Ø§ÙŠØ¹Ù†ÙŠ
##ØªØ²Ù„Ø²Ù„
Ø¨Ø·Ø±ÙŠÙ‚ØªÙ‡
Ù„Ù…Ú¨
Ù†Ø¬Ø±Ø¨Ù‡Ø§
ØªØªÙ‚Ù„Ù‚
ÙˆÙ…Ù†ØªØ®Ø¨
ØªØ¯ÙˆØ³
Ø´ÙƒÙˆØ¨ÙŠØ³ØªØ§Ù†ÙŠ
Ø§Ø¶Ø¹ÙŠÙ
##ØªÙ‡Ø¶Ù…
ØªØ®Ø°Ù‡Ø§
ÙˆØ­Ø§Ø¶Ø±
##Ø§ØµØ§Ø¨Ø¹
##Ù‡Ø§Ø§Ø§
Ù…Ø¹Ø±ÙÙˆÙ†
ÙˆØ§Ù„Ø¹Ø±
Ø§Ù„Ù…Ø³ÙˆÙ†ÙŠ
Ø§Ù„Ø±ÙƒØ¨Ø©
##Ø¥Ø®Ø±Ø§Ø¬
##Ø§Ù†ØªØ­Ø§Ø±
ÙŠÙ‚Ø±Øµ
Ø£Ù…ØªØ¹
Ù…ØªØ§Ø¬Ø±
##Ø²Ù…Ø§
##Ù„Ø§Ø®
##ØªØ¯Ø±ÙŠØ¬
ÙˆØ·Ø­Ø§
Ø§Ø¹ØªØ°Ø±
ÙˆÙŠÙƒØª
Ø¨ÙˆÙ…Ø§ÙŠ
ØªØ´ØªØ±
Ø§Ù„Ø³Ù†ÙØ±
Ø¨Ø§Ù„Ø­ÙƒØ§ÙŠ
Ø¹Ø·ÙŠØªÙ‡
ØªØ±Ø­Ø¹
ÙˆÙ…Ø±Ø§Ù‚Ø¨
Ø§Ù„Ø§Ø«Ø§Ø±
Ø­Ø´ØªÙ†Ø§
ØªØºÙ„Ù
Ø¨Ø§Ù‚Ø±Ø¨
##ÙˆØ±Ø¨Ø§
ØªØ¹Ù‚Ø¯
Ù†Ø§Ù‡Ø¨ÙŠ
Ø·Ø§Ø¹
Ù†Ø³Ù†
##Ù†Ø¹Ù„Ø¨Ùˆ
ÙŠØ¨Ù„Øº
##ØªØµØ¨Ø­
Ø®Ø°ÙŠÙ†Ø§
Ø§Ø¹ØªÙ‚Ø§Ø¯
Ù…Ø§ØªÙØ±Ø­
Ø§Ù„ØªØ¹ÙˆÙŠ
Ù…Ø±ÙŠØ¸
Ø£Ù‚Ù†Ø¹
Ù…ØµØ¯Ù‚ÙŠÙ†
Ø§Ù„Ø§Ø³Ø¹Ø§Ù
Ù†ØªÙ†ÙØ³
Ø³Ø§Ø¯Øª
Ø®Ù†
Ù‡Ù†Ø§Ø§Ø§
##Ø³Ø§Ù…Ø­Ùˆ
Ù‚Ù†Ø¨Ù„
Ù…ØªØµØ¯Ø±
ÙˆÙ†Ø±Ø¬Ø¹Ùˆ
ÙˆÙ‚ØµÙŠØ±
Ø§Ù†Ø­Ø¨Ùˆ
Ø§Ù†Ù‚Ù„Ø¨
Ø®ÙŠÙŠÙŠÙŠÙŠÙŠÙŠ
##Ø§Ù„ÙƒØ§Ù
Ø¨Ø·ÙÙ„
##ÙŠØ³ØªÙÙŠÙ‚
ØµÙˆÙ†
ØªÙ…Ø±ÙŠØ±
ÙØ§Ø¶Ø­
Ø°ÙƒØ±ÙŠØ§Øª
ÙˆÙ†ÙˆÙ„Ø¯
Ø§Ù‚Ø¨Ø­
Ø§ÙŠÙ‚Ø§Ø¹
##Ù†ØªÙÙƒØ±
Ù†ÙŠÙˆØ²
##Ø®Ù„ØµÙ„Ùˆ
ØªØ³ÙŠØ¨
ÙØ±Ø§Ù†Ø³Ù‰
Ù‚Ø·Ø¹Ù†Ø§Ù‡
Ø³ÙŠÙ†ÙŠØ§Ù„
Ø£ØµØ±Ù
##Ø±Ù…Ø§Ù†
Ø§ØªØ­Ø¯
##Ø¥Ù‚Ø¨Ø§Ù„
##Ø§Ø³ØªØ¬ÙˆØ§Ø¨
ÙŠØ®Ø¯Ø¹
Ø§Ù„Ø¥Ø®ØªØ±Ø§
Ø§Ù„Ø³Ù…Ø³Ø§Ø±
ØªØ¹Ùˆ
##Ø¨ÙŠÙˆÙ„ÙˆØ¬ÙŠ
ÙˆÙ…Ø¬Ø¯Ù‡
##Ø¬Ø¹Ù„Ùƒ
ÙŠØªØ­Ø±Ùƒ
Ø²Ù„Ø²Ù„
Ø§Ù„Ø¶ÙŠÙ
Ø§Ù„Ø¥Ù†ØªØ§Ø¬
Ø¨Ø®Ù„Ø·
ÙØ§Ù„Ø¯ÙˆÙ„
##ØªØ­Ø¯Ø§Ùƒ
Ø¹Ø±ÙÙˆÙ†Ø§
Ø§Ù„Ù…Ø§Ø¬Ù†
Ù‡Ø§Ù‡Ø§Ù‡Ø§
ÙŠØ¤ÙƒØ¯
ÙˆØ¨ØµØ±Ø§Ø­
Ø®Ø§Ù…Ø³
Ø¨Ø§Ù„Ø±Ù‚ÙŠ
Ù…ØµØºØ±
##Ú¨Ø±ÙŠ
Ø±Ù‡ÙŠÙŠÙŠÙŠ
##Ø¹Ù„Ø§
ÙŠÙØ¸Ù„Ù‡Ø§Ù„
Ø§Ù„ÙƒØ±ØªÙˆÙ†
Ù†Ø¨Ø¯
Ø§Ù„Ø·ÙÙˆÙ„Ø©
ÙŠÙˆØªØ±
ØªÙØ³Ø®
ÙˆØ·Ù…Ø§Ø¹
##ØµÙ†Ø§Ø¹ÙŠ
Ø®Ø®Ø®Ø®Ø®Ø®Ø®Ø®Ø®Ø®
ØªØµÙÙŠÙ‚
ØªÙ‡Ø¯ÙŠ
Ø§Ù„Ù†ØµØ§Ø¨
Ø§Ù„ØªÙˆØ¶ÙŠØ­
ÙˆØ§Ù„ÙƒÙØª
Ø±ØºØ¨Ø§Øª
ØµØ¯Ø§Ù‚Ùˆ
ØªÙˆØ¬ÙˆØ±
Ù…ÙŠØ¬ÙŠØ¨
##Ø´Ù‡Ø§Ø¯Øª
##Ø¹Ø§Ø¯ØªÙƒ
Ø£ÙÙ‚Ø±
ØªØ³Ù„Ù…ÙŠÙ„
##ÙˆØ®ÙŠØ§Ù†
Ù†Ø´ØºÙ„
000000
ÙŠØªØ­Ø¯
Ù…Ø§ØªÙˆØ±ÙŠ
Ù„Ø¨Ù„Ø§Ø¯Ùƒ
Ø§Ù„Ø´Ø§
Ø¯ÙŠØ±Ø¨
Ø§Ù„Ø³Ø¨ÙŠØ·Ø§Ø±
ÙˆØ§Ù„Ø±Ø´Ùˆ
Ø±ÙŠÙˆØ³
##Ø§Ù„ØºÙŠØ§Ø±
Ù…Ø§ØµØ§Ø±Øª
Ø¨Ø§Ù†ØªØ¯
##ØªØ¬ÙˆØ²
##Ø¹ÙˆØ§Ù…
Ø§Ù„Ø¬Ø±Ø¨ÙˆØ¹
ÙˆÙˆÙ‚Øª
ÙŠØ®Ø°
ÙŠØ³ØªÙ‚ÙŠÙ„
ÙŠØ®Ù…Ø¬
Ø§Ù„Ø³Ù„Ø§Ø·
ÙŠØ§Ø§Ø§Ø§Ø§Ø§Ø§Ø§
ÙˆØ§ØµØ¨Ø±
##Ø±Ø¤
##ØªÙ†Ø´ÙŠØ·
Ø¨ÙŠØ¹Ù‡
ÙˆØ§Ù…Ùˆ
Ù…ØªØ­Ø±Ùƒ
ÙˆØªÙ…ÙŠØ²
Ù…ØªØ¨Ø¯Ù„
Ù‚Ø§Ø·Ø¹
Ø®ÙØ§Ù
Ù„Ù„Ø²Ù…Ø²
ØªÙ…ÙˆÙŠÙ‡
ÙŠØ³Ø§ÙˆÙŠ
Ø¨ØªØ§Ø±ÙŠØ®
Ù†Ø£ÙŠ
##ÙˆØ¬Ø¨
Ù„Ù…Ù†Ø²Ù„
Ù†ØªØ±Ùƒ
ÙˆØ¬Ø§Ø±ÙŠ
ÙˆØ±Ø®Ø§
##Ù†ØºÙˆÙ„ÙŠ
ØªØ±Ù‚Ø¨Ùˆ
Ø±Ø¶Ø¹Øª
ÙƒÙˆØ³Øª
##Ø§Ø³Ù…ÙŠ
Ø§Ù„ØªØ­ÙÙˆÙ†
Ù„Ø§Ùƒ
##ÙŠØ¤Ø·Ø±
Ø´Ø¨Ø§Ø¨Ù‡
Ù…Ø§Ø®Ù„Ø§Ù†ÙŠ
Ù…Ù†Ø¸Ø±Ù‡
Ø³Ø®Ø·
Ù„ØªØ±Ø§Ø«
Ø·Ù†Ø´ÙŠ
ÙˆØ´Ø±ÙŠ
##ØªØºÙØ±
Ù†ØªØ¹Ø±Ù
##ØºÙŠØ«Ùˆ
Ø´Ø§Ø´
Ù…Ø±Ø§Ø±Øª
ØªØ®Ø¨Ù„
ÙˆØ§Ù„Ø¥Ø¹Ù„Ø§Ù…
Ø§Ù„Ù„ÙˆØº
ÙˆÙŠÙ‡Ù†ÙŠ
ÙˆØªÙØ¹Ù„
##Ø§Ù„Ø¨ØªØ±ÙˆÙ„
Ù‡Ø§ÙƒØ¯Ø§
Ø¨Ø²ÙˆÙ„
Ø¬ÙˆØ¯
Ø°Ø¨ÙŠØª
Ø¬Ø§ÙˆØ¨Ù†Ø§
##Ø±ØªÙŠÙƒÙ„
##ÙƒØ¹Ø±Ø±
ØªØ¹Ø§Ù„ÙŠÙ‚Ùƒ
##Ø£Ø¹Ù†Ø§Ù‚
Ø¨Ø±Ø¯Ù‡Ø§
Ø³ØªÙ‚ÙˆÙ„
Ù…ØªØµÙˆØ±
Ø°Ø§Ù‚
Ø¡Ø§Ù…
ÙˆØ§Ù„Ø§ÙƒØª
ÙˆØªØµÙŠØ±
Ø§Ù„Ù…ØªÙ„Ù‚ÙŠ
Ù…ÙŠØ³ÙŠÙˆ
##Ø¥ÙŠÙ‡Ø§Ù…Ù‡
Ø§Ù‚Ø§Ø±Ø¨
##Ù†Ù†ØªØ®Ø¨Ùƒ
Ø¶ÙØ±
Ø§Ù„Ø¬Ø§Ø¦Ø¹
##ÙŠÙŠÙŠØ¨
ØªØªÙˆÙ‚Ù
ØªØ²Ù„Ø·
Ø¨Ú¨Ù„Ø¨
Ø§Ù†Ù‚Ø·Ø¹
Ø¨Ø¤Ø±
Ø§Ù„Ø¨Ø±ÙŠÙƒ
Ø¬ÙˆØ¹Ø§Ù†
ÙŠØ´ÙŠØ®
Ø¨Ø­Ø§Ù„Ù†Ø§
##Ù…Ø±ÙˆØ§
ØªØ®Ù…Ø¬
##Ø¹Ø¹Ø¹Ø¹Ø¹Ø¹Ø¹Ø¹
Ø¨Ù…Ù„Ø¹Ø¨
ÙˆÙ…Ø±Ø®Øµ
Ø³ÙŠØ§ÙŠØ³
##Ø­ÙÙŠØ¸
Ø¥Ù†ØªØ¸Ø±
Ù…Ø¬Ø¨Ø¯
##ØªØ¬Ù†Ù†
Ø§Ù„ØªØ­Ø±Ø±
Ù…ØªØ¨Ø§Ø¹
Ù„Ø¨Ø¯
ÙƒÙØ§Ø¦
Ù„Ù„Ù…ØºØ§Ø±Ø¨
Ø¹Ø±Ø§Ø¨ÙŠ
Ù„Ø¨Ø¹Ø¶Ù‡
Ø®Ø§Ù„Ù‚Ù‡
##ØªÙˆØ³ÙŠØ¹
##ØªØ¨Ø±Ø§ÙƒÙŠ
Ø§Ù†Ø®Ø±Ø·
Ù„Ù„Ø§Ù†ØªØ®
Ù†Ø­Ø¨Ø³
Ø·Ø§Ù„Ù‚
ÙŠØªÙƒØ±Ø±
##Ú¨Ø§
ÙˆÙ„ÙˆØ§Ù„Ø¯
##Ù„Ù…Ø³Ù„Ù…
##Ø¥Ø¹Ø§Ø¯
##Ø§Ù„ÙŠÙÙˆ
##Ø§Ù„Ù†ÙÙŠØ³
Ø¹Ø´ÙŠØª
Ù„Ù„Ø£Ù…
##Ø¨Ù„Ø³Ø§Ù†Ù‡
Ø¨ØªÙ„ÙŠÙÙˆÙ†
ÙŠØ·Ø±Ø¨
ØªØ´Ø±ÙÙ†Ø§
##Ø±Ø²ÙŠÙ†
Ù†Ù†Ù‚Ø¯
Ø§Ù„ØµÙ†Ø§Ø¯ÙŠ
Ø¨Ø§Ù„Ø­Ù…Ù„
##ÙŠØ¯Ùˆ
##ØªÙ…Ø§Ø³Ùƒ
ÙˆØ±Ù…Ø²
ÙˆÙ…Ø¹Ø±Ù
##Ù…Ø®Ø§Ø®
ÙˆÙ…ÙˆØ¬ÙˆØ¯
Ø®Ø¶Ø±Ø§
##Ù…ØªØ§ÙƒØ¯
##Ù…Ø³Ø­ÙˆÙ‚
Ø²ØºØ±
Ù„Ù„ÙØªÙ†
Ø§Ù„Ø¨Ø¯Ø§
Ù†Ø±ÙŠØ´
ØªÙ…Ø´Ù‰
ØªØªÙƒØ¨Ø±
##Ø«Ø¨Øª
Ø§Ù…Ø¹
Ø§Ù„Ø³Ø§Ø¨Ø¹
ØªÙˆÙˆÙ†Ø³
Ø§Ù„Ø¥Ù†Ø³Øª
Ù„Ø¥Ù‚ØµØ§Ø¡
ÙˆØ£ØªÙˆ
ÙˆØ´Ø¯ÙŠØª
##Ù…Ø¶Ø­Ùƒ
ÙŠÙ†Ø¨Ø­Ùˆ
##Ø³Ø§Ø¨Ù‚
ÙŠØ¨Ù„Ùˆ
ÙˆÙŠÙ‚Ùˆ
Ø¹ÙŠÙ„Øª
ÙˆØ§ÙØ¹Ø§Ù„
Ø§Ø³ØªÙØ³
ÙŠÙ†Ø¹ØªÙˆ
##Ø±Ø§ÙŠØ­ÙŠ
ØªØ¯Ø±Ø³
Ø«Ø§Ù†ÙˆÙŠ
ÙˆØªÙ‚Ø¯Ø±
##Ù…Ø§Ø±Ø³
ÙˆÙ…Ù†Ø­Ø¨Ùˆ
Ù†Ø§Ø¯ÙŠÙ‡
##Ù…ØºØ¯ÙˆØ±
Ø³ØªØ±ÙˆÙ†
Ù…Ø§ØµÙ„Ø­
Ø¨Ø£ÙŠØ¯ÙŠ
ÙˆØ§Ù„Ù…ØµØ§Ø¯
Ø§Ù„ØªØ±ÙˆÙŠ
Ø£Ø¬Ø²
Ù‚Ù„Ù†Ø§Ù„Ùƒ
ÙˆØªØ¬Ø¹
##Ø´Ø±ÙŠ
Ø§Ù„Ù…ÙˆØ±ÙŠØªØ§Ù†ÙŠÙ†
Ø¨Ø§Ù„Ù„Ø§Ù‡
Ø£ØªÙØ±Ø¬
##ÙŠÙ‚ÙˆÙ„Ø´
##Ø®Ø±Ø¬Ù‡
##Ø±Ø§ÙŠÙŠ
Ø§Ù„ÙƒØ§Ø±Ù‡
ÙˆÙ…Ø§Ø³Ø·
##ØªØ­Ø±Ùƒ
ÙˆØ§Ø­Ù…ÙŠ
##ÙŠØ®Ù„ÙŠÙ‡Ù…
ØªØ³ØªØ­
ØªØ¬Ø§ÙˆØ¨Ùˆ
39
Ø§Ù„ØµØ¯
Ù…ØªØ¹Ù„Ù‚
ØªÙØªÙ†
Ø§Ù„Ù…Ø³Ù…
Ù†Ø¶Ø±Ø¨
##Ù„Ø§Ù†Ø¯
##Ø§Ø·Ù‚
Ù…ÙƒØ±ÙˆÙ†
Ù†Ø­Ø·ÙˆÙ‡
##Ù…Ø³Ø·
Ø¨Ø§Ø¨Ø¯Ø§Ø¹
##Ø¥Ù„ØªØ²Ø§Ù…
ØªØ±Ø¶Ø¹
Ø¥ÙÙ‡Ù…
ØºØ§Ù…Ø¶
Ù†ØµÙŠÙ
##Ø¨Ø¹Ø¨Øµ
##Ø¬Ø²Ø§Ø¦Ø±ÙŠØ©
Ø£ØµÙˆÙ†
##Ù„ØªÙ…ÙˆÙŠÙ„
Ø§Ù„Ù†Ù‡Ø§
ÙŠØ´Ø±Ø¹
##Ù„Ù…Ø·Ø§Ù„Ø¨
Ù…Ù†Ù‚Ø§Ø¯
ØªÙˆØµ
##Ø±ØªØ¨Ø©
Ø¹Ø§Ù‚
Ø­Ø§Ø±Ù‚
ÙŠØ¹ØªØ²
Ù†ÙŠØ§Ùƒ
Ø¨Ù…Ø¹Ø·ÙŠØ§Øª
ÙˆØ«Ù‚Ø§Ù
Ø§Ù„Ø´ÙƒÙˆØ¨ÙŠØ³ØªØ§Ù†ÙŠ
Ø§Ø®Ø®
Ø¥Ù‚ØµØ§Ø¡
Ø¬Ø¹Ù„Ùˆ
Ù†ÙˆØ±Ù…Ø§
##Ù…Ø´Ø§Ù‡Ø¯
Ø§Ù†Ø¹Ù‚
ÙƒÙˆÙ†Ø·Ùˆ
Ù†ÙÙˆØ°Ù‡
Ø´Ø§Ø­
Ù…Ø­Øª
ØµØ¨Ø§Ù†
Ù…ØµØ±ÙˆÙ
##Ù„Ù…Ù†ØªØ®Ø¨
Ø§Ù„ÙØ§ØµÙ„
Ù…ÙŠÙ…Ø³
ØªØ±Ø²Ù‚
Ø­Ø±Ø§
Ù‡Ø§Ù„Ù
##Ù„ØµØ§Ù„Ø­
Ù…Ø³ÙˆÙ‚
ØªØ¨ÙˆØ³
##Ø£Ù„Ø§Ø¹ÙŠØ¨Ùƒ
Ø¬Ø°ÙˆØ±
Ø§Ù„Ø­Ù†Ø§Ù†
Ù…ØªØ´Ø±Ù
Ø§Ù„ØªÙˆÙ†
Ø·Ø¨Ù‚Øª
Ù„Ø§ØªØ¯Ø±
##ÙˆÙ‚Ø¹Øª
ØªØ¨Ø®Ø±
##Ø·Ù„Ø¹ØªÙˆ
Ø§Ù„Ø¹Ùƒ
##ÙˆØªÙˆØ¶Ø¹
Ø§Ù„ØºÙŠØ§Ø±ÙŠ
Ù†ÙƒÙˆØ±Ùˆ
Ø¨Ø§Ù„Ù…Ø¬
Ø³ÙŠÙ‚Ù
Ø§Ù„Ø³Ø¨Ø§Ø¹
ÙˆØ§Ù„Ø¨Ù„Ø§
Ø§Ù„Ù‚Ø²
Ø§Ø§Ø¨Ø§Ø±
Ø¬Ø§Ù…Ø¯
##Ø«ÙˆØ¨Ùˆ
Ù„Ù„Ø±
ÙˆØ§Ù„ØµØ±Ø§
ÙˆØ§Ù„ÙƒØ±Ø§Ù…
ÙÙŠØ¨Ø§Ù„Ù‡Ø§
Ø§Ù„ØµØ±Ø§
Ø¯Ø±Ø§Ø´
ÙØ§Ù„Ø¨Ù†
Ø§Ù†Ø¨Ø·Ø§Ø­
ÙˆØºØ§ÙŠØ§Øª
ÙŠØ§ØªÙŠ
Ù„Ù„Ø¹ÙŠØ´
Ø§Ù„Ù…Ø±Ø¬Ø¹
Ø¨Ø§Ù†ÙØ³
Ù…Ø³Ø­Øª
Ø¨ÙˆØ¬
##Ø²Ø±Ø¹Ùˆ
Ù…Ø¬Ø§Ù„Ø³
ØªØ´Ø±Ø·
Ø³Ø§Ù„ØªÙˆ
Ø·Ø­Ù†Øª
Ø±Ù‚Ø§Ø¨ÙŠ
ÙƒÙˆØ¨ÙŠ
ÙˆØªØµÙˆÙŠØ±
##Ø²Øª
Ø¶Ø±Ùˆ
ØªÙ„ÙˆØ«
##Ø³ØªÙŠ
##Ù…Ù…ÙŠØ²
##Ø¯Ø®Ù„Ùˆ
Ù†Ø´Ø£
##ÙˆØ¨Ø¹Ø¯
##Ù…ÙŠÙƒØ§Ù†ÙŠÙƒ
##Ø¨ÙŠØ¨
Ù†Ø­Ø¶Ø±Ùˆ
##Ù„Ø¨ÙˆÙ…Ø§ÙŠ
Ù„Ù„ØµÙ
ÙŠÙØ¶Ù„Ù‡Ù…
ÙˆØªØ±Ø´ÙŠ
Ø±Ø§Ø¡Ø¹
Ø§Ù„ÙØ§ÙŠ
##ØªÙ„ÙˆØ«
##Ø§Ù„Ø¬ÙˆØ§Ø±
Ù„Ù‚ÙŠØ·
Ø§Ù†Ø²Ø§Ù„
ÙˆØµÙ…
ÙØ§Ù„ØµÙˆØ±
Ø¨Ø®Ù„Ø§Øµ
##Ø§Ù‡ÙŠØ±
Ù…Ù†ØªÙˆØ¬Ø§Øª
Ø¨Ø§Ù„Ø­ÙŠØ§
##Ù†Ø¯ÙˆÙƒ
##Ø¥Ø¹Ù„Ø§Ù†
##Ø£ØµØ­Ø§Ø¨
36
ÙŠØ­Ø§ÙƒÙ…
Ø±Ø·Ù„
Ø¨Ø§Ù„Ø±Ø´
Ø§Ù„Ø¹Ù‚Ø§Ø±ÙŠ
ØªÙÙƒØ±Ùˆ
##Ø§Ù„Ø²
ØªØµÙ
ÙˆØ§Ù„Ø´Ø±Ø¨
Ø£ÙˆØ§Ù…Ø±
##ØªØªÙ‡Ø¯Ø¯
ØªÙ†Ø¸Ù
Ø§Ù…ØªØ¯
Ø§Ù†Ø¶Ø±Ùˆ
Ø£Ù„ÙˆÙ…
ØªØ±Ù‡Ø¨
Ø§Ù„Ø¥Ù†ØªØ­Ø§
Ø¬Ø§Ø¹
Ù„Ø§Ø¹Ø§Ø¯
ÙˆØ±Ø§Ø¡Ùƒ
Ø¨Ø¹Ø«Ù„Ùƒ
Ø§Ù„Ù‚Ø·Ø±
##ÙŠÙˆÙ„ÙŠ
Ù…Ø®Ø§Ø·Ø¨
Ø¥Ø³ØªØºÙ„Ø§Ù„
Ø¨Ø´Ø¨Ù‡
##Ø§Ù„Ù‚Ø³Ø§Ùˆ
##ØºØ§Ø±Ùƒ
##Ù„Ù†Ù‚Ø§Ø´
Ø¬Ø¯Ø§Ø§Ø§Ø§Ø§Ø§Ø§Ø§Ø§Ø§Ø§Ø§Ø§
Ù„Ù„ØºÙŠØ±
##ÙŠØ§Ù„
Ø£ÙØªØ®Ø±
ÙŠØ³ØªÙ‚ÙŠ
##Ø¬Øª
ÙˆØ§Ù„Ø¨Ø§Ø¬
ØªØ¬Ø¯ÙˆÙ†
Ø®Ø§Ø§Ø§
Ù…Ø³Ø§Ù†Ø¯ÙŠÙ†
ÙˆØ®Ø§Ø±Ø¬
##Ø¨Ø¯Ø¹
ØªÙ„Ù…ÙŠØ°
ÙŠØ§Ø³Ø±Ø§Ù‚
##Ù†Øµ
ÙˆØ´Ø±ÙŠÙƒ
ÙŠØ­ÙØ¸Ù„
Ø¨Ø£Ù…Ø±
Ù†ØµÙˆØª
##Ø±Ø®
Ù„ØªØ±Ø¨Ø­Ùƒ
##Ø±Ø§Ù‡Ùˆ
Ø¨Ø§Ù„Ùˆ
##Ø·Ø±Ø­Øª
Ø²ÙƒÙŠ
##Ø®Ø³Ø±Øª
ÙˆØ§Ù„ØªØ±Ø§Ù
ØªÙˆÙ„Ø¯Ù†Ø§
ÙØ¸ÙŠ
Ù„Ù„ØªØ±Ø´
##Ù‡Ø§Ù„
ÙŠØ®Ø·Ø·
Ø§Ø®Ø·ÙŠÙƒ
##Ø§Ù„Ø¹Ù…Ø§Ø±ÙŠ
Ø´ØªØ­Ø¨
Ù…Ø§ØªØ®Ø§Ù
ÙŠÙƒØ³Ø¨
Ø§Ù„ÙˆØµÙˆÙ„ÙŠ
Ø¥Ø¯Ø¹ÙŠ
##Ø§Ù‡Ø±
##Ù…Ø­Ø§ÙƒÙ…ØªÙ‡
ÙƒÙŠØ´ÙˆÙ
Ø¨Ø±Ù…Ø¬
Ø¹Ù…Ù„ÙŠÙ†
Ø§Ù„Ù†Ø§Ø¦
ÙˆØªØ¹Ù„ÙŠÙ‚
Ø§Ù„Ø¶Ø±ÙŠØ¨
ÙŠÙØ±Ù‚
Ù…Ø§ÙŠÙ‚Ø¨Ù„Ùˆ
Ø¯ÙˆØ®Øª
Ø¨Ø­ÙƒØ§ÙŠ
Ø§Ù„Ø±Ø§Ø´Ø¯
Ø¨Ø§ØµÙˆØ§Øª
##ÙŠØ¨ÙƒÙŠ
ÙˆØ§Ø±Ø¬Ø¹
Ù…ØªØ±Ø¨
##Ø«Ø±Ù‡
ØªØªØ³Ù…
Ù…Ù†Ù‚Ø³Ù…
Ø¥ÙŠÙ‚Ø§Ù
Ù„Ø¹Ø²
ÙƒØ¨Ø±ÙŠØ§Ø¡
##Ø£Ù…Ø«Ø§Ù„Ùƒ
##Ù†Ø§Ù‚Ø´ÙˆÙ‡
##Ø§Ù„Ø­Ù‚
##ØªØ±ÙˆÙŠÙƒ
Ø§ØºÙ„Ø§Ø·
Ø£Ø¨Ø¯Ø£
##Ù…Ø·Ø§Ù„Ø¨
Ø§Ù„Ø¯Ø±Ø§Ø¬
Ù…Ø§Ù†Ø­
ØµØ±Ø§Ø¹Ø§Øª
##Ø¬Ø±Ø§Ø¨Ø¹
ØªÙ…Ù†ÙŠÙƒ
Ø­Øµ
Ø¬Ø±Ø¨Ù†Ø§
Ø¨Ø¶Ø±Ø¨
ÙƒØ¯Ø§Ø¨
##Ø§Ù„Ø¬Ø¨Ù„
Ø£Ø±Ø®Øµ
Ù„Ù„Ø´Ø±
Ù…ÙØªÙˆØ­
##Ù‡Ù„Ø§Øª
##Ø³ØªØ®Ø¯Ù…
Ù„Ø¥Ù†Ø³Ø§Ù†
Ø§Ù„Ù‚Ø§ÙˆØ±ÙŠ
Ø¬Ø¨Ø§Ù„
##Ø¹Ø§ÙØ§Ù†Ø§
##Ø§Ø¬Ø¯Ø§Ø¯Ùƒ
ÙŠØ´ÙØ¹
ÙˆÙƒÙ„Ù…Ø§
##ÙˆØ¯Ø¹
Ø§Ù„Ù…Ø·
Ù…Ø®Ù‡
Ø¨Ø§Ù„Ù„Ø¹Ø¨
ØªØ®ØµØ±
Ø§Ù†ÙˆØ«
Ø¨ØµØ§Øµ
##ØªØµÙˆØªÙ„Ùˆ
ØªØªØ¹Ø§
Ù†Ù‡Ø¨Øª
ØªØªØ¬ÙŠ
ÙŠÙ‡Ø§
##Ù„Ø­ÙŠÙ†
##ØµØ§Ù†Ø¹
Ø§Ù„Ø¥Ù…Ø¶Ø§Ø¡
Ù„ÙŠÙØ§Øª
##ÙŠØ¹Ø·ÙŠ
##Ù„Ø¨ÙŠØ±Ùˆ
Ø¨Ø§Ø±Ùˆ
##ØªØ§ÙƒÙ„
ÙˆØ¨Ø§Ø¹Ùˆ
Ù„Ø§Ø²
##Ø§ÙÙŠÙ†Ø§
ØªÙ…ÙŠØ²
##Ù†ØµÙŠØ¨
##ÙˆÙ„ÙŠØ¯Ø§Øª
Ù„Ù…Ù‚Ø§Ùˆ
Ø²ÙˆØ¯Øª
ÙÙ„Ø­Øª
Ø¨Ø§Ù„Ø®ÙŠ
Ø¨Ù„Ø®ÙŠØ±
Ø§Ù„Ù…ØªÙ…Ø¹Ø´
Ø£Ø¨Ù‚
ØªØ¨Ø§Ø±ÙƒÙ„Ùƒ
Ø¹Ø§Ù„Ø£
Ø£ØªÙ…
Ø°Ø§ØªÙŠ
ØªØµÙˆØ·
Ù†Ø§Ø²Ù„
##Ø§Ù„ÙØ¶Ø§Ø¦
##Ø§Ø¦Ø³
ÙŠØ²Ø­
ÙˆØ¹Ø¯ÙŠÙ…
##Ø§Ù„Ø¬Ø§Ù…Ø¹
ØµÙ‡Ø±
Ù„Ø¹Ø±
##Ø£Ù†Ùƒ
Ù…ØªØ³Ùˆ
Ù‡Ø§Ø§Ø§Ø§Ø§Ø§
ØªÙ‚Ø³Ù…
##Ø±Ø¬Ø¹ÙŠÙ„ÙŠ
ÙŠØ±Ø¨Ùˆ
Ø§Ù„Ø­Ù†Ùƒ
Ù…Ø±Ø¹Ø¨
Ù‡Ø¬Ø±
ÙˆØ§Ù„ØµÙ‚
Ø¹Ø·Ù„
Ø¨Ø¨Ù„Ø¯
##ÙˆÙƒØ¨
##ØªÙˆÙÙŠØ±
ÙˆØ§Ù„Ù…Ø¹Ù†
##Ø¥Ù‚ØµØ§Ø¡
Ø´ÙÙ†Ø§Ùƒ
Ø§Ø¹Ø·Ø§Ù‡
##Ø£Ø®Ù„Ø§Ù‚ÙŠØ§
Ù†Ø³ÙŠØ±
Ù†Ø´ØªÙƒ
##ÙØ§Ù‚Ù‡
Ù‡Ø§Ø²ÙŠÙ†
Ø§Ù‚ØªÙ„Ùˆ
##Ø¯ÙˆØ§Ù†
Ù†ØºÙ„Ø·
Ù…ÙˆØ¹Ø¯
ÙˆÙØ§Ø³Ù‚
ÙˆØªØ´ÙˆÙÙŠ
ØªØ¹ÙˆÙ†ÙŠ
Ø§Ù„ÙØ§Ø²Ø¯
ØªÙƒÙ„Ù
ÙØ¯ÙŠÙˆØ§
##Ø·Ø§ÙŠÙÙŠ
Ø¨ØªÙ‚Ø±
ÙˆÙ†Ù‚Øµ
ØªÙ‡Ù„Ùƒ
ØªØ³ÙƒØ±Ùˆ
ØªÙÙ„Ù‚Øª
ÙŠØ´ØªØ±ÙŠ
Ø¶ÙŠØ§Ù
Ø¨Ø·Ø¨Ø¹
##Ù‚Ø°Ù
##ØªÙ…ÙˆÙŠÙ„Ø§Øª
Ø¥Ø¨ØªØ³Ù…
##ØªØºØ°ÙŠ
Ø­Ù„ÙØª
ØªÙ…Ø«
##Ø³ÙŠØ§Ø³
##Ø±Ø§Ø¬Ø¹
##ÙŠÙÙ‚Ø¯
##ÙƒÙˆÙ„Ùˆ
ÙƒÙ‡Ø±Ø¨
##Ù‡Ù„Ø©
ÙˆØ¶Ùˆ
##Ù…Ù†Ù‡Ø¬
##Ø§ÙŠØ¶Ø§
ÙŠØµØ§Ø±
##ÙˆØ¹Ø¯Ùƒ
ÙŠÙˆÙ…ÙŠØ§
Ø§Ù„ÙÙŠØ³Øª
##Ø³Ø§Ù†ÙØ§Ø±
Ø¨Ø±Ø§Ø§ÙÙˆÙˆÙˆ
Ù„Ø¥Ù†Ù‚
ÙˆØ­Ø·
ÙˆØ§Ø±Ù‚
ÙˆÙƒØ±Ù…Ùƒ
Ø´Ø¯Ø®Ù„Ù‡
Ù†ÙˆØ§Ù„ÙŠ
Ø¥Ù†Ù…ÙˆØª
Ù„Ø¶Ø¹Ù
Ø£Ø¬Ù„Ù‡
##Ø£Ù‚Ø§Ø±Ø¨
Ù…Ø­ÙØ¸
Ù…ÙˆØ¶ÙˆØ¹ÙŠ
ÙŠØ¨Øµ
##Ø³Ø®Ø·Ù‡
##ÙŠØ¹Ø±ÙÙˆÙ†
##Ø³ØªØ·Ø§Ø¹
##Ù†ØµÙˆØªÙˆ
Ù„Ù„ÙØª
ÙŠØ´Ù
ÙˆÙŠØ³Ù‡Ù„
ÙˆØ±Ø§Ù‚
Ø£Ø­Ø¨Ø§
Ø¹Ø«Ø±
Ø§Ù„Ø§ÙŠØ¬Ø§Ø¨
ÙŠÙ…Ø³Ø®Ùˆ
Ø¨Ø§Ù„ØªÙˆÙ†Ø³ÙŠ
Ø¨Ø§Ù…Ø§Ù†
Ù†Ù‡Ø¯Ø±
Ù…Ø§Ø¹Ø¬Ø¨
Ø§Ù„Ù‚Ø´
Ø´Ù‡Ø§Ø¯Øª
Ù…Ø¯Ø§Ø®Ù„
Ø§Ù„ØµÙ„ÙŠØ¨
ØªÙˆÙˆÙˆÙˆÙˆÙˆÙˆÙˆÙˆ
ØªØªØ§Ø­
Ø§Ø´Ø¬Ø¹
Ø¨Ù†Ø§Ù‡
##Ø§Ø±Øº
Ø§Ù„Ø£Ø¨Ùˆ
##Ù‡Ø¨
ÙŠØ§Ù…Ø³Ø®
ÙŠØ¨Ø«
Ø§Ù„Ø¢Ù…Ù†
Ù†Ø´Ø±ÙŠÙ‡
ÙƒØ´Ø®
##Ù…Ø¹Ø§Ù†Ø§Øª
Ø£ÙˆÙ‡Ø§Ù…
##Ø±ÙˆÙ†ÙŠ
ÙˆØªÙˆÙ„Ø¯ÙŠ
##Ù„Ù‚Ø§Ù‡
ÙŠØ´Ù‡Ø±
ÙˆØªØ´Ø±Ù
Ø§Ù„Ù…Ù„ÙŠ
ÙˆØ¹Ø§Ù…Ù„
ÙÙƒØ§Ù†
Ù…Ø§ÙƒØªØ¨Øª
##Ø¹Ø¨ÙŠ
Ù…Ø§Ø¹Ù†Ø¯Ù†Ø§
##ØªÙ†Ø³Ø¨
##ÙˆÙˆÙˆÙˆÙˆÙˆÙˆÙˆØ±
ØºØ§Ø¶Ø¨
ÙˆØ¹ÙŠÙ†
##Ù„Ø¯ÙˆÙ„
##ØªØ·Ø§Ø¨Ù‚
##Ù„Ù…ØµØ±ÙŠ
Ù…Ø®ØªØ±
Ø¨Ø¨Ø±Ø§Ù…Ø¬
Ø·Ø²Ø²Ø²Ø²Ø²Ø²Ø²Ø²
Ø±ÙƒØ¹Øª
Ø­Ø§ÙØ¸ÙŠÙ†
Ø¨Ø£Ø¹Ù…Ø§Ù„
Ù„ÙˆØ¹ÙˆØ¯
##ØªÙ‚Ø´Ø¹Ø±
##Ø£ØµÙØ§Ø±
##Ù…Ø²Ø§Ù„
Ø§Ù„ÙÙŠØ³
Ù…Ù‚Ø±ÙŠÙŠ
##Ø¨Ø±Ø±Ø±Ø±Ø±Ø±Ø±Ø±Ø±Ø±
ØªØ³Ø¬Ù„
Ø£Ø¨Ø¯Ø§Ø§Ø§
ÙŠÙ…Ù†Ø­
##Ù…Ø§ÙŠÙ„
ÙˆÙŠØ³Ø§Ø¹Ø¯Ùˆ
##390
Ø¨ÙˆÙ†Ø¬
Ù„Ø¬Ø§Ø±
ÙŠÙˆÙØ±
Ø§Ù„ØªØ¹Ø§ÙˆÙ†
##Ø¨Ø¹Ø«ÙˆÙ‡
ÙŠÙˆÙˆÙˆÙˆÙˆÙˆ
ÙˆÙƒÙ…Ø´
Ø¨Ø§Ù„Ø¨Ø¯Ø§
##Ø£ÙˆÙ‚Ø§Øª
ØªØ¹ÙˆÙŠ
Ø§Ù…ÙŠÙ…Øª
ÙŠØ£ØªÙŠÙ‡
##Ø£Ø¬ÙˆØ±
Ø§Ù†Ø³Ø¨
##ÙŠØ­Ø¨
##Ø­ØµØ±ØªÙ‡Ø§
##Ø´Ù‚Ø§Ù‚
Ø¬Ø§ÙŠØ²
Ø§Ù„ØµØ¹Ùˆ
Ø¨Ø£Ø³Ù…
ÙˆØ·Ø±Ø¯
Ù…ØªØ­Ø¯Ø«
ÙˆØ§Ù„ØªØ¶
ÙˆÙ…Ø§ÙŠÙ†Ø¬Ù…
##Ø§Ù„Ø­Ù‚ÙŠØ±
ÙŠØ®Ø¨Ø±
##ÙƒÙˆÙ…Ø¯ÙŠ
ÙŠØ³ÙƒÙˆ
Ø¨ØµÙŠÙ
ØªÙƒØªÙŠÙƒÙŠ
ÙØ²Ø¯Øª
##Ø³Ø·ÙŠÙ†
Ø¥ÙØ±
ØªØºÙ†
Ø·Ø§Ù…Ø¹ÙŠ
##ØªÙ‚Øµ
##Ù„Ù‚Ø§Ø¦
Ø³ÙŠØ§Ø¯Ùƒ
ØªÙ‚ØªØ¶ÙŠÙ‡
Ù…ÙƒÙŠ
ØªÙ‚ÙˆÙ„ÙˆÙ†
ÙˆØ­ÙƒØ§Ù…
ÙˆØ³Ø°Ø§Ø¬
ÙˆØªÙ‚Ø§Ù„ÙŠØ¯
ÙˆØ§Ù„Ù…Ø¯Ù†
Ø±Ø­Ù„
Ù…ØªØ­ØµÙ„
Ø¨ØªØ¹Ø±Ù
ÙŠÙ†Ø³Ø¨
##ØµÙŠØ§Ù…
Ù†Ù‚Ø§Ø·Ø¹
Ø¶Ù†Ù†
ØªØ¹ÙŠÙŠÙŠÙŠ
##Ù…Ø±Ø¯ÙˆØ¯Ù‡
##Ø­ÙŠÙ„
Ù„Ø´Ø®Øµ
##ØªÙ†Ø¶Ù…
##Ø­ÙØ§Ø¯
##Ù…Ø¬Ø±Ù…ÙŠ
Ø§Ù„ØµÙ†
ÙˆØ§ÙƒØ¯
Ø£Ø¹Ø·Ø§Ùƒ
ÙˆØ§ÙŠØ¬Ø§
##ØªØ¬Ø§Ù‡Ù„
##Ø§Ø´Ù
##Ø´Ù‚Ù‚
Ù†ÙˆØ¬Ù‡
ÙŠØ§Ø±Ø­Ù…
ÙŠØ³Ù‡Ù„Ù‡Ø§
ØªØªØ±Ø´
##Ø²Ø²Ø²
##Ø·Ø·Ø·
Ø±Ø¯ÙŠÙ†Ø§
ÙˆØ§Ø¨Ù†Ø§Ø¡
##Ù„Ø§ÙŠØ²Ø§Ù„
##Ø²Ø§ÙŠØ±
ÙˆØ«Ø¨Ø§Øª
##Ø§Ù„Ø­ÙŠÙˆØ§Ù†
Ø§Ù„ÙØ³
ÙˆØ§Ø®Ø±Ø§Ø¬
##Ø®ÙŠØ±Ø§Øª
##Ø§Ù…Ø¨ÙˆØ±Øº
##Ø¹ÙŠØ´ÙˆØ§
Ø¹Ø¯ÙŠØªÙˆ
Ø§Ù„Ø²Ø§Ø¦Ø¯
##ØªØ¸Ø±
##ÙŠØ·Ùˆ
Ø§Ù„ØµØ­Ù
##Ù„ÙˆØ§Ø·
Ù„Ø¹Ù„Ù…
ÙˆÙ…ØµØ§Ù„Ø­
ÙŠÙ‚Ø¯Ù…ÙˆÙ†
##Ù‡Ù„ÙƒÙˆÙ‡
Ø³Ù‡Ø§Ù…
##Ø§Ø¤Ù„
##ØªÙ†ÙØ¹
##ÙŠÙ„Ù‡
Ø§Ù„Ù…Ù‚Ø¨Ø±
##Ù…ØªØ³ØªÙ‡Ù„
Ø±Ù‡ÙŠÙ†
Ù…Ø²Ù…Ø±
ØªØªÙØ¶
Ø§Ù„Ø§Ø³ØªØ¨Ø¯Ø§Ø¯
Ø³ÙˆÙ…
ÙˆØ§ØºÙ„
ØªÙØ¯Ù„ÙŠÙƒ
Ù…ØºØ²
##ØºØ§Ù†Ù…
##Ø§Ø¨ÙŠ
Ø§Ù„Ø¨Ø§Ø¨Ø§Ø±
##Ù†ÙˆÙ„Ø¯
Ù„Ù…Ø·Ø§Ù„Ø¨
ÙˆØ§Ù„Ù‚Ø¶
Ø¯ÙˆØ¨Ù„
##ØµØ¹
ØªØ³Ø¬Ù†
Ø§Ù„Ø³Ø§Ù‚Ø·
ÙŠØ¬Ù…Ø¹Ùˆ
##Ø´ØªÙƒ
##Ø³Ø§Ù‚
##Ø§Ù„Ø­Ø¯ÙˆØ¯
Ù‚Ø§Ø¦
Ù…Ù†Ø§Ù‚Ø¨
Ù„Ø®Ø§ÙŠØ¨
ØªØ®ÙŠÙ„Ùˆ
ÙÙ‚Ù„
ÙØ±Ù‡Ø¯
##Ù‚Ø§Ø·
##ØªÙ…ÙŠØ²
ÙˆØ·Ø¨Ø¹
Ø¨Ø§Ù„Ù…Ù†
##Ù…Ø±ØªÙ‡Ù†
##Ø£ØµÙŠÙ„
##ØªØµØ§Ø±Ø¹
ÙŠØµÙÙ‚Ù„Ù‡
Ø§Ù„Ù…Ø´Ù‚
##Ù…Ù‡Ø¨ÙˆÙ„
##Ø¨ØºØ·Ø±Ø³
ÙƒØ±Ø§Ø³ÙŠ
##Ø¨Ø¹Ø«ØªÙ„
##ØªÙƒØ¨ÙŠÙ„
ÙˆÙŠØªØº
ÙˆØ±Ø§Ø¶ÙŠ
##Ù„Ù†Ù‡Ø§Ø±
##ØªØ®Ø§Ù
##Ù„ÙˆØ²Ù†
Ø§Ù„Ø­ÙƒÙˆÙ…ÙŠ
##Ù…Ù„Ø·Ø®
##Ø­Ù…Ø²
Ø§Ù„Ø¹ÙÙ†
Ø¨Ø±Ø´Ø§Ø§
##Ø±Ø´ÙŠØ¯
##ÙÙˆØ±Ù…Ø§Øª
##ØªÙ†ÙØ®
Ø§Ù„ÙˆØ§Ù‚ÙŠ
Ø¨Ø§Ù„Ø§Ù…Ù„
##ÙÙ„Ø³Ø·ÙŠÙ†
Ø¨Ù‚Ù†ÙˆØ§Øª
Ø¨Ø¬Ø¯Ø§Ø±
##Ø³ÙŠØ§Ù‚
Ù…ÙƒØªÙˆ
##ÙŠÙ‚Ø§ÙŠØ¶
ØµØ¨Ø§Øª
##ØªÙ…Ù†Ø§Ù‡
##Ø§Ù„Ø«Ø§Ù„Ø«
Ù„Ø­Ù…Ø§Ù…
##Ø³ÙˆÙ„
Ø¨Ø³Ø­
Ø¨Ø¹Ø«Ù‡Ø§
ÙˆØ§Ù„Ø®Ø§Ø±Ø¬
##838
Ø§Ù„Ø²ÙŠØª
Ù†Ø¬Ùˆ
Ù…Ù†ØªÙˆØ¬
Ù…Ø´Ø¹
##Ø¨Ø±ÙŠÙ…Ø§
Ø¨Ø¹ÙŠÙ†ÙŠ
ÙˆÙŠØ¨Ø¯
Ø§Ù„Ù…Ø²Ø¯
Ø¥Ù†Ø´Ø§Ù„
Ø²Ù„Ø§
##Ø­ÙƒÙˆÙ…
Ø¹Ø§Ø§Ø§Ùˆ
##ÙƒÙˆØ§Ø¯Ø±
##Ø§Ù„Ø®Ø§Ù…Ø¬
Ù‡Ø²ÙŠÙ„
##Ù†Ù‚Ø¶
Ù…Ø³Ø¹Ø¯
##Ù„ÙŠÙ
Ù…ÙˆØ¬Ø¨
ÙŠØ±ÙˆØ¬
ØµØ±ÙØªÙˆÙ‡
##Ø²Ø§ÙˆÙŠ
ØªÙØ´Ù„
Ù†Ù†ØªØ®Ø¨ÙƒÙ…
Ù…ØºÙ„Ø·
Ø§Ø³ØªØ®Ø¯Ù…Ù‡
ÙˆØªÙˆÙƒÙ„
Ù„Ø³Ø§Ù…ÙŠ
Ù…Ù†Ø³Ù…Ø¹
ÙˆØ­Ø¯Ø®Ø±
ÙŠØªÙ„Ù‡
##Ù†Ø³Ù„Ø®Ùˆ
##Ø§Ø¦Ø²
Ø§Ù„Ø²Ùƒ
ÙØ¹
##Ø§Ù„Ø§Ù†ØªÙ‚Ø§Ø¯
##Ù„Ù„Ù„Ù„Ù„Ù„Ù„Ù„Ù„Ù„Ù„Ù„Ù„Ù„
ØªØµØ±ÙØ§ØªÙ‡
ÙÙˆØ±Ø±Ø±Ø±
##Ù…ÙˆÙ‡ÙˆØ¨
##Ø§Ù„Ø¹Ù†ØµØ±ÙŠ
Ø¨ÙÙ„Ùˆ
ØµØ§ÙŠÙ…
##Ø§Ù„Ù‚Ø§Ø¦Ù…
Ø­Ø§Ù…
##Ø¯Ø§Ù‡Ø§
Ø¥Øº
ÙˆØ¹Ø¯ØªÙˆÙ†
Ù…Ø§ØªØ¨Ù‚
Ù…Ù‚Ø¯Ù…ØªÙ‡
Ø§Ù†Ø¯Ù…
ÙˆØ®Ø§Ù„ÙŠ
##Ù„Ø¹Ø±ÙˆØ³
Ø§Ù„Ø¨ÙˆÙ„ÙŠ
##Ø¬Ø§Ø¦Ø¹
##Ù…Ø­Ø³Ù†
##Ù„Ù‚ÙŠØ§Ù…
Ø¬Ø¨Ø¯Øª
Ø¯Ø§Ù†Øª
##Ø´Ù‡Ø§Ø±ÙŠ
ÙˆÙŠÙƒØªØ¨
ÙˆÙˆØ¶Ø¹Ùƒ
Ù…ØµØ§Ø­Ø¨
ÙˆØ§Ù„Ù…ØªÙ…
Ø§Ø®Ù„Ø·
Ù…Ø²ÙŠØ§
Ù…Ù„ÙˆÙŠ
Ø§Ù„Ù…Ø¶Ø±
##Ù‚Ø±Ø§Øª
##Ø¹Ù„ÙŠØ§
Ù„Ø§Ø­Ø¸ØªÙˆ
Ø§Ù„Ø£Ø¹Ø±Ø§
##Ø¹ÙˆØ¨
Ø§Ù„Ø´Ù‡ÙŠ
Ø§Ù„Ø¹Ø«Ù…Ø§Ù†ÙŠ
ÙŠØ³ÙˆÙˆ
ÙØªÙˆØ­
ØªØªØ¹Ø§Ø±Ùƒ
##Ø§ØµÙ„Ø§Ø­Ø§Øª
Ù…Ø¹Ø¬Ø²
Ø­ØµØ±Ù‡
Ø¨Ø§Ù„Ø­Ø¨
Ø¨Ø§Ù„Ø§Ø¨Øª
##Ø·Ø±Ø§Ø·ÙŠ
Ø¨Ø³Ø§
##Ø§Ù‚ØªÙ†Ø§Ø¹
ÙØ§Ù„ÙƒØ±
##Ù‚Ø§Ù„ÙˆÙ„Ù‡Ø§
ØªØ¨Ù‡Ø¯Ù„
Ø§Ù„Ù…Ù†Ø¶Ù…
ÙˆÙ„Ù‡Ø¬
##ÙŠØ¶Ø­ÙƒÙ†ÙŠ
ÙˆØ§Ù„Ù‚Ù„
##56
ØªØ®ÙŠÙ„
Ø§Ù…ÙˆØ§Øª
Ù„Ù…Ø¬ØªÙ…Ø¹
##Ø¨Ø±ÙˆÙŠØ·
##Ø§Ù„Ø¯ÙŠØ§Ø«
Ø±Ø¯ÙŠØªÙˆ
ÙˆØ§Ø¶Ø¹
##Ø§Ù„Ø¹Ø²ÙŠØ²
ÙŠØ­Ø´Ùˆ
ÙˆØ«Ø§Ø¦Ù‚ÙŠ
##ÙˆØ§Ø·Ù†
ÙŠØ²ÙƒÙ…
ÙÙ„ÙŠØª
Ø¹Ù…Ù„ØªÙˆÙ‡
Ø§Ù„Ù…Ø³ÙŠØ³
Ù„Ù„Ø¬Ø±
##Ø§Ø§Ø§Ø§Ø§Ø¨
ÙˆÙ‡Ø§
##Ù‚Ùƒ
##Ø´ÙˆØ§
##ØªØ®Ø³Ø±
Ø§Ù„Ø¨Ø¹ÙŠØ¯
##Ù„Ø¹Ø±ÙŠØ¶
Ù…Ø³Ø§Ø¹ÙŠ
##Ù†Ù‡Ø¶
Ø¨Ø±Ø§Ù…Ø¬Ù‡
Ø¯ÙˆÙ…
##Ø£ÙˆÙ„ÙˆÙŠØ§Øª
##Ù‡Ø§Ø¬Ù…
Ø§Ù„Ø¹Ø¯Ù„ÙŠ
ØºÙŠØ§
##ÙˆØ³Ù„
##Ø­ÙŠØ«ÙŠØ§Øª
Ù…ØªØ®Ù
Ù„ÙØ§Ø¦Ø¯ØªÙ‡
Ø¨Ø§Ù„Ø³Ù„
Ø°Ø¨Ø°Ø¨
##Ø§Ø­ØªÙØ§Ù„
ÙŠØªØµØ¯Ù‚
##ØºØ·
Ø§Ù„Ù†Ø¬
Ø¥ÙŠÙ…Ø§Ù†
##Ù„ÙŠØ§Øª
##Ù„Ù…ØªØ¨Ø±Ø¬
Ù„Ø¬Ù…Ø§Ù„
Ù‚Ø¹Ø±Øª
Ù†Ø¹ÙŠØ·
ÙÙŠØ±ÙˆØ³
##ÙŠÙ„Ø¹Ù†
Ø§Ù„Ù…Ø¯Ø¹ÙˆÙ…
Ø§Ø¹ØªØ¨Ø§Ø±
##Ø°Ø±ÙŠØ¹
Ø§Ù„Ù…Ù‚Ø§Ø±
##Ø®Ù„Ø·Ù‡
Ù…Ø§ØªÙƒÙˆÙ†
##Ù…ØºÙÙ„
Ø§Ù†Ø¬Ø§Ø²Ø§Øª
ÙˆØ¨Ø£
Ù…Ø¯Ù†
ÙˆÙŠØ¨Ø¯Ùˆ
ÙŠØ´ÙˆÙ‡Ùˆ
##Ù„ÙƒÙˆÙ…Ù†ØªØ§Ø±
ÙˆØ´ØªØ±Ùƒ
ØªÙ…ÙŠÙ…
Ø³ÙŠÙ†Ø§Ù„
Ø¬Ù…ÙŠÙ„Ø§
ÙØ§Ø±Ø­
Ø£Ø¨Ø§
##Ø¯ÙˆØ®
ÙˆØ§Ù„ÙˆØ²Ø±Ø§
##ØªØ²ÙŠØ¯Ùˆ
Ù…Ø³Ø§Ø¹Ø¯ØªÙƒ
ÙŠÙˆØ±
Ø¶ÙŠØ¹Ùˆ
##Ù„ÙˆØº
##ÙˆØ­Ø´Ø´Ø´
##Ø¯ÙŠÙ‡
Ø®Ø§Ø·Ø±Ù‡
##Ø§Ù„ØºØ±Ø¨
##Ù„Ø­Ø³
ÙˆÙ…ÙˆØ¶ÙˆØ¹ÙŠ
Ù…ØªÙˆÙ„ÙŠ
Ù„Ù„ØªÙˆÙ†Ø³
Ù…Ù„ÙˆÙƒ
ÙˆØ§ØªÙ‚Ø§
Ø¹Ù…Ù„Ø§
##Ù„ØªØ±Ø´ÙŠ
ÙˆÙŠØ¹ÙŠÙ†Ùƒ
##Ø¹Ø§Ù…Ù„
##Ù…Ù†ØµØ¨
ÙŠØ¨Ø¹Øª
ØºÙ†Ø§ÙŠØªÙƒ
##Ø«Ø§Ù†ÙˆÙŠ
##Ø¬Ù†ÙˆØ¨
ÙˆÙ…Ø¨Ø§Ø¯Ø¦
Ø¬Ù…Ù‡Ùˆ
Ø§Ù„Ù…ØªØµ
##Ø£Ø´Ø­Ù†
Ù…Ø§ÙŠØ´ÙˆÙ
Ù„Ø§Ø³ÙŠØ§Ø¯
Ø¨ØµÙØª
Ø¥Ø¹ØªØ¨Ø§Ø±
##Ù†Ø¬Ø­Øª
Ù†Ø®Ù„ÙˆÙ‡
Ø±ÙÙŠØ¹
ØªÙÙˆÙˆÙˆÙˆÙˆÙˆÙˆ
ÙˆÙ…ØªØ§Ø¨Ø¹
Ù…Ø¯Ø±Ø¬
ÙˆØªÙˆØ¹ÙŠ
ÙŠØµØ¨
ÙˆØ§Ø·ÙŠ
ÙˆØªÙ‚Ø¯ÙŠÙ…
Ù„Ø§ØªÙƒÙˆÙ†
ÙˆØªØ®Ù„
##Ø´ÙˆØ¨
##Ø§Ù„Ù…Ø¹Ø§Ù‡Ø¯
Ù„Ø±ÙŠØ§Ø¶
ÙˆÙØ³Ø®
ÙˆØ£Ù…Ø«Ø§Ù„Ù‡
ØªØ­ÙˆÙŠ
ÙŠØ­Ø§Ø³Ø¨Ùˆ
##Ù‚Ø¯Ù…Ù‡
Ø´Ø§Ù‡Øª
Ø¨ØªÙ…Ø¯
ØªØ¹ØªØ¯Ùˆ
ÙˆØ¨Ø¹Ø«
##Ù…ÙƒÙŠØ¬
##ÙØµÙŠ
Ø£Ù†Ø¯Ù…
Ø¹Ù…Ù„Ù†
##Ù…Ø­Ø²Ù†
ÙŠØ°Ù…
ÙˆØµØ­ØªÙƒ
ÙˆØ±Ø¬Ø§Ù„Ù‡
##Ù†ØºØ³Ù„
Ø­Ù„ÙŠØªÙˆ
##ØªØ¹Ø¯Ø§Ùˆ
Ø§Ù„Ø§Ø¶Ø±Ø§
##ÙŠØªØ²Ø¨Ø±
ÙÙ‡Ø§Ø°
Ø´Ø±Ø§Ùƒ
Ø£Ø­ÙŠØ§Ù†
Ø·Ø§Ø¹Øª
ÙŠØ±Ø¬Ø¹Ù„
##Ø£Ù†Ù‡
ÙŠØ¨Ø¹Ø«Ùˆ
##Ø²ÙŠÙ†Ùƒ
ÙƒÙ‰
ÙŠØ³Ù…ÙˆÙ†
Ù…Ù‚Ù„ÙˆØ¨
ÙˆØ¨ÙƒÙŠ
Ù…Ù‡Ø§Ù…
Ø³ØªØ¬Ø±
##Ø¹Ø§Ù„
Ù…ÙˆØ§ÙÙ‚Ù†
##Ø´ØªÙ„Ø§Ø´
[...]
